{
  "version": "1.0",
  "truncation": null,
  "padding": null,
  "added_tokens": [
    {
      "id": 0,
      "content": "<|pad|>",
      "single_word": false,
      "lstrip": false,
      "rstrip": false,
      "normalized": false,
      "special": true
    },
    {
      "id": 1,
      "content": "<|bos|>",
      "single_word": false,
      "lstrip": false,
      "rstrip": false,
      "normalized": false,
      "special": true
    },
    {
      "id": 2,
      "content": "<|eos|>",
      "single_word": false,
      "lstrip": false,
      "rstrip": false,
      "normalized": false,
      "special": true
    },
    {
      "id": 3,
      "content": "<|unk|>",
      "single_word": false,
      "lstrip": false,
      "rstrip": false,
      "normalized": false,
      "special": true
    }
  ],
  "normalizer": null,
  "pre_tokenizer": {
    "type": "ByteLevel",
    "add_prefix_space": false,
    "trim_offsets": true,
    "use_regex": true
  },
  "post_processor": {
    "type": "ByteLevel",
    "add_prefix_space": true,
    "trim_offsets": false,
    "use_regex": true
  },
  "decoder": {
    "type": "ByteLevel",
    "add_prefix_space": true,
    "trim_offsets": true,
    "use_regex": true
  },
  "model": {
    "type": "BPE",
    "dropout": null,
    "unk_token": null,
    "continuing_subword_prefix": null,
    "end_of_word_suffix": null,
    "fuse_unk": false,
    "byte_fallback": false,
    "ignore_merges": false,
    "vocab": {
      "<|pad|>": 0,
      "<|bos|>": 1,
      "<|eos|>": 2,
      "<|unk|>": 3,
      "!": 4,
      "\"": 5,
      "#": 6,
      "$": 7,
      "%": 8,
      "&": 9,
      "'": 10,
      "(": 11,
      ")": 12,
      "*": 13,
      "+": 14,
      ",": 15,
      "-": 16,
      ".": 17,
      "/": 18,
      "0": 19,
      "1": 20,
      "2": 21,
      "3": 22,
      "4": 23,
      "5": 24,
      "6": 25,
      "7": 26,
      "8": 27,
      "9": 28,
      ":": 29,
      ";": 30,
      "<": 31,
      "=": 32,
      ">": 33,
      "?": 34,
      "@": 35,
      "A": 36,
      "B": 37,
      "C": 38,
      "D": 39,
      "E": 40,
      "F": 41,
      "G": 42,
      "H": 43,
      "I": 44,
      "J": 45,
      "K": 46,
      "L": 47,
      "M": 48,
      "N": 49,
      "O": 50,
      "P": 51,
      "Q": 52,
      "R": 53,
      "S": 54,
      "T": 55,
      "U": 56,
      "V": 57,
      "W": 58,
      "X": 59,
      "Y": 60,
      "Z": 61,
      "[": 62,
      "\\": 63,
      "]": 64,
      "^": 65,
      "_": 66,
      "`": 67,
      "a": 68,
      "b": 69,
      "c": 70,
      "d": 71,
      "e": 72,
      "f": 73,
      "g": 74,
      "h": 75,
      "i": 76,
      "j": 77,
      "k": 78,
      "l": 79,
      "m": 80,
      "n": 81,
      "o": 82,
      "p": 83,
      "q": 84,
      "r": 85,
      "s": 86,
      "t": 87,
      "u": 88,
      "v": 89,
      "w": 90,
      "x": 91,
      "y": 92,
      "z": 93,
      "{": 94,
      "|": 95,
      "}": 96,
      "~": 97,
      "¡": 98,
      "¢": 99,
      "£": 100,
      "¤": 101,
      "¥": 102,
      "¦": 103,
      "§": 104,
      "¨": 105,
      "©": 106,
      "ª": 107,
      "«": 108,
      "¬": 109,
      "®": 110,
      "¯": 111,
      "°": 112,
      "±": 113,
      "²": 114,
      "³": 115,
      "´": 116,
      "µ": 117,
      "¶": 118,
      "·": 119,
      "¸": 120,
      "¹": 121,
      "º": 122,
      "»": 123,
      "¼": 124,
      "½": 125,
      "¾": 126,
      "¿": 127,
      "À": 128,
      "Á": 129,
      "Â": 130,
      "Ã": 131,
      "Ä": 132,
      "Å": 133,
      "Æ": 134,
      "Ç": 135,
      "È": 136,
      "É": 137,
      "Ê": 138,
      "Ë": 139,
      "Ì": 140,
      "Í": 141,
      "Î": 142,
      "Ï": 143,
      "Ð": 144,
      "Ñ": 145,
      "Ò": 146,
      "Ó": 147,
      "Ô": 148,
      "Õ": 149,
      "Ö": 150,
      "×": 151,
      "Ø": 152,
      "Ù": 153,
      "Ú": 154,
      "Û": 155,
      "Ü": 156,
      "Ý": 157,
      "Þ": 158,
      "ß": 159,
      "à": 160,
      "á": 161,
      "â": 162,
      "ã": 163,
      "ä": 164,
      "å": 165,
      "æ": 166,
      "ç": 167,
      "è": 168,
      "é": 169,
      "ê": 170,
      "ë": 171,
      "ì": 172,
      "í": 173,
      "î": 174,
      "ï": 175,
      "ð": 176,
      "ñ": 177,
      "ò": 178,
      "ó": 179,
      "ô": 180,
      "õ": 181,
      "ö": 182,
      "÷": 183,
      "ø": 184,
      "ù": 185,
      "ú": 186,
      "û": 187,
      "ü": 188,
      "ý": 189,
      "þ": 190,
      "ÿ": 191,
      "Ā": 192,
      "ā": 193,
      "Ă": 194,
      "ă": 195,
      "Ą": 196,
      "ą": 197,
      "Ć": 198,
      "ć": 199,
      "Ĉ": 200,
      "ĉ": 201,
      "Ċ": 202,
      "ċ": 203,
      "Č": 204,
      "č": 205,
      "Ď": 206,
      "ď": 207,
      "Đ": 208,
      "đ": 209,
      "Ē": 210,
      "ē": 211,
      "Ĕ": 212,
      "ĕ": 213,
      "Ė": 214,
      "ė": 215,
      "Ę": 216,
      "ę": 217,
      "Ě": 218,
      "ě": 219,
      "Ĝ": 220,
      "ĝ": 221,
      "Ğ": 222,
      "ğ": 223,
      "Ġ": 224,
      "ġ": 225,
      "Ģ": 226,
      "ģ": 227,
      "Ĥ": 228,
      "ĥ": 229,
      "Ħ": 230,
      "ħ": 231,
      "Ĩ": 232,
      "ĩ": 233,
      "Ī": 234,
      "ī": 235,
      "Ĭ": 236,
      "ĭ": 237,
      "Į": 238,
      "į": 239,
      "İ": 240,
      "ı": 241,
      "Ĳ": 242,
      "ĳ": 243,
      "Ĵ": 244,
      "ĵ": 245,
      "Ķ": 246,
      "ķ": 247,
      "ĸ": 248,
      "Ĺ": 249,
      "ĺ": 250,
      "Ļ": 251,
      "ļ": 252,
      "Ľ": 253,
      "ľ": 254,
      "Ŀ": 255,
      "ŀ": 256,
      "Ł": 257,
      "ł": 258,
      "Ń": 259,
      "ĠÐ": 260,
      "Ð¾": 261,
      "Ðµ": 262,
      "Ð°": 263,
      "Ð¸": 264,
      "Ð½": 265,
      "ÑĤ": 266,
      "Ñģ": 267,
      "ÑĢ": 268,
      "Ð¾Ð": 269,
      "Ð»": 270,
      "Ðº": 271,
      "Ñĥ": 272,
      "Ð²": 273,
      "Ñı": 274,
      "Ð¼": 275,
      "Ñĭ": 276,
      "ÑģÑĤ": 277,
      "Ð´": 278,
      "ĠÐ¿": 279,
      "ÑĮ": 280,
      "ĠÐ²": 281,
      "ÐµÐ½": 282,
      "ÑĢÐ°": 283,
      "Ñĩ": 284,
      "Ð¾Ð²": 285,
      "Ð·": 286,
      "ĠÑģ": 287,
      "ĠÐ¸": 288,
      "Ñħ": 289,
      "Ð¹": 290,
      "Ð¿": 291,
      "ÑģÐº": 292,
      "Ð³": 293,
      "ĠÐ¾": 294,
      "ĠÐ½": 295,
      "ÑĢÐµ": 296,
      "Ð°Ð½": 297,
      "Ð±": 298,
      "Ð¾Ð´": 299,
      "Ð¾Ð»": 300,
      "ÑĢÐ¸": 301,
      "ĠÐº": 302,
      "Ð½Ñĭ": 303,
      "ÑĨ": 304,
      "Ð°Ð»": 305,
      "Ð¾Ð¼": 306,
      "Ð¾ÑĢ": 307,
      "Ñİ": 308,
      "Ð¾Ð³": 309,
      "ÐµÑĢ": 310,
      "ÐµÐ»": 311,
      "Âł": 312,
      "ĠÐ´": 313,
      "Ð¾Ð¹": 314,
      "ÐµÑĤ": 315,
      "Ð¶": 316,
      "ÑĪ": 317,
      "ÐµÐ½Ð¸": 318,
      "Ð¾Ð½": 319,
      "ĠÐ½Ð°": 320,
      "ĠÑĤ": 321,
      "ĠÐ¼": 322,
      "Ð½Ð¾": 323,
      "Ð°ÑĤ": 324,
      "ĠÐ³": 325,
      "Ð¸ÑĤ": 326,
      "âĢ": 327,
      "ÑĦ": 328,
      "Ð¸Ð½": 329,
      "âĢĶ": 330,
      "ĠÐ±": 331,
      "Ð¾ÑĤ": 332,
      "Ð»Ð¸": 333,
      "ÑģÑĤÐ²": 334,
      "Ð¾Ñģ": 335,
      "Ġ(": 336,
      "Ġ1": 337,
      "Ð¾Ð³Ð¾": 338,
      "Ñī": 339,
      "Ð½Ð¸": 340,
      "Ð»Ð°": 341,
      "ÐµÐ¼": 342,
      "ÑģÐºÐ¸": 343,
      "Ð°Ðº": 344,
      "Ð°ÑĢ": 345,
      "ÑģÑı": 346,
      "ÑĨÐ¸": 347,
      "ĠÐ°": 348,
      "ĠÐ·": 349,
      "Ñĳ": 350,
      "Ð¼Ð¸": 351,
      "ĠÑĥ": 352,
      "ÐµÐ¹": 353,
      "Ð°Ð½Ð¸": 354,
      "ÑĩÐµ": 355,
      "ÐºÐ°": 356,
      "Â»": 357,
      "ĠÐ¡": 358,
      "Â«": 359,
      "Ñį": 360,
      "Ð°Ñı": 361,
      "ÑĢÑĥ": 362,
      "ĠÑĢÐ°": 363,
      "ĠÐĴ": 364,
      "ĠÂ«": 365,
      "ĠÑĩ": 366,
      "ÐµÐ´": 367,
      "ÑĤÐ¸": 368,
      "ĠÐ¿ÑĢ": 369,
      "Ð¾ÑģÑĤ": 370,
      "Ð¾Ð±": 371,
      "Ð»Ñı": 372,
      "Ð°Ð²": 373,
      "ÐµÐ»ÑĮ": 374,
      "ĠÐŁ": 375,
      "ĠÐ¾Ð±": 376,
      "ÐµÐº": 377,
      "Ð¸Ð»": 378,
      "ĠÐļ": 379,
      "ĠÐ¾ÑĤ": 380,
      "Ð¸Ñģ": 381,
      "Ð¾Ðº": 382,
      "ĠÑģÑĤ": 383,
      "ÐµÐ²": 384,
      "ĠÐ¿ÑĢÐ¸": 385,
      "ÐµÐ½Ð¸Ñı": 386,
      "ĠÑį": 387,
      "ÐºÐ¸": 388,
      "Ð¾Ð»ÑĮ": 389,
      "Ð½ÑĭÑħ": 390,
      "ÑĢÐµÐ´": 391,
      "Ð¾Ð·": 392,
      "ĠÐ½Ðµ": 393,
      "Ð½Ð¾Ð¹": 394,
      "ĠÐ»": 395,
      "Ġ19": 396,
      "ĠÐĲ": 397,
      "Ð¾Ð¶": 398,
      "ĠÐľ": 399,
      "ÑĤÐ¾": 400,
      "ĠÐ¸Ð·": 401,
      "Ð°Ð¼": 402,
      "ĠÑĦ": 403,
      "Ð¡": 404,
      "ÑģÑĤÐ¸": 405,
      "Ġ2": 406,
      "ĠÐ±Ñĭ": 407,
      "Ð¾Ð´Ð°": 408,
      "Ð°Ð»ÑĮ": 409,
      "Ð¾Ð¿": 410,
      "ÑģÐ¸": 411,
      "ĠÐ¿Ð¾": 412,
      "ÑģÐºÐ¸Ð¹": 413,
      "Ð½ÑĭÐµ": 414,
      "Ð³Ð¾": 415,
      "Ð½Ð°": 416,
      "Ð½ÑĭÐ¹": 417,
      "ĠÐµ": 418,
      "ÑģÐ¿": 419,
      "Ð¸Ð¼": 420,
      "Ð½Ð¾Ð³Ð¾": 421,
      "ÑĢÐ¾Ð²": 422,
      "ÐµÐ½Ð¸Ðµ": 423,
      "ĠÐł": 424,
      "Ð¸Ð·": 425,
      "ÑĥÑİ": 426,
      "Ð¸Ð²": 427,
      "ĠÑĢÐµ": 428,
      "ĠÐĵ": 429,
      "ÐµÐ½ÑĤ": 430,
      "ĠÐĿ": 431,
      "ĠÐ²Ñĭ": 432,
      "ÑģÐºÐ¾Ð¹": 433,
      "Ð´Ð°": 434,
      "Ð»ÑĮ": 435,
      "ĠÐĳ": 436,
      "ÐŁ": 437,
      "ÐĴ": 438,
      "ĠĊ": 439,
      "ÑģÑĤÑĮ": 440,
      "ÑģÐºÐ¾Ð³Ð¾": 441,
      "ĠÐ·Ð°": 442,
      "Ð¸Ñħ": 443,
      "ÐµÑĢÐ°": 444,
      "ĠÐŀ": 445,
      "ĠÑģÐ²": 446,
      "ÑĢÐ°Ð²": 447,
      "ĠÐĶ": 448,
      "ÐµÑĢÐµ": 449,
      "ĠÐ¢": 450,
      "ÐºÐ¾Ð²": 451,
      "ÑİÑĤ": 452,
      "ĠÐ¶": 453,
      "ÑĥÑĢ": 454,
      "Ð²Ð°": 455,
      "ĠÐ¿Ð¾Ð»": 456,
      "Ð¼Ðµ": 457,
      "Ð¸ÑĩÐµ": 458,
      "ÑĤÐ°": 459,
      "ĠÐĺ": 460,
      "Ð¾ÑĤÐ¾ÑĢ": 461,
      "ÑĢÐ°Ð½": 462,
      "ÑĥÐ´": 463,
      "ĠÑĢÐ°Ð·": 464,
      "ÐµÑĤÑģÑı": 465,
      "),": 466,
      "ĠÑı": 467,
      "ÑĨÐ¸Ð¸": 468,
      "Ġ20": 469,
      ").": 470,
      "Ð¾Ð´Ñĥ": 471,
      "Ð¶Ðµ": 472,
      "ÐµÑģ": 473,
      "Ð¸Ðµ": 474,
      "ÑīÐµ": 475,
      "ÑıÑĤ": 476,
      "Ð½Ð°Ñı": 477,
      "Ð¸Ð´": 478,
      "Ð°Ð½Ð¸Ñı": 479,
      "ÑĥÑĤ": 480,
      "Ð¾Ñĩ": 481,
      "Ð¸Ð¸": 482,
      "Ð¸Ðº": 483,
      "Ð°Ñģ": 484,
      "Ð¸Ñı": 485,
      "ĠÑĤÐ°Ðº": 486,
      "ĠÑħ": 487,
      "Ð°ÑĤÑĮ": 488,
      "ĠÐ¿ÑĢÐ¾": 489,
      "Ð»Ðµ": 490,
      "Ð¸ÑģÑĤ": 491,
      "Ð¸Ð¹": 492,
      "Ð·Ñĭ": 493,
      "ĠÐĽ": 494,
      "ĠÐ¿Ð¾Ð´": 495,
      "Ð¾Ðµ": 496,
      "Ð°Ð´": 497,
      "ÑĥÑĩ": 498,
      "ĠÐºÐ¾ÑĤÐ¾ÑĢ": 499,
      "ÑģÑĤÐ²ÐµÐ½": 500,
      "Ð½Ð¾Ð²": 501,
      "Ð½Ðµ": 502,
      "Ð¸ÑĤÐµÐ»ÑĮ": 503,
      "ÑĢÐµÐ¼": 504,
      "ĠÑĢ": 505,
      "Ð¶Ð´": 506,
      "ÑĭÑħ": 507,
      "ĠÐ±ÑĭÐ»": 508,
      "Ð½ÑĭÐ¼": 509,
      "ÑħÐ¾Ð´": 510,
      "Ð½Ð¾Ðµ": 511,
      "ÐµÑĢÐ¸": 512,
      "ÐĲ": 513,
      "ĠÐ¿ÑĢÐµÐ´": 514,
      "ÑĭÐµ": 515,
      "ÑģÑĤÐ²Ð°": 516,
      "Ðļ": 517,
      "Ð°Ð·": 518,
      "ĠÐ³Ð¾Ð´Ð°": 519,
      "ĠÑĩÑĤÐ¾": 520,
      "ÑĢÐ¾": 521,
      "ĠÐ¾Ñģ": 522,
      "ÑģÐºÐ¸Ñħ": 523,
      "Ð¼Ð°": 524,
      "Ð»ÐµÐ½": 525,
      "ÐµÑģÑĤ": 526,
      "Ðł": 527,
      "Ð¾ÑĢÐ¸": 528,
      "ĠÑĨ": 529,
      "ÑģÐºÐ°Ñı": 530,
      "ĠÑģÐ¾": 531,
      "Ð½Ð¾Ð¼": 532,
      "ÑĢÐ°Ð·": 533,
      "ĠÐºÐ°Ðº": 534,
      "ĠÐ¤": 535,
      "ÐµÐ·": 536,
      "ÑĳÐ½": 537,
      "ÐµÑĢÐ²": 538,
      "ÐºÑĤ": 539,
      "Ð°Ð»Ð¸": 540,
      "Ð»ÐµÐ´": 541,
      "ĠÐ´Ð»Ñı": 542,
      "Ð½Ñı": 543,
      "ÑģÑĤÐ²Ð¾": 544,
      "ÑĥÐ±": 545,
      "ĠÐ¿Ð¾Ñģ": 546,
      "Ð½Ð¾ÑģÑĤÐ¸": 547,
      "Ð°Ñħ": 548,
      "Ð¸Ñĩ": 549,
      "ÑĭÐ¹": 550,
      "ĠÐ³Ð¾ÑĢ": 551,
      "ÑĥÑģ": 552,
      "Ð°Ð¹": 553,
      "ĠÐºÐ¾Ð½": 554,
      "Ð½Ð¾ÑģÑĤÑĮ": 555,
      "Ð°Ð½Ð¸Ðµ": 556,
      "19": 557,
      "ĠÐ¸Ð¼": 558,
      "ĠÐ¿ÑĢÐµ": 559,
      "Ðŀ": 560,
      "ÐºÐ¾": 561,
      "ÑĢÑı": 562,
      "ĠÐ¾Ð´": 563,
      "ÐĿ": 564,
      "ÑĢÑĭ": 565,
      "ÑģÐµ": 566,
      "ĠÑĪ": 567,
      "ÑĤÐ¾ÑĢ": 568,
      "Ð¸Ð½Ð°": 569,
      "ÑĢÑĥÐ³": 570,
      "Â»,": 571,
      "Ð¸Ð»Ð¸": 572,
      "Â».": 573,
      "Ð°Ð½Ð´": 574,
      "ĠÐ¾Ð¿": 575,
      "00": 576,
      "Ð»Ð¾Ð²": 577,
      "ĠÐºÐ¾Ð¼": 578,
      "Ð¾Ñı": 579,
      "ÑģÐºÐ¸Ðµ": 580,
      "ĠÐ³Ð¾Ð´Ñĥ": 581,
      "ĠÐ¸Ð½": 582,
      "ÑĥÐ¼": 583,
      "ĠÐ²Ð¾": 584,
      "ÑĩÐ°": 585,
      "Ð¾ÑģÑģÐ¸": 586,
      "ĠÐµÐ³Ð¾": 587,
      "Ð»ÐµÐº": 588,
      "ÑĥÐ½": 589,
      "ĠÑģÐ¿": 590,
      "Ġ18": 591,
      "Ð°ÑĤÐµÐ»ÑĮ": 592,
      "ĠÐ¿ÐµÑĢÐµ": 593,
      "Ð·Ð°": 594,
      "ĠÐ´Ð¾": 595,
      "ÑĥÐ¿": 596,
      "ĠÑģÐ¾ÑģÑĤ": 597,
      "ĠÐŃ": 598,
      "ÑİÑī": 599,
      "Ð¸ÑĢ": 600,
      "Ð¼ÐµÑĢ": 601,
      "ÐµÐµ": 602,
      "Ð»Ð°Ð²": 603,
      "Ðľ": 604,
      "ĠÑįÑĤ": 605,
      "Ñĸ": 606,
      "ÑĥÐ»ÑĮ": 607,
      "Ð°Ð¼Ð¸": 608,
      "ĠÑĤÐµ": 609,
      "Ð»Ñİ": 610,
      "Ð¸ÑĤÑĮ": 611,
      "ÑĨÐ¸Ñı": 612,
      "ĠÑĩÐ°": 613,
      "ĠÐ£": 614,
      "Ð°Ð³": 615,
      "Ðĺ": 616,
      "ÐºÐµ": 617,
      "ĠÐ²Ð¾Ð·": 618,
      "ÑĨÐ¸Ð¾Ð½": 619,
      "ĠÐķ": 620,
      "Ð°ÑĢÐ°": 621,
      "ĠÑĤÐ°ÐºÐ¶Ðµ": 622,
      "ĠÐĹ": 623,
      "ĠÑģÐ¾Ð²": 624,
      "ÑģÑĮ": 625,
      "Ð¸Ð»ÑĮ": 626,
      "Ð¾ÑĢÐ°": 627,
      "Ð°Ð»Ð°": 628,
      "ĠÐ²ÑĢÐµÐ¼": 629,
      "Ð¾Ð½Ð°": 630,
      "Ð¾Ð»ÑĮÑĪ": 631,
      "Ð½Ð¸Ðº": 632,
      "Ð¸Ð±": 633,
      "Ð°Ð½Ð¾Ð²": 634,
      "ÑģÐºÐ¾Ð¼": 635,
      "ÑĬ": 636,
      "ÐĶ": 637,
      "Ð»Ð¾": 638,
      "ĠÐ´Ðµ": 639,
      "ĠÑĢÑĥ": 640,
      "Ð±Ð¾ÑĤ": 641,
      "Ð¼ÐµÐ½": 642,
      "ĠÐ¸ÑģÐ¿": 643,
      "Ð²Ð¸": 644,
      "ÑĤÑĥ": 645,
      "Ġ3": 646,
      "ĠI": 647,
      "Ð°ÑĢÐ¸": 648,
      "Ðĵ": 649,
      "ĠÐ¿ÑĢÐ°Ð²": 650,
      "Ð´Ðµ": 651,
      "Ð²ÐµÑĢ": 652,
      "ÑĥÐ¶": 653,
      "Ð¾Ð»Ð¾Ð³": 654,
      "ÑģÑĤÐ°Ð²": 655,
      "ĠÐ¥": 656,
      "Ð²Ð»Ñı": 657,
      "ĠÐ¸Ð»Ð¸": 658,
      "ÑģÑģ": 659,
      "Ð´Ð¸": 660,
      "ÐµÐ½Ð¸Ð¸": 661,
      "Ð½Ð°Ñĩ": 662,
      "ĠÐ½Ð°Ñĩ": 663,
      "Ð¢": 664,
      "ĠÐ¼Ðµ": 665,
      "ÑĨÐ°": 666,
      "Ð½ÑĭÐ¼Ð¸": 667,
      "ÑĳÑĤ": 668,
      "Ð°Ð½Ð°": 669,
      "Ð³Ð¸": 670,
      "Ð½ÑĥÑİ": 671,
      "ĠÐ¾Ðº": 672,
      "ÑİÑĤÑģÑı": 673,
      "ÐµÐ»Ñı": 674,
      "ÐºÑĥ": 675,
      "ÐµÐ»Ð¸": 676,
      "ĠÐ´ÑĢÑĥÐ³": 677,
      "ĠÑģÐ²Ð¾": 678,
      "ÑĤÑĮ": 679,
      "Ð°Ð¿": 680,
      "Ð¾Ð³ÑĢÐ°": 681,
      "ĠÐ¿ÐµÑĢÐ²": 682,
      "Ð¾Ð»ÑĮÐ·": 683,
      "Ġ200": 684,
      "ÑģÐ°": 685,
      "ÑĢÐ¾Ð¼": 686,
      "ÐµÐ½Ð°": 687,
      "ÑĭÐ¼": 688,
      "ĠÐłÐ¾ÑģÑģÐ¸": 689,
      "ĠÐ¾ÑģÐ½Ð¾Ð²": 690,
      "ĠÐ°ÑĢ": 691,
      "ĠÐ°Ð²": 692,
      "ÑĥÑīÐµ": 693,
      "ÐµÑĩ": 694,
      "ÐµÐ½Ð¸Ð¹": 695,
      "ÐµÐ½ÑĮ": 696,
      "ĠÑģÐ»": 697,
      "Ð²Ð¾Ð´": 698,
      "ĠÑģÐ°Ð¼": 699,
      "ÑĢÑĥÐ¿": 700,
      "Ð³Ð°": 701,
      "Ð¸ÑģÑĮ": 702,
      "ĠÑıÐ²Ð»Ñı": 703,
      "Ð±ÑĢÑı": 704,
      "Ðĳ": 705,
      "ĠÐ²ÑģÐµ": 706,
      "Ġ201": 707,
      "ÑĤÐ¸Ð²": 708,
      "ĠÐ¾ÑĢ": 709,
      "ĠÐ§": 710,
      "Ð¾ÑģÑĥÐ´": 711,
      "er": 712,
      "Ð°Ð½Ð¸Ð¸": 713,
      "ÑĤÐµ": 714,
      "Ð¾ÑģÑĮ": 715,
      "ĠÐ²Ð¾Ð¹": 716,
      "ĠÐ¾Ð½": 717,
      "ÑĪÐµ": 718,
      "ĠÑģÐ¾Ð±": 719,
      "ĠÐ¨": 720,
      "ĠÐ³Ð¾ÑĢÐ¾Ð´": 721,
      "ĠÐ½Ð°Ð¿": 722,
      "ÑģÐºÐ¾Ðµ": 723,
      "ĠÐ¸ÑģÑĤ": 724,
      "Ð³ÑĢÐ°": 725,
      "ÐµÑĤÐ°": 726,
      "Ð¾ÑģÑĥÐ´Ð°ÑĢ": 727,
      "Ð³Ð¾Ð´Ð°": 728,
      "ĠÐ¿Ð¾ÑģÑĤ": 729,
      "Ð¸ÑĢÐ¾Ð²": 730,
      "ĠÐ¾Ð±ÑĢÐ°Ð·": 731,
      "ÐĽ": 732,
      "ĠÑģÐ¾ÑģÑĤÐ°Ð²": 733,
      "Ð½ÐµÐ¹": 734,
      "Ð¾Ð»ÑĮÐºÐ¾": 735,
      "Ð³Ñĥ": 736,
      "ÑĥÑħ": 737,
      "ĠÑįÐº": 738,
      "Ð¸ÑĨ": 739,
      "Ġ4": 740,
      "Ð»ÐµÐ½Ð¸Ñı": 741,
      "ĠÐ°Ð½": 742,
      "Ð¾Ð»ÐµÐµ": 743,
      "Ð²Ðµ": 744,
      "ĠÐ³Ð¾Ð´": 745,
      "Ð¸Ð¿": 746,
      "ĠâĢĶ": 747,
      "ÑĢÐ¾Ð´": 748,
      "ÐµÑĢÐ¶": 749,
      "ÑıÐ·": 750,
      "ĠÐ¾Ð±Ð»Ð°": 751,
      "Ġ5": 752,
      "ÑıÐ½": 753,
      "ÑĤÐ¾Ð²": 754,
      "ĠÐ±ÑĭÐ»Ð¸": 755,
      "Ð·Ð²": 756,
      "Ð¾Ð·Ð´": 757,
      "ÑĢÐ¾Ð¿": 758,
      "Ð¸Ð»Ð°": 759,
      "Ð°Ð±": 760,
      "Ð¸Ð¼Ð¸": 761,
      "ĠÐ²ÑĢÐµÐ¼Ñı": 762,
      "Ġ199": 763,
      "ÐµÐ¿": 764,
      "ĠÐ¿ÑĢÐ¾Ð¸Ð·": 765,
      "ĠÐ±ÑĭÐ»Ð¾": 766,
      "Ð¼Ñĥ": 767,
      "ÐµÑĨ": 768,
      "ĠX": 769,
      "ĠÐ¿ÑĢÐ¾ÑĤ": 770,
      "ĠÑĢÐ°ÑģÐ¿": 771,
      "Ð´ÐµÐ»": 772,
      "Ð¾ÑģÑĤÐ¸": 773,
      "ĠÐºÐ¾ÑĢ": 774,
      "Ð¤": 775,
      "ĠÐ¸ÑģÐ¿Ð¾Ð»ÑĮÐ·": 776,
      "Ð¼Ñĭ": 777,
      "ÑĥÐ·": 778,
      "ÐµÐ»Ð¾Ð²": 779,
      "ÑĥÐ»ÑĮÑĤ": 780,
      "ĠÐ±Ð¾Ð»ÑĮÑĪ": 781,
      "ĠÐ½Ð¾": 782,
      "ÐºÐ°Ð·": 783,
      "ÐµÐ½Ñĭ": 784,
      "ĠÑıÐ·Ñĭ": 785,
      "ÑĳÑĢ": 786,
      "ÑĤÐ¾Ð¼": 787,
      "ĠÐ¼ÐµÑģÑĤ": 788,
      "ĠÐ·Ð°Ðº": 789,
      "ĠÑĤÐµÑĢ": 790,
      "ÑĳÐ¼": 791,
      "ÐµÐ½Ð¸Ñİ": 792,
      "ĠÐĲÐ½": 793,
      "ÑĤÑĭ": 794,
      "ÑĢÐ°Ð¶": 795,
      "ĠÑĢÐ°Ð±Ð¾ÑĤ": 796,
      "ÑĥÐ»": 797,
      "ÐµÐ½Ð¸ÐµÐ¼": 798,
      "ĠÐºÐ¾Ð¼Ð¿": 799,
      "II": 800,
      "ĠÑĩÐ¸Ñģ": 801,
      "ÑĦÐ¸": 802,
      "ÐµÐ¹ÑģÑĤÐ²": 803,
      "Ð½Ð°Ðº": 804,
      "ĠÐ¾Ð±ÑĬ": 805,
      "ĠÐĿÐ°": 806,
      "ĠÐ±ÑĭÐ»Ð°": 807,
      "ÑģÐºÐ¸Ð¼": 808,
      "ÐµÐºÐ°": 809,
      "18": 810,
      "ĠÑģÑĢÐµÐ´": 811,
      "Ð²ÐµÑĤ": 812,
      "ĠÐ¿Ð°ÑĢ": 813,
      "ÑĢÐ¾Ð½": 814,
      "ĠÐ·Ð°Ð¿": 815,
      "ĠÐ¼Ð½": 816,
      "ĠÐ½Ð°Ñģ": 817,
      "ÑĤÐ¾ÑĢÐ¸": 818,
      "ĠÐºÐ¾Ð»": 819,
      "Ð½Ð¸ÐºÐ°": 820,
      "Ð²ÐµÐ´": 821,
      "ĠÐ¦": 822,
      "ÐºÐ°Ð½": 823,
      "ĠÐ²ÐµÑĢ": 824,
      "ĠÐ¼Ð¾Ð¶": 825,
      "ĠÐ³Ð¾ÑģÑĥÐ´Ð°ÑĢ": 826,
      "Ð¸ÑģÑĤÐµÐ¼": 827,
      "in": 828,
      "ÑģÐ¾Ð²": 829,
      "Ð¡Ðł": 830,
      "an": 831,
      "Ð³Ð¾Ð´Ñĥ": 832,
      "Ð¾Ð»Ð¶": 833,
      "ÑĥÑīÐµÑģÑĤÐ²": 834,
      "Ð¼Ð°ÑĤ": 835,
      "ÐµÐ±": 836,
      "ĠÐ¿Ð¾Ð»ÑĥÑĩ": 837,
      "ĠÐ³ÑĢÐ°": 838,
      "Ð¾Ð³Ð´Ð°": 839,
      "Ð°Ð»Ð¾": 840,
      "ÑĥÐ±Ð»Ð¸": 841,
      "ĠÐ´Ð²": 842,
      "ĠÑĩÐµÐ»Ð¾Ð²": 843,
      "ÑĦÐ¾ÑĢ": 844,
      "Ð¸ÑĢÐ°": 845,
      "ĠÐ¸Ñħ": 846,
      "Ð°ÐµÑĤ": 847,
      "ĠÑģÐº": 848,
      "ĠÐ¿Ð»": 849,
      "Ð¾ÑģÐº": 850,
      "ÑĭÑĪ": 851,
      "ÐºÑĢÐ°": 852,
      "20": 853,
      "ÑĨÑĭ": 854,
      "on": 855,
      "ĠÐ·Ð°Ð²": 856,
      "ÑĥÑİÑī": 857,
      "ĠÑĤÐ¾": 858,
      "ĠÑĩÐµ": 859,
      "ÑĨÐ¸Ð°Ð»ÑĮ": 860,
      "ÑĢÐ¾Ñģ": 861,
      "Ð²Ð¾Ð»": 862,
      "Ð»ÐµÐ´Ð¾Ð²": 863,
      "ĠÐ¼ÐµÐ¶Ð´": 864,
      "ĠÑĥÑĩ": 865,
      "ĠÐºÐ°": 866,
      "ĠÑĦÐ¾ÑĢ": 867,
      "Ð¾ÑĢÐµ": 868,
      "ĠÑģÐ¸ÑģÑĤÐµÐ¼": 869,
      "ĠĠ": 870,
      "ĠÐ½Ð¾Ð²": 871,
      "ĠÐ¾ÑģÑĤ": 872,
      "ĠÑĥÐ¿": 873,
      "Ð£": 874,
      "ĠÐ¶Ðµ": 875,
      "ĠÐ¿ÑĢÐ¾Ð²": 876,
      "ÑģÑĤÐ²Ðµ": 877,
      "Ð³Ð¾Ð²": 878,
      "Ð¾Ð¶Ð´": 879,
      "Ð¿ÑĢÐ¸": 880,
      "ĠÐ¾ÑĢÐ³": 881,
      "ÐµÐ½Ð½Ð¾": 882,
      "Ð´Ð¸Ð½": 883,
      "ÑģÑĤÑĥÐ¿": 884,
      "ĠÐ¿Ð¾Ð²": 885,
      "Ð½Ð¸ÐºÐ¾Ð²": 886,
      "Ð·ÑĭÐ²Ð°": 887,
      "ÑĳÐ»": 888,
      "ĠÐ¿ÑĢÐµÐ´ÑģÑĤÐ°Ð²": 889,
      "Ð°ÑĢÑı": 890,
      "ÐµÑĢÐµÐ´": 891,
      "ĠÑĢÐ°Ð¹": 892,
      "ĠÐ¸ÑģÑĤÐ¾ÑĢÐ¸": 893,
      "Ð»ÑİÑĩ": 894,
      "Ġ17": 895,
      "Ð¾Ð½Ð¾Ð¼": 896,
      "Ð»ÐµÐ½Ð¸Ðµ": 897,
      "ÐĹ": 898,
      "ÑıÑĤÐ¸": 899,
      "ĠÐ¾ÑĤÐ½Ð¾": 900,
      "Ġ6": 901,
      "en": 902,
      "Ð»Ð°Ð´": 903,
      "Ð»Ð°Ñģ": 904,
      "ĠÐłÐ¾ÑģÑģÐ¸Ð¸": 905,
      "Ð°Ð»ÑģÑı": 906,
      "ĠÑıÐ²Ð»ÑıÐµÑĤÑģÑı": 907,
      "Ð¨": 908,
      "ÐµÐ»ÐµÐ¹": 909,
      "Ð¿Ð¾Ð»": 910,
      "Ð»Ð¸Ñĩ": 911,
      "ĠÐ®": 912,
      "ĠÐ¿Ð¾Ðº": 913,
      "ĠÐ²Ð¸Ð´": 914,
      "ĠS": 915,
      "ĠÑĢÑĥÑģ": 916,
      "Ð¼Ð¸Ð½": 917,
      "ÑĮÑİ": 918,
      "ĠÐ³Ð¾ÑĢÐ¾Ð´Ð°": 919,
      "Ð°Ð»Ð¸ÑģÑĮ": 920,
      "ÑĥÐº": 921,
      "ĠÐ¿Ð¾ÑģÐ»Ðµ": 922,
      "ÑĤÐ¸ÑĩÐµ": 923,
      "Ð»ÐµÐºÑģ": 924,
      "ĠÐ±Ð¾Ð»ÐµÐµ": 925,
      "ÐµÐ³": 926,
      "Ð°ÑĪ": 927,
      "Ð¸ÑĤÑģÑı": 928,
      "ĠÑįÑĤÐ¾": 929,
      "ÑģÐºÐ°": 930,
      "ÑĢÑĥÐ¿Ð¿": 931,
      "ÑĢÐµÐ·": 932,
      "Ð¾Ð±Ñĭ": 933,
      "ĠÐ¯": 934,
      "Ð¿Ð¸": 935,
      "ĠÑĤÐ¾Ð¼": 936,
      "ĠÐ¼ÐµÑĤ": 937,
      "ÑĪÐ¸Ð¹": 938,
      "ĠÐ²ÑĭÑģ": 939,
      "ĠÐ¸Ñİ": 940,
      "ĠÑĥÑģÑĤ": 941,
      "ĠÑģÐ¾Ð·Ð´": 942,
      "ÑĩÐ¸ÑĤ": 943,
      "ÑĢÐµÐ²": 944,
      "ĠÐ»ÐµÑĤ": 945,
      "ÑĥÑĪ": 946,
      "ÑĢÐ¸ÑĤÐ¾ÑĢÐ¸": 947,
      "ĠÐ¸Ð¼Ð¿": 948,
      "ĠÑĢÐ°Ñģ": 949,
      "ĠÐ¿Ð¾ÑĢ": 950,
      "ĠÐ»Ñİ": 951,
      "Ð¾ÑĦ": 952,
      "ĠÑģÑĤÑĢÐ°": 953,
      "Ð¾Ð³ÑĢÐ°ÑĦ": 954,
      "ĠÑģÐ¾Ð²ÐµÑĤ": 955,
      "Ð¡Ð¡Ðł": 956,
      "ĠÑģÐ²ÑıÐ·": 957,
      "ÑĢÐ¸ÑĤ": 958,
      "ĠÐ¸Ð¼Ðµ": 959,
      "Ġ198": 960,
      "ĠÑĩÐ°ÑģÑĤ": 961,
      "ĠÐ´Ð¸": 962,
      "ĠÐ²Ñģ": 963,
      "ÑĪÐ¸Ñħ": 964,
      "Ġ194": 965,
      "Ð¸Ð½Ñĭ": 966,
      "Ð¸ÑĤÐµÑĢÐ°": 967,
      "Ð»Ð¸Ð½": 968,
      "ÑģÑĭ": 969,
      "ĠÐ½Ð°Ð·Ð²": 970,
      "Ð¸ÐºÐ°": 971,
      "Ìģ": 972,
      "Ð¸ÑĪ": 973,
      "ĠÐ¼Ð°ÑĤ": 974,
      "ĊĠ": 975,
      "ÑĥÐµÑĤ": 976,
      "Ð½Ð¸Ðµ": 977,
      "ÐµÑģÐ¿": 978,
      "ÐºÑĢÑĭ": 979,
      "ĠÑĢÐ°Ð·Ð²": 980,
      "Ð°Ð½Ñĭ": 981,
      "ÑĢÐµÐ±": 982,
      "ÑıÑī": 983,
      "Ð»ÐµÐ¼": 984,
      "ÐµÐ¶": 985,
      "Ð½Ð¸Ð¼": 986,
      "Ð¾Ñħ": 987,
      "ÐŃ": 988,
      "ĠÑĢÐµÐ·": 989,
      "ÐµÐ´Ð¸Ð½": 990,
      "ĠÐ·Ð½Ð°Ñĩ": 991,
      "Ġ7": 992,
      "ÑģÑĤÐ°": 993,
      "ÑĨÐ¸Ð¹": 994,
      "ĠÐ¿ÑĢÐ¾ÑĤÐ¸Ð²": 995,
      "ÐµÑĢÐ³": 996,
      "Ð¾ÑĪ": 997,
      "ÐºÐ¾Ð¼": 998,
      "ĠÐ¼Ð°ÑĢ": 999,
      "Ð±Ñĭ": 1000,
      "ĠC": 1001,
      "ÐŁÑĢÐ¸": 1002,
      "ĠÑĨÐµÐ½ÑĤ": 1003,
      "or": 1004,
      "ĠÐ²Ð¾Ñģ": 1005,
      "es": 1006,
      "ĠĊĠĊ": 1007,
      "ĠÐµÑĳ": 1008,
      "ĠA": 1009,
      "Ð¾ÑĢÐ¾Ð´": 1010,
      "ĠÐŁÑĢÐ¸": 1011,
      "ÑıÑĤÑĮ": 1012,
      "ĠÐ¿Ð¾Ð¼": 1013,
      "ĠÑĤÐ¾Ð»ÑĮÐºÐ¾": 1014,
      "Ð¿ÑĢÐµ": 1015,
      "Ð»ÐµÐºÑĤ": 1016,
      "ÐµÑħ": 1017,
      "ĠÑİ": 1018,
      "Ġ196": 1019,
      "ÐµÐ²ÐµÑĢ": 1020,
      "ĠÐ¡ÑĤ": 1021,
      "Ġ197": 1022,
      "ĠÐ´ÐµÐ¹ÑģÑĤÐ²": 1023,
      "ĠÐ¿Ð¾ÑĤ": 1024,
      "Ð°ÐµÑĤÑģÑı": 1025,
      "ar": 1026,
      "ÐµÑĢÐ¼": 1027,
      "Ð¸ÐºÐ¸": 1028,
      "ĠÐ¿Ð¾Ð·": 1029,
      "ÑıÐ²": 1030,
      "Ð¼ÐµÑĢÐ¸": 1031,
      "ÑıÑĤÐµÐ»ÑĮ": 1032,
      "Ġ/": 1033,
      "ÐµÑĢÐ±": 1034,
      "Ð½Ð¸ÐºÐ¸": 1035,
      "Ð¾Ð²Ð°": 1036,
      "ĠÐ¾Ð±ÑīÐµ": 1037,
      "ÑĨÐ¸Ñİ": 1038,
      "ĠÐ¡Ð¡Ð¡Ðł": 1039,
      "Ð°ÑĤÐ°": 1040,
      "ÐºÐ¾Ð¹": 1041,
      "ĠÑĤÐµÑĢÑĢÐ¸ÑĤÐ¾ÑĢÐ¸": 1042,
      "Ð°Ð»Ð¸Ð·": 1043,
      "Ð²ÐµÑģÑĤ": 1044,
      "ĠÑĤÐµÐ¼": 1045,
      "Ġ8": 1046,
      "ĠÑĥÑĩÐ°": 1047,
      "ÑĥÑī": 1048,
      "Ð½Ð°ÐºÐ¾": 1049,
      "ÑĨÐµÐ²": 1050,
      "ĠÐ³ÑĢÑĥÐ¿Ð¿": 1051,
      "ĠÐ´ÐµÐ»": 1052,
      "Ð½Ñĥ": 1053,
      "ĠÐ¼ÐµÐ¶Ð´Ñĥ": 1054,
      "ĠÑĩÐµÐ¼": 1055,
      "ÐµÐ½Ð¾": 1056,
      "Ġ9": 1057,
      "ÑĤÑĥÑĢ": 1058,
      "Ġ15": 1059,
      "Ð°ÑĤÑĭ": 1060,
      "Ð¸Ð»ÑģÑı": 1061,
      "Ð¾Ð½Ñĭ": 1062,
      "ĠÐ¸ÑģÐº": 1063,
      "ĠÐ¾ÑĢÐ³Ð°Ð½Ð¸": 1064,
      "ÑıÐ±ÑĢÑı": 1065,
      "ĠM": 1066,
      "ĠÐĸ": 1067,
      "ÑĥÑĢÐ³": 1068,
      "ÑĢÐµÐ¼ÐµÐ½": 1069,
      "ĠÐºÐ¾ÑĤÐ¾ÑĢÑĭÐµ": 1070,
      "ĠÑįÑĤÐ¾Ð¼": 1071,
      "Ð¾Ð½Ðµ": 1072,
      "Ġ193": 1073,
      "Ð³Ð¾Ð´": 1074,
      "ĠÐ¿Ð¾Ð¿": 1075,
      "ÑĮÑı": 1076,
      "ÑıÐ´": 1077,
      "ÑģÐºÑĥÑİ": 1078,
      "ÑĢÐ°ÑĤ": 1079,
      "ĠÑĤÐµÐ»": 1080,
      "ĠÐ¼Ð¾Ð³": 1081,
      "Ð°Ð»Ð¾ÑģÑĮ": 1082,
      "ĠÐ¾Ð±Ð»Ð°ÑģÑĤÐ¸": 1083,
      "Ð¾Ð¶Ðµ": 1084,
      "ĠÐ´Ð°Ð½": 1085,
      "ĠÐ¸ÑģÐ¿Ð¾Ð»ÑĮÐ·Ð¾Ð²": 1086,
      "Ð¾Ñī": 1087,
      "ĠÐºÐ¾ÑĤÐ¾ÑĢÑĭÐ¹": 1088,
      "ÑĤÑĥÑĢÐ°": 1089,
      "ĠÐķÐ²": 1090,
      "Ð°Ð½ÑĤ": 1091,
      "ĠÐ½Ð°ÑħÐ¾Ð´": 1092,
      "Ð¼Ð¾Ð¶": 1093,
      "Ð¼ÐµÐ½ÑĤ": 1094,
      "ÑĭÑģ": 1095,
      "Ð°ÑĤÐµ": 1096,
      "Ð¾ÑģÑĤÑĮ": 1097,
      "Ð°ÑĢÑĤ": 1098,
      "ÐµÐºÐ¾ÑĤÐ¾ÑĢ": 1099,
      "ĠÐĲÐ»ÐµÐºÑģ": 1100,
      "Ġ10": 1101,
      "ĠP": 1102,
      "ĠÑģÐ»Ð¾Ð²": 1103,
      "ĠÐ½Ð°ÑģÐµÐ»": 1104,
      "al": 1105,
      "ĠÑįÑĤÐ¸": 1106,
      "ÑĢÐ°Ñģ": 1107,
      "ĠÐľÐ¾ÑģÐº": 1108,
      "Ð¾ÑģÑģÐ¸Ð¹": 1109,
      "ĠÐĲÑĢ": 1110,
      "Ð¾Ð½Ð¾Ð²": 1111,
      "ÑĪÐ¸Ðµ": 1112,
      "Ð»ÐµÑĤ": 1113,
      "Ð²Ð¾ÑĢ": 1114,
      "ĊĊ": 1115,
      "Ð¸Ð½Ð¾": 1116,
      "ÑĨÐ¸Ð¾Ð½Ð°Ð»ÑĮ": 1117,
      "ĠÐ±ÐµÐ·": 1118,
      "ĠÐ½ÐµÐ¼": 1119,
      "ĠÑģÐ¾ÑģÑĤÐ¾Ñı": 1120,
      "ĠÐ¾Ð¿ÑĢÐµÐ´": 1121,
      "ÑĥÑİÑĤ": 1122,
      "ĠÐŁÐ¾": 1123,
      "Ð±Ð¾ÑĢ": 1124,
      "Ð½Ð¾Ð¼Ñĥ": 1125,
      "ĠÐ¿Ð¸Ñģ": 1126,
      "ĠÐĶÐ¶": 1127,
      "Ð´Ð¾Ð²": 1128,
      "ĠÑĥÐ½Ð¸": 1129,
      "ĠÐ¿Ð¾Ð»Ð¸ÑĤ": 1130,
      "ĠÐ³Ð»Ð°Ð²": 1131,
      "ÑĤÐ¾ÑĢÐ°": 1132,
      "Ð¸Ð½Ðµ": 1133,
      "ÑĢÐ°Ñī": 1134,
      "Ð½ÑĥÑĤ": 1135,
      "Ð¼ÐµÑĩ": 1136,
      "ĠÐ¾ÑĤÐºÑĢÑĭ": 1137,
      "ĠÐ¿ÑĢÐ¾Ð´": 1138,
      "at": 1139,
      "ĠÐºÐ¾Ð½ÑĨ": 1140,
      "ĠÐ¿ÐµÑĢÐµÐ´": 1141,
      "ĠÐ¾Ð±ÑĢÐ°Ð·Ð¾Ð²": 1142,
      "ĠÐ¼Ð¾Ð¶ÐµÑĤ": 1143,
      "Ð¾Ð»Ð½": 1144,
      "17": 1145,
      "Ð°ÑĤÑĮÑģÑı": 1146,
      "Ð¾Ð»Ð¾": 1147,
      "Ð¸Ð³": 1148,
      "Ġ,": 1149,
      "Ġ16": 1150,
      "ÑģÑĤÐµ": 1151,
      "Ð´Ñĭ": 1152,
      "ĠÐ¢Ð°Ðº": 1153,
      "ĠÐ²Ð»Ð°": 1154,
      "Ð¸ÑĤÑĥ": 1155,
      "Ð°Ð½Ð¾": 1156,
      "Ð½ÐµÐµ": 1157,
      "Ð°Ð»Ðµ": 1158,
      "ÐºÐ¸Ð¹": 1159,
      "Ġâ": 1160,
      "ÐµÑĤÑĭ": 1161,
      "ÑĢÐ°Ð»ÑĮ": 1162,
      "ĠÐ²ÐµÐºÐ°": 1163,
      "ĠÐ²Ð¾Ð´": 1164,
      "Ð¾ÑĢÑĤ": 1165,
      "Ð»Ð¾Ð¶": 1166,
      ".,": 1167,
      "ĠÐ¼Ñĥ": 1168,
      "ĠÐ¿ÐµÑĢÐ¸": 1169,
      "ĠÐ¡Ð¾Ð²": 1170,
      "Ð¾ÑģÑĤÑĢÐ°Ð½": 1171,
      "ĠÐļÐ¾Ð½": 1172,
      "Ġ195": 1173,
      "ÑĢÐ°Ðº": 1174,
      "Ð°ÑİÑī": 1175,
      "ĠÑģÑĥÑīÐµÑģÑĤÐ²": 1176,
      "Ð»Ð¸Ñı": 1177,
      "ÑģÑĤÐ²Ð¾Ð¼": 1178,
      "ĠÑĩÐµÐ»Ð¾Ð²ÐµÐº": 1179,
      "Ð½Ð¾ÑģÑĤÑĮÑİ": 1180,
      "Ð°ÑĢÐ¾Ð´": 1181,
      "ĠÐ¶Ð¸Ð·": 1182,
      "ĠÐ³Ð´Ðµ": 1183,
      "ĠÑĤÐ¾Ð³Ð¾": 1184,
      "ĠT": 1185,
      "is": 1186,
      "Ð¾Ð»Ð¾Ð³Ð¸ÑĩÐµ": 1187,
      "Ð´ÐµÑĢÐ¶": 1188,
      "Ð°ÑģÑĮ": 1189,
      ");": 1190,
      "ĠÑĩÐ°ÑģÑĤÐ¸": 1191,
      "Ð¾Ð»Ð¾Ð¶": 1192,
      "ĠÐ·Ð°Ð¼": 1193,
      "ĠÐ±ÑĥÐ´": 1194,
      "ĠÐ¿ÑĢÐ¾Ð¸Ð·Ð²Ð¾Ð´": 1195,
      "ĠÑįÐ»ÐµÐºÑĤ": 1196,
      "ĠÐ¿Ð¾Ñį": 1197,
      "ĠÐ¸Ð½ÑĤ": 1198,
      "Ð¸ÑĢÑĥ": 1199,
      "ĠÑĥÑģ": 1200,
      "ĠÐ²Ðº": 1201,
      "Ð°ÑİÑĤ": 1202,
      "ĠÐ¸Ð·Ð²ÐµÑģÑĤ": 1203,
      "ÐµÑģÑģ": 1204,
      "ĠÐĲÐ»ÐµÐºÑģÐ°Ð½Ð´": 1205,
      "ĠÑĢÐµÑĪ": 1206,
      "Ð½Ð¾ÑģÑĤ": 1207,
      "Ðķ": 1208,
      "ĠÐ¼Ð½Ð¾Ð³": 1209,
      "ÑĢÐ°Ð±Ð¾ÑĤ": 1210,
      "ĠÑĤÐµÑħ": 1211,
      "Ð°Ð½Ð¸Ð¹": 1212,
      "ĠÐ½Ð°Ð´": 1213,
      "Ð¾ÑĢÐ¾Ð½": 1214,
      "ĠÐ°Ðº": 1215,
      "ĠÐ½ÐµÑģÐº": 1216,
      "Ð¼ÐµÑĢÐ¸ÐºÐ°Ð½": 1217,
      "ÑĢÐµÐ½": 1218,
      "ÑĤÐ¸Ñı": 1219,
      "ĠÐ·ÐµÐ¼": 1220,
      "Ð¨ÐĲ": 1221,
      "Ð¾Ð½Ñĩ": 1222,
      "ÐµÑĢÑĪ": 1223,
      "ÑģÐ¸ÑĤ": 1224,
      "ic": 1225,
      "ĠÑģÐ»ÐµÐ´": 1226,
      "Ð¾ÑĤÐ¾Ð²": 1227,
      "ÑĢÑĥÐ¶": 1228,
      "ĠÐ´Ð¾Ð»Ð¶": 1229,
      "ÐµÐ»Ð¸Ðº": 1230,
      "ĠÑĩÐ°ÑģÑĤÑĮ": 1231,
      "ÑĢÐ¾Ð¹": 1232,
      "Ġ192": 1233,
      "Ð°Ð½Ð¸ÐµÐ¼": 1234,
      "Ð½Ð¸Ð¹": 1235,
      "ÑģÑģÐ»ÐµÐ´Ð¾Ð²": 1236,
      "ÐµÐºÑĤ": 1237,
      "ÑĢÐ¾Ðº": 1238,
      "Ð¾ÑĢÐ¾Ð²": 1239,
      "Ð²Ð¸Ð¶": 1240,
      "ĠÐ²Ð¿": 1241,
      "ĠÑĢÐ°Ð·Ð²Ð¸ÑĤ": 1242,
      "ĠÑģÐ»ÑĥÑĩ": 1243,
      "Ð¸Ð´ÐµÐ½ÑĤ": 1244,
      "ÑĢÐµÑĤ": 1245,
      "ĠB": 1246,
      "Ð¾ÑģÐ¾Ð±": 1247,
      "ÑĩÐ¸": 1248,
      "Ð´Ñĥ": 1249,
      "ĠÐ¼Ð¸Ð½": 1250,
      "Ð»Ð¸Ð¹": 1251,
      "ÑģÑĤÐ²Ð¾Ð²": 1252,
      "ĠÑįÑĤÐ¾Ð³Ð¾": 1253,
      "Ð¼ÐµÑĤ": 1254,
      "Ð°Ð»Ð°ÑģÑĮ": 1255,
      "ĠÐ½ÐµÐºÐ¾ÑĤÐ¾ÑĢ": 1256,
      "Ð¾Ð³ÑĢÐ°Ð¼": 1257,
      "10": 1258,
      "ĠÐ´Ð¾Ð¼": 1259,
      "ĠÐ¼Ð°Ñģ": 1260,
      "ĠÑģÑĩÐ¸ÑĤ": 1261,
      "ÐºÐ¾Ð»": 1262,
      "Ð¸ÑĤÐµÐ»ÑĮÐ½Ð¾": 1263,
      "ÑģÐ»Ð¸": 1264,
      "ĠÑĤÑĢÐ°": 1265,
      "ĠÑĢÐ¾ÑģÑģÐ¸Ð¹": 1266,
      "Ð¾Ð¼Ñĥ": 1267,
      "ĠÐ³Ð¾ÑģÑĥÐ´Ð°ÑĢÑģÑĤÐ²ÐµÐ½": 1268,
      "ĠÐºÐ¾ÑĤÐ¾ÑĢÑĭÑħ": 1269,
      "he": 1270,
      "ĠÐŀÐ´": 1271,
      "ÑĢÐµÐ¹": 1272,
      "ÑģÑĤÐ¸ÑĩÐµ": 1273,
      "Ð¾Ð±ÑĢÐ°Ð·": 1274,
      "ĠÐ·Ð²": 1275,
      "ĠÐĺÐ½": 1276,
      "Ġ12": 1277,
      "ÐºÐ°Ñħ": 1278,
      "ÑĢÐ¸Ð¹": 1279,
      "ÑīÑĳ": 1280,
      "ĠÐ¿Ð¾ÑģÐ»ÐµÐ´": 1281,
      "ĠÐ¡Ð¨ÐĲ": 1282,
      "ĠÑģÑĤÐ°Ð»": 1283,
      "Ð°ÑģÑĤ": 1284,
      "ĠÐ°Ð¼ÐµÑĢÐ¸ÐºÐ°Ð½": 1285,
      "ĠÐ¾Ð½Ð¸": 1286,
      "Ð°ÑĢÑĮ": 1287,
      "Ð²Ñĭ": 1288,
      "ÐµÑĢÑħ": 1289,
      "Ð§": 1290,
      "ĠÐ¾Ð±Ñī": 1291,
      "ĠÐ·Ð´": 1292,
      "ÑĥÐ½Ðº": 1293,
      "ÐµÑī": 1294,
      "ĠÐ°ÐºÑĤ": 1295,
      "ÐĿÐ°": 1296,
      "Ð»Ð¾ÑĤ": 1297,
      "ĠÐĿÐ¾Ð²": 1298,
      "Ð¥": 1299,
      "ĠÐµÐ´Ð¸Ð½": 1300,
      "ĠÐ²ÑĤÐ¾ÑĢ": 1301,
      "ĠÐºÐ¾Ð½ÑĤ": 1302,
      "ĠÐµÑģÑĤÑĮ": 1303,
      "Ð¾ÑģÐ»Ðµ": 1304,
      "Ð¼Ð°Ð½": 1305,
      "ĠÑĢÐµÐ·ÑĥÐ»ÑĮÑĤ": 1306,
      "ĠÐ²Ð·": 1307,
      "Ð¿Ð¸Ñģ": 1308,
      "ĠÐ¿ÑĢÐ¾ÑĨ": 1309,
      "12": 1310,
      "ĠÑģÐ¾Ð¾ÑĤ": 1311,
      "ÑĢÐµÐ¿": 1312,
      "Ð·ÑĭÐ²": 1313,
      "ÑĦÑĦ": 1314,
      "Ħĸ": 1315,
      "ĠÐ¤ÑĢÐ°Ð½": 1316,
      "ĠÑĥÐ´": 1317,
      "ĠD": 1318,
      "Ð°ÑĢÐ°ÐºÑĤ": 1319,
      "ÐµÑĢÐ½": 1320,
      "Ð»Ñĥ": 1321,
      "ĠV": 1322,
      "ĠÑĢÐ¾Ð´": 1323,
      "ĠÐ´ÑĢÑĥÐ³Ð¸Ñħ": 1324,
      "ĠÐ²Ð¾ÐµÐ½": 1325,
      "Ð¸ÑĤÐ°": 1326,
      "Ð¿Ñĥ": 1327,
      "ĠÑģÐ¾ÑģÑĤÐ°Ð²Ð»Ñı": 1328,
      "Ð´ÐµÐ½": 1329,
      "ÑĭÑĤ": 1330,
      "ĠÐ²Ð¾Ð¹Ð½Ñĭ": 1331,
      "ÑĨÐµÐ½": 1332,
      "ĠÐ¶ÐµÐ»": 1333,
      "Ð»Ð¸Ð·": 1334,
      "ĠÐ´ÐµÑıÑĤÐµÐ»ÑĮ": 1335,
      "ĠÐĿÐ¸Ðº": 1336,
      "ÑīÐµÐµ": 1337,
      "ĠÐĺÐ·": 1338,
      "ĠÐ¿ÑĢÐ¸Ð½": 1339,
      "ÑģÐºÐ¸Ð¼Ð¸": 1340,
      "Ð¸Ð»Ð¾": 1341,
      "Ð¸Ñİ": 1342,
      "ĠÑģÑĭ": 1343,
      "Ð¸ÑģÑĤÑĢÐ°": 1344,
      "ÑıÐ¼": 1345,
      "ÑĢÐ°Ð½Ð¸": 1346,
      "Ð»ÑģÑı": 1347,
      "Ð¸Ð»Ð¸ÑģÑĮ": 1348,
      "ĠÑģÐµÐ¼": 1349,
      "ĠÐ´Ð¾Ðº": 1350,
      "ĠÐ½Ð°ÑĢÐ¾Ð´": 1351,
      "ÐµÐ´ÐµÑĢÐ°": 1352,
      "Ð²ÐµÑĢÑģÐ¸ÑĤ": 1353,
      "ĠÐ°ÑĢÑħ": 1354,
      "ĠĊĊ": 1355,
      "ĠÐ¼Ð¸": 1356,
      "ÑĢÑĥÐ´": 1357,
      "ĠÑģÑĤÑĢÐ¾": 1358,
      "ĠÐºÑĢÑĥÐ¿": 1359,
      "16": 1360,
      "ÑģÑĤÑĢÐµ": 1361,
      "Ð¸ÑĩÐµÑģÐºÐ¸Ñħ": 1362,
      "Ð¾Ð»Ñı": 1363,
      "ĠÐ¾Ð´Ð¸Ð½": 1364,
      "ĠÑįÐºÑģÐ¿": 1365,
      "ĠÐ²Ð¾Ð·Ð¼Ð¾Ð¶": 1366,
      "ĠÑģÐµÐ±": 1367,
      "15": 1368,
      "it": 1369,
      "ĠÑĢÐ°Ð·Ð»Ð¸Ñĩ": 1370,
      "ĠÑıÐ½": 1371,
      "ÑĪÐµÐ¹": 1372,
      "ĠâĦĸ": 1373,
      "ĠÐ½Ð°Ð·ÑĭÐ²Ð°": 1374,
      "ĠÐ¶Ð¸Ð²": 1375,
      "ĠL": 1376,
      "Ġ.": 1377,
      "ĠÐ²ÐµÐº": 1378,
      "ĠÑĩÐµÑĢÐµÐ·": 1379,
      "ĠÐ¸ÑģÑģÐ»ÐµÐ´Ð¾Ð²": 1380,
      "Ð´Ð¶": 1381,
      "ĠÐ´Ð¾ÑģÑĤ": 1382,
      "Ð°Ð¶": 1383,
      "Ð¾Ñİ": 1384,
      "ĠÐ´ÐµÑĤ": 1385,
      "ĠÐ¾ÑģÐ¾Ð±": 1386,
      "Ð±Ð°": 1387,
      "Ð»Ð¸ÑģÑĮ": 1388,
      "Ð¸ÑģÑģ": 1389,
      "ĠÑĤÐµÑĢÑĢÐ¸ÑĤÐ¾ÑĢÐ¸Ð¸": 1390,
      "ÑģÑĤÑĢÑĥ": 1391,
      "ÐµÐ½ÐµÑĢÐ°": 1392,
      "ĠÐ´ÐµÐºÐ°": 1393,
      "ĠÐ±ÑĭÑĤÑĮ": 1394,
      "ĠÐ¾Ð¿ÑĢÐµÐ´ÐµÐ»": 1395,
      "ĠÐ¿ÐµÑĢ": 1396,
      "ÑģÐ¸Ð¸": 1397,
      "Ð¸ÑĩÐµÑģÐºÐ¾Ð¹": 1398,
      "ĠÑĥÑĤ": 1399,
      "ĠÑģÐ¾Ð²ÑĢÐµÐ¼ÐµÐ½": 1400,
      "ĠÐ¿ÑĢÐ¾Ð¸Ñģ": 1401,
      "ÑĤÐ¸Ð¹": 1402,
      "ÑģÑĤÐ²ÐµÐ½Ð½Ð¾": 1403,
      "Ġ14": 1404,
      "Ð¾Ð³Ð»Ð°Ñģ": 1405,
      "ÑħÐ¾Ð´Ð¸ÑĤ": 1406,
      "ÑĭÐ¼Ð¸": 1407,
      "ĠR": 1408,
      "ĠÐ°Ð´": 1409,
      "ÑĥÐ»ÑĮÑĤÑĥÑĢ": 1410,
      "Ð¾Ð»Ð¾Ð²": 1411,
      "Ð½Ð¸ÑĩÐµ": 1412,
      "ÐµÑĢÐ¸Ð¸": 1413,
      "ĠÑĦÑĢÐ°Ð½": 1414,
      "ĠÐ¿ÑĢÐ¸Ð·": 1415,
      "Ð°Ð½Ð¸Ñİ": 1416,
      "Ð²Ð°Ð½": 1417,
      "ĠÐºÑĢÐ¸": 1418,
      "ÐµÐ²Ð¸Ñĩ": 1419,
      "ÑģÑĤÑĢÐ¾": 1420,
      "ĠÑħÐ°ÑĢÐ°ÐºÑĤ": 1421,
      "ĠÐ¼Ð¾Ð»": 1422,
      "ĠÐ¿Ð°Ð¼": 1423,
      "ĠÐ¿Ð¾Ð±": 1424,
      "Ð´ÐµÐ¼": 1425,
      "ĠÐ¾ÐºÐ¾Ð»Ð¾": 1426,
      "ÐµÑĢÑĤ": 1427,
      "Ð¼Ð¾ÑĤ": 1428,
      "ĠÑĤÑĢÐ¸": 1429,
      "ĠÐ¿Ð¾Ñĩ": 1430,
      "ÑĨÑĥÐ·": 1431,
      "ĠÐºÐ½Ð¸": 1432,
      "ÑģÑĤÐ¾Ñı": 1433,
      "ĠÑĢÐ¸": 1434,
      "ĠÑĨÐµÑĢ": 1435,
      "ÑĭÐ²": 1436,
      "ĠÐ¾ÑĤÐ½Ð¾ÑĪ": 1437,
      "ĠÐ¿ÑĢÐ¾Ð³ÑĢÐ°Ð¼": 1438,
      "ĠÑĥÐ³": 1439,
      "ĠÐºÐ°ÑĩÐµ": 1440,
      "ĠÐ¼ÐµÐ´": 1441,
      "ĠÐ»Ð¸ÑĤÐµÑĢÐ°": 1442,
      "ĠÐ¾ÐºÑĤ": 1443,
      "ĠÐ¿ÐµÑĢÐ¸Ð¾Ð´": 1444,
      "ÑĢÑĳ": 1445,
      "ĠÐ¿ÑĢÐµÐ·": 1446,
      "Ð¾ÑĢÐ¸Ñı": 1447,
      "Ð¸Ð½Ð³": 1448,
      "Ð¾Ð´ÐµÑĢÐ¶": 1449,
      "Ð¼Ð¸ÑĢÐ¾Ð²": 1450,
      "ĠÑĤÐ¸Ð¿": 1451,
      "ÑĥÐ»Ñı": 1452,
      "Ð½Ð¸Ñħ": 1453,
      "ÑĪÐµÐ³Ð¾": 1454,
      "ĠÑģÐ¾Ð¾ÑĤÐ²ÐµÑĤ": 1455,
      "ÑĩÐ¸Ð½": 1456,
      "Ð¾Ð³Ð¾Ð²": 1457,
      "ĠÐ´Ð¾Ð»": 1458,
      "ĠÐºÐ¾Ð³Ð´Ð°": 1459,
      "Ð¸ÑĩÐµÑģÐºÐ¸Ðµ": 1460,
      "ĠÐ½Ð¸Ñħ": 1461,
      "Ġ13": 1462,
      "el": 1463,
      "ĠÐŁÐµÑĤ": 1464,
      "Ð½ÐµÐ²": 1465,
      "ĠÑĤÐ¾Ñĩ": 1466,
      "Ð¸ÑģÐ¸Ð¼": 1467,
      "ĠÑģÐ¸Ð»": 1468,
      "Ð¼ÐµÑĩÐ°Ð½Ð¸Ñı": 1469,
      "ĠÑģÐµÐ½ÑĤ": 1470,
      "Ð¸ÑĤÐµÐ»ÐµÐ¹": 1471,
      "Ð»ÑĥÐ±": 1472,
      "Ð½Ð¸Ñĩ": 1473,
      "Ð»Ð¾Ð¼": 1474,
      "Ð¡Ð¼": 1475,
      "ĠÑĩÑĤ": 1476,
      "Ð·Ð¾Ð²": 1477,
      "Ð¸Ð»Ð¾Ñģ": 1478,
      "Ð½Ð¸ÑĨ": 1479,
      "ĠÐ´Ð°": 1480,
      "ÑģÐºÐ¾Ð¼Ñĥ": 1481,
      "Ð¾Ð»ÐµÐ²": 1482,
      "ĠÐ¸Ð·Ð´": 1483,
      "Ġ(Â«": 1484,
      "ĠÑģÑĥÐ´": 1485,
      "ĠÐ²ÑģÐµÑħ": 1486,
      "Ð·Ð½Ð°Ñĩ": 1487,
      "ĠÐ·Ð°ÑĤ": 1488,
      "ÐŁÑĢÐ¸Ð¼ÐµÑĩÐ°Ð½Ð¸Ñı": 1489,
      "ÐµÑĢÐ¾Ð²": 1490,
      "ĠÐŀÐ±": 1491,
      "ÐµÐ¼Ñĥ": 1492,
      "ÐµÑĢÑĭ": 1493,
      "ĠÑĥÐ½Ð¸Ð²ÐµÑĢÑģÐ¸ÑĤ": 1494,
      "ĠÐ°ÑĢÐ¼Ð¸": 1495,
      "Ð¿ÑĢÐ°Ð²": 1496,
      "Ð»Ð¾Ñī": 1497,
      "ĠÐºÐ¾ÑĤÐ¾ÑĢÐ¾Ð¹": 1498,
      "Ð°ÑĢÐ´": 1499,
      "ĠÐ¼Ð¾Ð¶Ð½Ð¾": 1500,
      "ĠÐ¿ÑĢÐ¸Ñģ": 1501,
      "Ð¾ÑģÑĤÐ¾Ñĩ": 1502,
      "Ð»Ð°ÑģÑĮ": 1503,
      "ÑĢÐ¸Ñı": 1504,
      "ĠÐ¿Ð¾Ð½": 1505,
      "ÐºÐ¾Ð²Ð¾Ð´": 1506,
      "ÑĢÐ¸Ð¼ÐµÑĢ": 1507,
      "ÐºÐ¸Ñħ": 1508,
      "Ð¿ÐµÑĢÐ°": 1509,
      "ĠÐµÑīÑĳ": 1510,
      "ĠÑģÐ¿Ðµ": 1511,
      "ĠF": 1512,
      "ĠÐ»ÑİÐ±": 1513,
      "ĠÑĪÐºÐ¾Ð»": 1514,
      "ĠÐĲÐ²": 1515,
      "ĠÐ°Ð½Ð³": 1516,
      "Ð½ÐµÐ³Ð¾": 1517,
      "ĠÐ¸Ð³": 1518,
      "ĠÐ°Ð¿ÑĢÐµ": 1519,
      "ÑĥÐ½Ð°ÑĢÐ¾Ð´": 1520,
      "ÐµÐ»Ð¸Ñĩ": 1521,
      "ÑĨÐ¸Ð¿": 1522,
      "ĠÐ°Ð²Ð³Ñĥ": 1523,
      "ĠÐºÑĢÐ°": 1524,
      "ĠÐºÐ¾ÑĤ": 1525,
      "ĠÐ¼Ð¾Ð½": 1526,
      "ÑĢÐ¾ÑĤ": 1527,
      "Ð°ÑĨÐ¸Ð¸": 1528,
      "ĠÐ½ÐµÐ´": 1529,
      "14": 1530,
      "ĠG": 1531,
      "200": 1532,
      "ÑĥÐ³": 1533,
      "ĠÐľÐ°ÑĢ": 1534,
      "ĠÑģÐ¿Ð¾ÑģÐ¾Ð±": 1535,
      "ĠÑĦÑĥÐ½Ðº": 1536,
      "ĠÐ²ÑĭÑģÐ¾Ðº": 1537,
      "ĠÐ²ÑĢÐµÐ¼ÐµÐ½Ð¸": 1538,
      "Ð½ÑĮ": 1539,
      "Ð°Ð´Ð°": 1540,
      "ĠÐ´Ð²Ð°": 1541,
      "ĠÐ½Ð°Ð¿ÑĢÐ°Ð²": 1542,
      "ĠÐºÐ½Ñı": 1543,
      "ĠÑĥÐ¶Ðµ": 1544,
      "ĠÐ°Ð»": 1545,
      "ĠII": 1546,
      "Ð°Ð»ÑĮÐ½ÑĭÑħ": 1547,
      "ol": 1548,
      "ĠÐ¿ÑĢÐ¾Ð¼": 1549,
      "ÑĭÐ²Ð°": 1550,
      "ĠÑĤÑĢÐ°Ð½": 1551,
      "ĠÐŀÑģ": 1552,
      "ĠÐµÐ²": 1553,
      "ĠÐ¿ÑĢÐ¸Ð¼ÐµÐ½": 1554,
      "ĠÐ½Ð¸": 1555,
      "ĠÑįÐ½": 1556,
      "ĠÐ¾ÑĤÐ´": 1557,
      "ĠÐ¿ÑĢÐµÐ·Ð¸Ð´ÐµÐ½ÑĤ": 1558,
      "ĠÐ½Ð°ÑģÐµÐ»ÐµÐ½Ð¸Ñı": 1559,
      "Ð¸ÑĢÐ¸": 1560,
      "ĠÐ¼Ð¾ÑĢ": 1561,
      "ĠÑħÑĥÐ´": 1562,
      "ĠÐ³Ð°Ð·": 1563,
      "Ð¸ÑĩÐµÑģÐºÐ¸Ð¹": 1564,
      "ĠÐłÐ¾ÑģÑģÐ¸Ð¹": 1565,
      "ĠÐºÐ¾Ð¼Ð°Ð½Ð´": 1566,
      "ÑĢÑĮ": 1567,
      "ÑıÑħ": 1568,
      "ÑĭÑĩ": 1569,
      "ĠÑįÐºÐ¾Ð½Ð¾Ð¼": 1570,
      "ÑıÐ¶": 1571,
      "ĠÐ½ÐµÑģÐºÐ¾Ð»ÑĮÐºÐ¾": 1572,
      "ĠÑĢÐ°Ð²": 1573,
      "ÑĨÐ¸ÐµÐ¹": 1574,
      "ĠÐ»Ð¸ÑĪ": 1575,
      "ĠÑĦÐ¸Ð·": 1576,
      "ĠÑĤÑĭ": 1577,
      "ĠÐ½Ð¾Ñı": 1578,
      "ĠÑĩÐ»ÐµÐ½": 1579,
      "ĠÐ¼ÐµÐ½": 1580,
      "ĠÐ¿ÑĢÐ¸Ð½Ñı": 1581,
      "ÑģÑĤÐ²ÐµÐ½Ð½Ð¾Ð¹": 1582,
      "ĠÑģÑĤÑĢÐ°Ð½": 1583,
      "Ð¾Ð»Ð¾Ð³Ð¸Ð¸": 1584,
      "ĠÑĥÑģÑĤÐ°Ð½Ð¾Ð²": 1585,
      "ÑĢÐ¾Ð²Ð°Ð½": 1586,
      "Ð¶Ð´Ð°Ð½": 1587,
      "Ð»ÐµÐ¹": 1588,
      "ÑĮÐµ": 1589,
      "13": 1590,
      "ĠÐ¿ÑĢÐ°Ð²Ð¸ÑĤÐµÐ»ÑĮ": 1591,
      "Ð¸Ð»Ð¾ÑģÐ¾ÑĦ": 1592,
      "ĠÑģÐ¾Ð´ÐµÑĢÐ¶": 1593,
      "ĠÐºÑĥÐ»ÑĮÑĤÑĥÑĢ": 1594,
      "ĠH": 1595,
      "ÑĥÑģÑĤ": 1596,
      "Ð¸Ð½Ñĥ": 1597,
      "ÑģÐºÐ¾": 1598,
      "ĠÑĢÐ°ÑģÐ¿Ð¾Ð»Ð¾Ð¶": 1599,
      "ĠÑıÐ½Ð²": 1600,
      "Ð»Ð°Ð³": 1601,
      "Ð»ÐµÐ¼ÐµÐ½ÑĤ": 1602,
      "Ð²Ð¾": 1603,
      "ĠÐ¶Ð¸Ð·Ð½Ð¸": 1604,
      "et": 1605,
      "ĠÑĦÐ°Ðº": 1606,
      "ĠÐ¿Ð¾Ð¼Ð¾Ñī": 1607,
      "ÐµÑģÑĮ": 1608,
      "ĠÐºÐ¾Ð»Ð¸ÑĩÐµ": 1609,
      "ĠÐ´Ð²Ð¸Ð¶": 1610,
      "ÐºÐ»": 1611,
      "ÑĢÐ¾ÑģÑĤÑĢÐ°Ð½": 1612,
      "ĠÐ¿Ð¾Ð´Ð´ÐµÑĢÐ¶": 1613,
      "ĠÐºÐ¸Ð½Ð¾": 1614,
      "Ð¿Ð¾Ð´": 1615,
      "ĠÐ´Ð²ÑĥÑħ": 1616,
      "ĠÐ¾ÑĢÐ³Ð°Ð½Ð¸Ð·Ð°": 1617,
      "ĠN": 1618,
      "ÑĳÐ½Ð½ÑĭÑħ": 1619,
      "ĠÐ¼Ð¸ÑĢÐ°": 1620,
      "Ð°Ð»ÑĮÐ½Ð¾Ð¹": 1621,
      "ÑĤÐ¸Ð¸": 1622,
      "ĠÐŀÑĤ": 1623,
      "ÑĭÑĪÐ»ÐµÐ½": 1624,
      "ÐºÐ°Ð¼Ð¸": 1625,
      "us": 1626,
      "ĠÑĤÐµÐ°ÑĤ": 1627,
      "ĠÐ¸ÑģÐºÑĥÑģ": 1628,
      "ĠÐ´ÑĢÐµÐ²": 1629,
      "ĠÑĥÐ²": 1630,
      "ĠÑģÑĤÐ¾Ð»": 1631,
      "Ð¾Ð±Ñī": 1632,
      "Ġ190": 1633,
      "ĠÐ¾ÑģÑĤÑĢÐ¾Ð²": 1634,
      "ĠÐ¼ÑĥÐ·Ñĭ": 1635,
      "ĠÐ¼Ð°Ñı": 1636,
      "ĠÐķÐ²ÑĢÐ¾Ð¿": 1637,
      "ĠÐĴÐµÐ»Ð¸Ðº": 1638,
      "ÑĢÐ°Ð±": 1639,
      "ĠÑĤÐ¾ÑĢ": 1640,
      "ĠÑĩÑĤÐ¾Ð±Ñĭ": 1641,
      "Ð¾ÑĢÐ°Ñı": 1642,
      "ĠÑĦÑĢÐ°Ð½ÑĨÑĥÐ·": 1643,
      "ĠÑģÐ»ÑĥÐ¶": 1644,
      "ĠÐĵÐµÑĢÐ¼": 1645,
      "ĠÐ³Ð¾Ð´Ñĭ": 1646,
      "Ð°Ð»ÑĮÐ½ÑĭÐ¹": 1647,
      "Ð°ÑĢÑħ": 1648,
      "ĠE": 1649,
      "Ð°Ð»ÑĮÐ½ÑĭÐµ": 1650,
      "ÑģÑĥ": 1651,
      "ÐµÐ½Ð½ÑĭÐ¹": 1652,
      "ĠÐ·Ð°Ð½Ð¸": 1653,
      "ĠÑĨÐ¸": 1654,
      "ĠÐ£ÐºÑĢÐ°": 1655,
      "Ð¿Ð¾Ð½": 1656,
      "ĠÐ¼Ð°ÑĤÐµÑĢÐ¸": 1657,
      "ÑĢÑĳÑħ": 1658,
      "ĠÐ²Ð¼Ðµ": 1659,
      "ÐºÐ°Ð´ÐµÐ¼": 1660,
      "Ð³Ðµ": 1661,
      "ÐµÐ½Ð½ÑĭÑħ": 1662,
      "ĠÐ½ÐµÐ¼ÐµÑĨ": 1663,
      "Ð¾Ð³Ð»Ð°ÑģÐ½Ð¾": 1664,
      "ĠÐ¸Ð¼Ð¿ÐµÑĢÐ°": 1665,
      "Ð°Ð»ÑĮÐ½Ð¾": 1666,
      "ĠÑĦÐµÐ²": 1667,
      "ĠÐ¿Ð¾Ð³": 1668,
      "Ð¾Ð»Ð°": 1669,
      "ÐµÐ²Ð°": 1670,
      "ĠÐļÐ°ÑĢ": 1671,
      "ÑĦÐ¸ÑĨÐ¸Ð°Ð»ÑĮ": 1672,
      "Ð¸ÑĤÐµÐ»Ñı": 1673,
      "Ġ0": 1674,
      "ÑĩÐµÑģÐºÐ¸Ñħ": 1675,
      "ĠÑıÐ½Ð²Ð°ÑĢÑı": 1676,
      "ÑĪÐ°Ñı": 1677,
      "Ġd": 1678,
      "ÑĥÐµÑĤÑģÑı": 1679,
      "Ð°ÑĤÐµÐ»Ñı": 1680,
      "ĠÑģÐ¾Ñħ": 1681,
      "Ð¾Ð²Ð¾Ð¹": 1682,
      "ĠÐŁÐµÑĢÐ²": 1683,
      "ÑģÐ¾Ð½": 1684,
      "ĠÐ¿ÑĢÐ¾Ð´Ð¾Ð»Ð¶": 1685,
      "Ð¾Ð»Ð¾ÑĤ": 1686,
      "ch": 1687,
      "ro": 1688,
      "ÑĦÐ°": 1689,
      "ĠÐºÐ¾ÑĤÐ¾ÑĢÐ°Ñı": 1690,
      "ĠÑĥÐ±": 1691,
      "ĠÑĩÐ¸ÑģÐ»Ðµ": 1692,
      "ĠÐ¡Ð²": 1693,
      "ĠÐ½Ð°Ð±": 1694,
      "ÑĢÐ¸Ð¸": 1695,
      "ĠÑĥÐ¿ÑĢÐ°Ð²": 1696,
      ".:": 1697,
      "ÑĦÐ¾ÑĢÐ¼Ð°": 1698,
      "Ð¼Ð¾Ð½": 1699,
      "ĠÐ¡Ð¾Ð²ÐµÑĤ": 1700,
      "ĠÐ¾Ñĩ": 1701,
      "Ð¼Ð¸Ð½Ð¸ÑģÑĤÑĢÐ°": 1702,
      "ĠÐ´ÐµÐºÐ°Ð±ÑĢÑı": 1703,
      "ÑīÐµÐ³Ð¾": 1704,
      "ÐµÐ½Ð½ÑĭÐµ": 1705,
      "ĠÐ¸Ð·Ð±": 1706,
      "Ð¾Ð±ÑĢÐ°Ð¶": 1707,
      "Ð½Ð°Ð»": 1708,
      "ĠÑģÐ¸Ð¼": 1709,
      "ĠÐ¸ÑİÐ»Ñı": 1710,
      "Ð¾ÐµÐ²": 1711,
      "ÐµÐ»ÐµÐ¼": 1712,
      "ĠÐ¿ÑĥÑĤ": 1713,
      "ĠÐ»Ð¸Ð½": 1714,
      "Ð²Ð°ÑĤ": 1715,
      "ÑĢÐ¸ÑģÑĤ": 1716,
      "ÑįÐ½": 1717,
      "ÑĩÐ¸Ñģ": 1718,
      "ĠÑģÐ¼ÐµÑĢ": 1719,
      "ĠÐĴÐ»Ð°": 1720,
      "ÑĩÐµÑģÐºÐ¾Ð¹": 1721,
      "ĠÐºÐ¾Ñģ": 1722,
      "ĠÐ¶ÐµÐ½": 1723,
      "ĠÐºÐ¾ÑĤÐ¾ÑĢÐ¾Ð³Ð¾": 1724,
      "Ð²Ð¸Ð½": 1725,
      "Ð¾Ð¶Ð´ÐµÐ½Ð¸Ñı": 1726,
      "Ð»Ð°Ð½Ð´": 1727,
      "âĢ¦": 1728,
      "ĠXV": 1729,
      "ĠÐ½Ð°ÑĥÑĩ": 1730,
      "ÑĢÑĥÑĪ": 1731,
      "Ð»Ð°Ð½": 1732,
      "Ð¾ÐºÐ°": 1733,
      "ĠÐ¼Ð°ÑĢÑĤÐ°": 1734,
      "Ð¸ÑĩÐµÑģÐºÐ¾Ð³Ð¾": 1735,
      "ĠÑĦÐµÐ²ÑĢÐ°": 1736,
      "ĠÐ¼Ð¾Ð³ÑĥÑĤ": 1737,
      "ĠÑģÐ²Ð¾Ð¹": 1738,
      "ÐµÑĪ": 1739,
      "ÑģÑĭÐ»": 1740,
      "ÑĢÐ¾Ð¼Ðµ": 1741,
      "Ð»Ð¾ÑīÐ°Ð´": 1742,
      "ĠĠĠĠ": 1743,
      "ĠÑĦÐ¸Ð»ÑĮ": 1744,
      "ĠÑģÐµÐ½ÑĤÑıÐ±ÑĢÑı": 1745,
      "Ð¸Ð±Ð¾Ð»ÐµÐµ": 1746,
      "Ð¾Ð±Ð¾Ð´": 1747,
      "ĠÐ´ÑĢÑĥÐ³Ð¸Ðµ": 1748,
      "ion": 1749,
      "ĠÑĢÐ°ÑģÑģ": 1750,
      "ĠÑįÐ»ÐµÐ¼ÐµÐ½ÑĤ": 1751,
      "Ð¾Ð¿ÑĢÐ¾Ñģ": 1752,
      "ĠÑĤÑĭÑģÑı": 1753,
      "ĠW": 1754,
      "ĠÑģÑĤÑĢÐ°Ð½Ñĭ": 1755,
      "ĠÐ²ÑģÐµÐ³Ð¾": 1756,
      "Ġ//": 1757,
      "Ð½Ð°Ð´": 1758,
      "as": 1759,
      "ÑģÑĤÑĢÐ°": 1760,
      "Ð±Ñĥ": 1761,
      "ĠÐ¾ÐºÑĤÑıÐ±ÑĢÑı": 1762,
      "ĠÐ¸ÑİÐ½Ñı": 1763,
      "ÐºÐ¾Ð½": 1764,
      "ÐµÑģÑĤÐ¸": 1765,
      "ĠÐ¿Ð¾Ð»Ð¾Ð¶": 1766,
      "ĠÐŀÐ½": 1767,
      "Ð°Ð»ÑĮÐ½Ð¾Ð³Ð¾": 1768,
      "ĠXI": 1769,
      "Ð±ÑĢÐµ": 1770,
      "ĠÐŀÐ´Ð½Ð°ÐºÐ¾": 1771,
      "ĠÐ¾Ð¿ÐµÑĢÐ°": 1772,
      "Ð¾ÑĢÐ¾Ð½Ñĭ": 1773,
      "ĠÑģÐ»ÑĥÑĩÐ°": 1774,
      "ÑĪÐ¸Ð¼": 1775,
      "Ð²Ð¾Ð»Ñİ": 1776,
      "ĠÐ¾Ð½Ð°": 1777,
      "ĠÑģÑĤÐ°ÑĢ": 1778,
      "Ð°Ð½Ð½ÑĭÐµ": 1779,
      "ĠÐ´ÐµÐ½ÑĮ": 1780,
      "ÑĢÑĥÐ·": 1781,
      "ĠÑĢÐ°ÑģÐ¿ÑĢÐ¾ÑģÑĤÑĢÐ°Ð½": 1782,
      "ĠÐ²Ð½ÑĥÑĤ": 1783,
      "ĠÐ³Ð¾ÑĢÐ¾Ð´Ðµ": 1784,
      "Ð¿Ð¿": 1785,
      "ĠÐ¾Ð±ÑĢÐ°Ð·Ð¾Ð¼": 1786,
      "ÐµÐ¼Ð°ÑĤ": 1787,
      "ĠÐ°Ð¿ÑĢÐµÐ»Ñı": 1788,
      "ĠÐ¸Ð¼ÐµÐµÑĤ": 1789,
      "ĠÐ²Ð¾Ð»": 1790,
      "Ð¯": 1791,
      "ÑİÑīÐ¸Ñħ": 1792,
      "ĠÑĥÑĢÐ¾Ð²": 1793,
      "ĠÑģÐ¸ÑģÑĤÐµÐ¼Ñĭ": 1794,
      "ÑģÐ¸Ñı": 1795,
      "ĠÐºÐ°ÑĩÐµÑģÑĤÐ²Ðµ": 1796,
      "ĠÐ¾Ð´Ð½Ð°ÐºÐ¾": 1797,
      "ĠÐ¼Ð½Ð¾Ð³Ð¾": 1798,
      "Ð»Ñĭ": 1799,
      "Ð¸Ð½ÑģÐºÐ¸Ð¹": 1800,
      "ĠÐ¼ÐµÑģÑĤÐ¾": 1801,
      "Ġ25": 1802,
      "ĠÐ¿ÑĢÐ¸Ð²": 1803,
      "ĠÑıÐ²Ð»ÑıÑİÑĤÑģÑı": 1804,
      "ĠÑĢÑĥÐºÐ¾Ð²Ð¾Ð´": 1805,
      "199": 1806,
      "ĠÑĥÑģÐ»Ð¾Ð²": 1807,
      "ĠÐ±Ð¾Ð³": 1808,
      "Ð¾ÑĢÐ¾Ð³": 1809,
      "Ð¼Ð»": 1810,
      "Ð»Ð¸Ð²": 1811,
      "000": 1812,
      "ĠÑģÐ¾Ð²ÐµÑĤÑģÐºÐ¸Ð¹": 1813,
      "Ð½Ð¸Ñı": 1814,
      "ĠÑģÐ¾Ð¾ÑĤÐ²ÐµÑĤÑģÑĤÐ²": 1815,
      "Ð¸Ð±Ð»Ð¸": 1816,
      "ĠÐºÐ°Ð¶Ð´": 1817,
      "ĠÐ¸ÑģÑĤÐ¾ÑĢÐ¸Ð¸": 1818,
      "Ð¦": 1819,
      "ÑĥÑĢÐ°": 1820,
      "ĠÐĴÐ»Ð°Ð´Ð¸": 1821,
      "re": 1822,
      "ĠÐ³ÐµÐ½ÐµÑĢÐ°": 1823,
      "ĠÑģÐ²Ð¾ÐµÐ¹": 1824,
      "ĠÑįÑĤÐ¾Ð¹": 1825,
      "ĠÑģÐµÐ²ÐµÑĢ": 1826,
      "ĠÐ°Ð²Ð³ÑĥÑģÑĤÐ°": 1827,
      "ÑĢÐµÑģÑĤ": 1828,
      "ĠÐ¼Ð¾Ð´": 1829,
      "Ð¾ÑĢÑĮ": 1830,
      "ĠÐ²Ð¾Ð·Ð´": 1831,
      "ĠÑģÑĤÐ°ÑĤ": 1832,
      "ĠÑĥÐ»Ð¸": 1833,
      "ĠÐ¶ÐµÐ»ÐµÐ·": 1834,
      "ĠÑģÐµÐ±Ñı": 1835,
      "ĠÐ¡ÐµÐ²ÐµÑĢ": 1836,
      "le": 1837,
      "Ð¸Ñī": 1838,
      "Ð»ÑĥÐ¶": 1839,
      "ĠÐ¾Ð¿Ð¸Ñģ": 1840,
      "ÑİÑīÐ¸Ðµ": 1841,
      "ĠÑģÐµÐº": 1842,
      "11": 1843,
      "ÑģÑĤÐ²Ñĥ": 1844,
      "ĠÐ´Ð¾Ð±": 1845,
      "ĠÐ½ÐµÐ·": 1846,
      "22": 1847,
      "Ð½ÐµÐ¼": 1848,
      "ĠÐłÐ¾ÑģÑģÐ¸Ð¹ÑģÐºÐ¾Ð¹": 1849,
      "Ġ()": 1850,
      "Ġ189": 1851,
      "ĠÑģÐ²ÑıÐ·Ð¸": 1852,
      "ĠÐ½Ð¾ÑıÐ±ÑĢÑı": 1853,
      "ĠÑįÐ¿": 1854,
      "ÑĩÐµÑģÐºÐ¸Ð¹": 1855,
      "ÑĢÐ°Ð·Ð´": 1856,
      "ĠÑĢÐ°Ð¹Ð¾Ð½": 1857,
      "ĠÐŃÑĤÐ¾": 1858,
      "ĠÐ³ÑĢÐ°Ð¶Ð´Ð°Ð½": 1859,
      "ĠÐ²Ð¾ÑģÑģÑĤ": 1860,
      "Ġ30": 1861,
      "Ð´ÐµÐ¹": 1862,
      "Ð¾Ð²Ð°Ð½Ð¸Ñı": 1863,
      "ÐĺÑģÑĤ": 1864,
      "ĠÐ¿Ð¾ÑģÑĤÑĢÐ¾": 1865,
      "ÑĥÐ´Ð°": 1866,
      "ĠÐ¿ÑĢÐµÐ´Ð¿ÑĢÐ¸": 1867,
      "ÑĢÐ¸ÑģÑĤÐ¸": 1868,
      "ÑĳÐ½Ð½ÑĭÐµ": 1869,
      "Ð¾ÑĢÐ¾Ð¶": 1870,
      "ĠÑĢÐµÐ¶": 1871,
      "ÑıÑģ": 1872,
      "Ð³Ð¾ÑĤÐ¾Ð²": 1873,
      "Ð°ÑĤÐ¾Ð²": 1874,
      "ĠÐ¸Ñģ": 1875,
      "ĠÐ¸Ð·Ð¼ÐµÐ½": 1876,
      "Ð¾ÑĢÑĥÐ¶": 1877,
      "ÐŁÐ¾": 1878,
      "ÑģÐµÐ´": 1879,
      "ĠÐµÐ¼Ñĥ": 1880,
      "ĠÑĤÑĢÐµ": 1881,
      "Ð¸Ð½Ð¾Ð²": 1882,
      "ÑıÐ¼Ð¸": 1883,
      "ĠÐ¿Ð¾Ð·Ð²Ð¾Ð»": 1884,
      "ÐµÐ¶Ð´": 1885,
      "ÐµÑĦ": 1886,
      "ĠÑĦÐ¸Ð»Ð¾ÑģÐ¾ÑĦ": 1887,
      "ĠÑĩÐµÐ¼Ð¿Ð¸": 1888,
      "ÑģÑĤÐ¸ÑĤÑĥ": 1889,
      "Ð¾ÑģÐ»Ð°Ð²": 1890,
      "ĠÐ¿ÑĢÐ°Ðº": 1891,
      "ĠÐºÐ°Ð½": 1892,
      "ĠÐ³Ð¾Ð´Ð¾Ð²": 1893,
      "ĠÐ¿ÑĢÐ¾ÑĦ": 1894,
      "ÐµÑģÐ¿ÑĥÐ±Ð»Ð¸": 1895,
      "Ð¾ÑĢÑĭ": 1896,
      "III": 1897,
      "ĠÑĢÑıÐ´": 1898,
      "ĠÐºÐ°Ð¼": 1899,
      "ĠÐ²ÑĭÑģÑĤÑĥÐ¿": 1900,
      "ÑĥÑĢÐµ": 1901,
      "ĠÐľÐ¸Ñħ": 1902,
      "Ð³Ð¾ÑĢÐ¾Ð´": 1903,
      "ĠÑĢÑĭ": 1904,
      "Ġ:": 1905,
      "ÐµÐ½Ð½Ð¾Ð¹": 1906,
      "ÑĢÐ°Ð²Ð½": 1907,
      "ĠÐ¿ÑĢÐµÐ´ÑģÑĤÐ°Ð²Ð»Ñı": 1908,
      "Ð¸ÑĤÐµÐ»Ð¸": 1909,
      "ĠÐ¿ÑĢÐ¾Ð¸Ð·Ð²ÐµÐ´": 1910,
      "ĠÑĢÐµÐ·ÑĥÐ»ÑĮÑĤÐ°ÑĤÐµ": 1911,
      "ĠÐ´Ð¾ÑģÑĤÐ¸": 1912,
      "Ð°ÑĤÐ¸Ð²": 1913,
      "Ð»ÐµÐ½Ñĭ": 1914,
      "ĠÐ¾Ð·": 1915,
      "ĠÑĢÐµÐ´": 1916,
      "ÑĳÐ²": 1917,
      "Ð¸ÑĨÐ°": 1918,
      "ĠÐ°Ð»ÑĮ": 1919,
      "ÑĸÑĸ": 1920,
      "ÑĩÑĳÑĤ": 1921,
      "ĠÐ²ÐºÐ»ÑİÑĩ": 1922,
      "ĠÐ¿ÑĢÐ¾Ð¼ÑĭÑĪÐ»ÐµÐ½": 1923,
      "Ġt": 1924,
      "ĠÐĳÐµÐ»": 1925,
      "ĠÐºÐ°ÑĢ": 1926,
      "ĠÐ°ÐºÑĤÐ¸Ð²": 1927,
      "ĠÐ¾Ð±ÑĭÑĩ": 1928,
      "Ð¾Ð»Ð¾Ð³Ð¸Ñı": 1929,
      "ĠÐ»Ð¸ÑĪÑĮ": 1930,
      "ÐºÐ¾Ð³Ð¾": 1931,
      "ĠÐ°ÑĤ": 1932,
      "Ð»Ð¾ÑģÑĮ": 1933,
      "Ð½ÑıÑı": 1934,
      "Ð½ÐµÑģ": 1935,
      "ĠÑģÐ¾Ð¿": 1936,
      "ĠÐ¿ÑĢÐ¾ÑģÑĤ": 1937,
      "ĠÐ½ÐµÐ¾Ð±": 1938,
      "ÑĩÐµÑģÐºÐ¾Ð³Ð¾": 1939,
      "ĠÑĥÑĤÐ²ÐµÑĢ": 1940,
      "Â»)": 1941,
      "ĠÑģÐ²Ð¾Ðµ": 1942,
      "ÑħÐ¾Ð´Ð¸Ð¼": 1943,
      "Ð°Ð½Ð½ÑĭÑħ": 1944,
      "ĠÐ´Ð¾Ð¿": 1945,
      "ĠÐ¡ÑĢÐµÐ´": 1946,
      "ĠÐ¸ÑĤ": 1947,
      "ÑģÑĭÐ»ÐºÐ¸": 1948,
      "ÑĢÐµÑģ": 1949,
      "Ð°ÑĢÐ¾Ð²": 1950,
      "ĠÐ²Ð¾Ð¿ÑĢÐ¾Ñģ": 1951,
      "ĠÐ²ÑģÑĤÑĢÐµ": 1952,
      "ÑĥÑĤÑģÑĤÐ²": 1953,
      "ĠÑĪÐ¸ÑĢ": 1954,
      "Ð¼Ð¿": 1955,
      "un": 1956,
      "ÑģÑĤÐ²ÐµÐ½Ð½ÑĭÐ¹": 1957,
      "ĠÐ³ÑĢÑĥÐ¿Ð¿Ñĭ": 1958,
      "ÐµÑĢÐµÐ²": 1959,
      "ĠÑĤÐµÐº": 1960,
      "ÐµÐ½Ð´": 1961,
      "Ð»Ð°ÑģÑģÐ¸": 1962,
      "Ð°Ð½Ðµ": 1963,
      "ĠÐľÐ°Ðº": 1964,
      "Ð°Ð»Ð¾Ð²": 1965,
      "ĠÐ³Ð¾Ð»": 1966,
      "ĠÐłÐµÑģÐ¿ÑĥÐ±Ð»Ð¸": 1967,
      "Ð½Ð°Ð¼": 1968,
      "ĠÑĩÐµÐ»Ð¾Ð²ÐµÐºÐ°": 1969,
      "Ð¾Ð·Ñı": 1970,
      "ĠÐ¿ÐµÑģ": 1971,
      "ĠÐ³ÐµÑĢ": 1972,
      "ĠÑĥÑĩÐ°ÑģÑĤ": 1973,
      "Ð¾ÑĤÐ°": 1974,
      "ĠÑģÐ¾Ð²ÐµÑĢÑĪ": 1975,
      "ĠÐļÐ¾ÑĢ": 1976,
      "ĠÐ¿Ð»Ð¾ÑīÐ°Ð´": 1977,
      "ĠÑģÐ¾Ð·": 1978,
      "ĠÐ½Ð°Ð·Ð²Ð°Ð½Ð¸Ðµ": 1979,
      "ĠÑģÐ¾Ð±Ð¾Ð¹": 1980,
      "ĠÐ½ÐµÐ±": 1981,
      "ĠÐŁÐ¾ÑģÐ»Ðµ": 1982,
      "ĠÑģÑĤÐµÐ¿": 1983,
      "Ð¾ÑģÐ»ÐµÐ´": 1984,
      "ĠÐ¿Ð¾ÑıÐ²": 1985,
      "ĠÐ¿ÑĢÐ¾Ð±": 1986,
      "ÑıÑĤÑģÑı": 1987,
      "ĠÐ¤ÐµÐ´ÐµÑĢÐ°": 1988,
      "ĠÑĦÐµÐ²ÑĢÐ°Ð»Ñı": 1989,
      "ĠÑĢÐ°Ð´Ð¸": 1990,
      "Ð¸ÑĤÑĮÑģÑı": 1991,
      "ÑģÐ¸Ñħ": 1992,
      "ĠÐ¾ÑĤÐ½Ð¾Ñģ": 1993,
      "ĠÑĢÐµÐ³Ð¸": 1994,
      "ĠÑĢÐµÐ»Ð¸": 1995,
      "ÐµÑģÐ¿ÐµÑĩ": 1996,
      "ĠÐ²Ð¸Ð´Ðµ": 1997,
      "Ð¾ÑĤÑı": 1998,
      "ÑĥÐ¼ÐµÐ½ÑĤ": 1999,
      "ĠÐ¾ÐºÑĢÑĥÐ³": 2000,
      "ĠÐ¿Ð°ÑĢÐ°": 2001,
      "ĠÐ¿ÐµÑĢÐ²ÑĭÐ¹": 2002,
      "Ð·Ð¼": 2003,
      "ĠÐ¸Ð´Ðµ": 2004,
      "ĠÐ½ÐµÐ¹": 2005,
      "ĠÑģÑĤÑĢÐ¾Ð¸ÑĤÐµÐ»ÑĮ": 2006,
      "ĠÐµÑģÐ»Ð¸": 2007,
      "ĠÐ¸Ð¼ÐµÐ½Ð¸": 2008,
      "ÐµÐ»Ð°": 2009,
      "of": 2010,
      "ĠÑģÐ»ÐµÐ´ÑĥÑİÑī": 2011,
      "Ð¾Ð¼Ð¸Ð½": 2012,
      "Ð¾Ð²Ð°Ð½Ð¸Ðµ": 2013,
      "ĠÐ½Ð°Ð¿ÑĢÐ¸Ð¼ÐµÑĢ": 2014,
      "ĠÑĨÐµÐ»": 2015,
      "ĠÐ°Ð²ÑĤ": 2016,
      "ĠÐ²Ð½Ðµ": 2017,
      "ÐĽÐ¸ÑĤÐµÑĢÐ°": 2018,
      "ĠÐ²ÐµÐ´": 2019,
      "ĠÐ½Ð°ÑĨÐ¸Ð¾Ð½Ð°Ð»ÑĮ": 2020,
      "21": 2021,
      "ÑģÐºÐ¾Ð¿": 2022,
      "ĠÐºÐ°Ð·": 2023,
      "ÑĢÐ°Ð¼": 2024,
      "ĠÐ¡Ð°Ð¼": 2025,
      "Ð½Ð¸ÐºÐ¾Ð¼": 2026,
      "Ð¸ÑĤÐ¾Ð²": 2027,
      "ÑĩÐµÑģÐºÐ¸Ðµ": 2028,
      "ur": 2029,
      "Ð°Ð»Ð¾Ð³": 2030,
      "Ð°ÐµÐ¼": 2031,
      "ĠÐ·Ð°Ð½": 2032,
      "ÑĩÐ°ÐµÑĤ": 2033,
      "ĠÐĲÐ½Ð´": 2034,
      "il": 2035,
      "ĠÐ°Ð½ÑĤÐ¸": 2036,
      "ÑģÑĤÑĭ": 2037,
      "ĠÐºÐ¾": 2038,
      "om": 2039,
      "ÑĦÐµÑĢ": 2040,
      "ĠÑĤÑĭÑģÑıÑĩ": 2041,
      "ĠÐ³Ð¾Ð´Ð°Ñħ": 2042,
      "ĠÐ²Ð»Ð¸Ñı": 2043,
      "ĠÐ°Ð²ÑĤÐ¾ÑĢ": 2044,
      "ĠÐĴÐ¾": 2045,
      "Ġ-": 2046,
      "ÐµÑĢÐ²ÑĭÐµ": 2047,
      "ĠÐŀÑĢ": 2048,
      "ĠÐ¡Ð°Ð½": 2049,
      "ÑģÑıÑĤ": 2050,
      "ĠâĢ": 2051,
      "ÑĩÐ¸Ð²": 2052,
      "ĠÐ¼Ð¸ÑĢÐ¾Ð²": 2053,
      "ĠÑįÑĤÐ¾ÑĤ": 2054,
      "ÐµÐºÑĤÐ¸Ð²": 2055,
      "ÐµÐ½ÐºÐ¾": 2056,
      "ĠÐ·Ð°ÐºÐ¾Ð½": 2057,
      "ĠÐļÐ°": 2058,
      "ÑİÑīÐ¸Ð¹": 2059,
      "ĠÑĦÐ¸Ð½": 2060,
      "Ð°Ð²Ð¸ÑģÐ¸Ð¼": 2061,
      "ĠÑĢÐ°Ð·ÑĢÐ°Ð±Ð¾ÑĤ": 2062,
      "Ð±Ð¾": 2063,
      "ĠÐ¼Ð°Ð³": 2064,
      "ĠXX": 2065,
      "Ðĸ": 2066,
      "ĠÐ´Ð°Ð¶Ðµ": 2067,
      "Ð°Ð½Ð³": 2068,
      "ĠÐ°Ð½Ð³Ð»Ð¸Ð¹": 2069,
      "ĠÐŁÐ¾Ð»": 2070,
      "ĠÐ¾Ð±ÐµÑģÐ¿ÐµÑĩ": 2071,
      "ĠÑģÑĤÐ°Ð½": 2072,
      "ÐŀÐ±": 2073,
      "Ð¡ÑģÑĭÐ»ÐºÐ¸": 2074,
      "Ð»Ð°ÑĪ": 2075,
      "ĠÑģÐ²Ð¾Ñİ": 2076,
      "ĠÑĤÐµÑĩ": 2077,
      "ÑĢÑĥÐºÑĤ": 2078,
      "ĠÐłÐ¸Ð¼": 2079,
      "ĠÐ¶ÑĥÑĢ": 2080,
      "ĠÐ±ÐµÐ»": 2081,
      "ĠÐ³Ð¾Ð²": 2082,
      "and": 2083,
      "ĠÑĢÐ°Ð±Ð¾ÑĤÑĭ": 2084,
      "ÑģÑĤÐ²ÐµÐ½Ð½ÑĭÑħ": 2085,
      "ĠÑģÐ¾Ð»": 2086,
      "ÑĤÐ¾Ð½": 2087,
      "ĠÐ²Ð»Ð°ÑģÑĤÐ¸": 2088,
      "ĠÐ¾Ð´Ð½Ð¾Ð¹": 2089,
      "Ð°ÑĤÐµÐ»ÐµÐ¹": 2090,
      "Ð¸ÑĤÐµÐº": 2091,
      "ĠÐºÐ½ÑıÐ·": 2092,
      "ĠÐļÐ¾Ð¼": 2093,
      "ĠÑĤÑĢÐµÐ±": 2094,
      "ÑģÐºÐµ": 2095,
      "30": 2096,
      "ÑĥÐ²": 2097,
      "Ð°ÑİÑĤÑģÑı": 2098,
      "ĠÐ½Ð°ÑĩÐ°Ð»Ðµ": 2099,
      "ÑĢÐ¸Ð´": 2100,
      "ĠÐ³Ðµ": 2101,
      "ÑģÑĤÐ²ÐµÐ½Ð½Ð¾Ð³Ð¾": 2102,
      "ĠÑıÐ·ÑĭÐºÐ°": 2103,
      "ÑĥÐ¼Ð°": 2104,
      "ÐµÐ·Ð´": 2105,
      "Ð¸ÑĩÐµÑģÐºÐ°Ñı": 2106,
      "ĠÐ¿Ð¸ÑģÐ°ÑĤÐµÐ»ÑĮ": 2107,
      "ĠÐĴÐ»Ð°Ð´Ð¸Ð¼Ð¸": 2108,
      "ĠÐ°Ð²ÑĤÐ¾Ð¼": 2109,
      "ĠÐ¿ÑĢÐµÐ²": 2110,
      "ĠÐ½ÐµÐ¾Ð±ÑħÐ¾Ð´Ð¸Ð¼": 2111,
      "Ð»ÐµÐ¶": 2112,
      "ĠÑģÑĤÐ°Ð»Ð¸": 2113,
      "ĠÐºÐ¼": 2114,
      "ĠÐ¿ÑĢÐ¾Ð²Ð¾Ð´": 2115,
      "ĠÑģÐ»Ð¾Ð¶": 2116,
      "am": 2117,
      "ĠÑĩÐµÐ¼Ð¿Ð¸Ð¾Ð½": 2118,
      "ĠÑģÐ¼": 2119,
      "ĠÐ½Ð°Ð¿Ð¸Ñģ": 2120,
      "ĠÐ¾ÑģÑĤÐ°Ð²": 2121,
      "ÐµÑĤÑĮ": 2122,
      "ÑĤÑĥÑĢÑĭ": 2123,
      "ÑĢÐ¸ÑģÑĤÐ¸Ð°Ð½": 2124,
      "Ð¾Ð·ÑıÐ¹": 2125,
      "ĠÑĤÑĢÐ°Ð´Ð¸": 2126,
      "ÑĢÐ¾Ð»": 2127,
      "ĠÐ½Ð°ÑģÑĤÐ¾Ñı": 2128,
      "Ð°Ð½Ð½ÑĭÐ¹": 2129,
      "ĠÐ´Ð¾ÑĢÐ¾Ð³": 2130,
      "ĠÑģÐ¸Ð½": 2131,
      "ĠÐ¼Ð½Ð¾Ð¶Ðµ": 2132,
      "Ġ188": 2133,
      "ĠÐ·Ð°Ñī": 2134,
      "50": 2135,
      "ÐµÐºÑĤÐ°": 2136,
      "ĠÐ¸ÑģÑĤÐ¾Ñĩ": 2137,
      "ĠÐ·Ð°Ð¿Ð°Ð´": 2138,
      "ÐµÐ»Ð¾": 2139,
      "ĠÐ²ÑĭÐ¿Ð¾Ð»": 2140,
      "Ð°ÐºÐ¾Ð²": 2141,
      "ĠÑģÐµÑĢ": 2142,
      "ĠÐĹÐ°Ð¿": 2143,
      "ĠÑĤÑĢÑĥ": 2144,
      "ĠÑħÐ¾Ð´": 2145,
      "ĠÐĽÑĥ": 2146,
      "st": 2147,
      "ĠÑĢÐ°Ð½": 2148,
      "ĠÑģÐ²Ð¾Ð¸Ñħ": 2149,
      "ĠÑģÐ¸Ð»ÑĮ": 2150,
      "Ġ11": 2151,
      "ÑĢÐµÐ¶Ð´": 2152,
      "ÐĽÐ¸ÑĤÐµÑĢÐ°ÑĤÑĥÑĢÐ°": 2153,
      "ÑĨÐµ": 2154,
      "Ð¾ÐºÑĢÐ°": 2155,
      "ĠÐ¾Ð±ÑĬÐµÐ´Ð¸Ð½": 2156,
      "ĠÑģÐµÐ»ÑĮ": 2157,
      "ÑĳÐ·": 2158,
      "ĠÐ¾ÑģÑĥÑīÐµÑģÑĤÐ²": 2159,
      "ĠÑģÑĢÐµÐ´Ð¸": 2160,
      "ÑĥÐ»ÑıÑĢ": 2161,
      "ĠÑĥÑĩÑĳ": 2162,
      "Ð½Ð¸ÑĨÐ°": 2163,
      "ĠÑģÐ²Ð¾ÐµÐ³Ð¾": 2164,
      "Ð¾ÑĢÐ¸Ð¸": 2165,
      "ĠÐ´ÑĢ": 2166,
      "ĠÐ³Ð¾ÑģÑĥÐ´Ð°ÑĢÑģÑĤÐ²Ð°": 2167,
      "ĠÐ²Ð¾Ð¹ÑģÐº": 2168,
      "ĠÐĲÐ»": 2169,
      "Ð½Ð¸Ð¸": 2170,
      "Ð°Ñī": 2171,
      "ĠÐ²Ðµ": 2172,
      "ĠÑĪÐ¸ÑĢÐ¾Ðº": 2173,
      "Ð¼Ð¸ÑĤ": 2174,
      "ĠÑıÐ·ÑĭÐº": 2175,
      "ĠÑįÑĤÐ¸Ñħ": 2176,
      "ĠÑħÐ¸Ð¼Ð¸": 2177,
      "ĠÐ±ÑĢÐ°": 2178,
      "Ð¾ÑıÐ½": 2179,
      "ĠÐĲÑĦ": 2180,
      "ÑĤÐ¸ÑĩÐµÑģÐºÐ¸": 2181,
      "ĠÑĤÐ¾ÑĢÐ³Ð¾Ð²": 2182,
      "ĠÐ³ÑĥÐ±": 2183,
      "ĠÑĩÐµÑĤÑĭ": 2184,
      "Â°": 2185,
      "ĠÐ¾ÑĤÐ»Ð¸Ñĩ": 2186,
      "Ð¾ÑģÑĤÐ¾Ðº": 2187,
      "Ð»ÐµÐ½Ð°": 2188,
      "Ð»ÐµÐ½Ð¸Ð¸": 2189,
      "ĠÐ¿Ð¾Ð±ÐµÐ´": 2190,
      "ĠÑģÐ´ÐµÐ»": 2191,
      "ÑĦÐ¸ÐºÐ°": 2192,
      "ĠÐ¿Ð¾ÐºÐ°Ð·": 2193,
      "ĠÐºÐ¾Ð½ÑĨÐµ": 2194,
      "ĠÐ°ÐºÐ°Ð´ÐµÐ¼": 2195,
      "Ð°ÑĤÐµÐ»Ð¸": 2196,
      "ĠÐļÑĢÐ°Ñģ": 2197,
      "ĠÑĢÐµÑģÐ¿": 2198,
      "Ð±Ð¾Ð»": 2199,
      "ĠÐ²Ð°Ð¶": 2200,
      "Ð¸Ð´Ð°": 2201,
      "ÑĢÑĭÐ²": 2202,
      "Ð¡ÑĤ": 2203,
      "ĠÐ¼ÐµÐ¶Ð´ÑĥÐ½Ð°ÑĢÐ¾Ð´": 2204,
      "Ð°Ð»ÑĮÐ½Ð°Ñı": 2205,
      "ĠÐ¾ÑĦÐ¸ÑĨÐ¸Ð°Ð»ÑĮ": 2206,
      "ĠÑģÐ¾Ð¾Ð±Ñī": 2207,
      "ĠÐ¾ÑĤÑģ": 2208,
      "194": 2209,
      "Ð¾Ð³ÑĢÐ°ÑĦÐ¸Ñı": 2210,
      "ĠÐ¾ÑĤÐ´ÐµÐ»ÑĮ": 2211,
      "ÐµÐ½Ð¾Ð²": 2212,
      "ĠÐ²ÑĭÐ±": 2213,
      "23": 2214,
      "Ð°ÑĤÐ¾ÑĢ": 2215,
      "Ð¸ÐµÐ¼": 2216,
      "Ð¸ÑĦ": 2217,
      "Ð¾Ð½Ð´": 2218,
      "ĠÐ¼Ð°Ð»": 2219,
      "ÐµÐ½ÑĤÐ°": 2220,
      "Ð¾ÑģÑĤÐ°Ð²": 2221,
      "Ð¸Ð»Ð¾ÑģÑĮ": 2222,
      "ÑĤÐ¾Ð¼Ñĥ": 2223,
      "ĠÐ¾Ñħ": 2224,
      "ĠÐĴÑģ": 2225,
      "Ð¸Ð»Ð°ÑģÑĮ": 2226,
      "ĠÑĥÑĩÐ°ÑģÑĤÐ¸": 2227,
      "ĠÐ¼ÑĥÐ·": 2228,
      "Ġ24": 2229,
      "Ð¸ÑĤÑĭ": 2230,
      "ĠÐ¾ÑĩÐµÐ½ÑĮ": 2231,
      "ĠÑĢÐ¾Ð¼": 2232,
      "ĠÑģÐºÐ¾ÑĢ": 2233,
      "ĠÐ¸Ð¼Ð¿ÐµÑĢÐ¸Ð¸": 2234,
      "ĠÐ¼Ð¸ÑĢ": 2235,
      ".)": 2236,
      "Ð²Ð¸Ð³": 2237,
      "Ð»Ð°ÑģÑģ": 2238,
      "ĠÐ¾ÐºÐ¾Ð½Ñĩ": 2239,
      "ÐµÑı": 2240,
      "ÑĪÐµÐµ": 2241,
      "ĠÑģÐ¾Ñİ": 2242,
      "Ġp": 2243,
      "ĠÐ·Ð°ÑĤÐµÐ¼": 2244,
      "198": 2245,
      "ĠÑĢÐµÑģÐ¿ÑĥÐ±Ð»Ð¸": 2246,
      "ÐºÐ¼": 2247,
      "ed": 2248,
      "ÑģÑĤÐ¾": 2249,
      "Ð¶ÐµÐ½": 2250,
      "ĠÑĤÐµÐ¼Ð¿ÐµÑĢÐ°": 2251,
      "Ð»Ð¸Ð¸": 2252,
      "ĠÐ±Ð¾Ð»ÑĮÑĪÐ¸Ð½": 2253,
      "ĠÐ¿ÑĢÐµÐ¼Ð¸": 2254,
      "Ð³ÑĢÐ°Ð½Ð¸Ñĩ": 2255,
      "ĠÐ°Ð´Ð¼Ð¸Ð½Ð¸ÑģÑĤÑĢÐ°": 2256,
      "ÑĢÐ¸Ñħ": 2257,
      "ÑĤÐµÑĢ": 2258,
      "ĠÐ¿Ð¾Ð»Ð¾Ð²": 2259,
      "ĠÐºÐ¾ÑĤÐ¾ÑĢÐ¾Ð¼": 2260,
      "Ġ187": 2261,
      "ĠÐ¸Ð½ÑĦÐ¾ÑĢÐ¼Ð°": 2262,
      "ĠÐ±ÐµÑĢÐµ": 2263,
      "ĠÐ¿ÑĢÐµÐ´Ð»Ð¾Ð¶": 2264,
      "Ð°Ð½ÑģÐºÐ¸Ð¹": 2265,
      "ĠÐ¾Ð³": 2266,
      "ÐºÐ²Ð¸": 2267,
      "ĠÐ¿ÑĢÐ¾ÑĪ": 2268,
      "ĠÑģÑĤÐ¾ÑĢÐ¾Ð½": 2269,
      "ÐĨ": 2270,
      "ĠÐłÑĥÑģ": 2271,
      "ĠÐ¸Ð·Ð¾Ð±ÑĢÐ°Ð¶": 2272,
      "ĠÑģÐ¾ÑĤ": 2273,
      "ĠÐ¼Ð¾Ð¼": 2274,
      "ĠÐ´Ð°Ð²": 2275,
      "ĠÑģÐ¾Ñĩ": 2276,
      "ĠÐ¡Ð¾Ñİ": 2277,
      "ĠÑħÑĥÐ´Ð¾Ð¶": 2278,
      "ĠÐĲÐ±": 2279,
      "ÐµÑĢÐ±ÑĥÑĢÐ³": 2280,
      "ĠÐ¼ÐµÐ½ÐµÐµ": 2281,
      "ĠÐ²ÑĭÐ´": 2282,
      "ĠÐ½ÐµÐ³Ð¾": 2283,
      "ĠÐºÐ°ÑĤ": 2284,
      "ĠÑĢÐ°Ð¹Ð¾Ð½Ð°": 2285,
      "Ð»Ð¾Ð½": 2286,
      "ĠÐ¿Ð¾Ð»ÑĮÐ·": 2287,
      "ĠÐ½Ð°Ð·Ð½Ð°Ñĩ": 2288,
      "ĠÐľÐ¸Ð½": 2289,
      "ĠXIX": 2290,
      "ĠÐĳÐ¾Ð»ÑĮÑĪ": 2291,
      "ĠÐĺÐ²": 2292,
      "Ð´Ð¾": 2293,
      "Ġ186": 2294,
      "ÑģÐ¸Ð¼": 2295,
      "Ð¸ÐºÐ¾Ð²": 2296,
      "ÑģÐ¸Ð²": 2297,
      "ÑħÐ°Ð½Ð¸": 2298,
      "ÑĢÐ¾Ð·": 2299,
      "Ð°ÑģÑģ": 2300,
      "ĠÐ½ÐµÐ¿": 2301,
      "ĠÑģÐ»ÑĥÑĩÐ°Ðµ": 2302,
      "ÑĮÑİÑĤ": 2303,
      "ĠÐ¸Ð·ÑĥÑĩ": 2304,
      "ĠO": 2305,
      "ĠÑģÐ¾ÑģÑĤÐ°Ð²Ð»ÑıÐµÑĤ": 2306,
      "ĠÐ½ÐµÐ·Ð°Ð²Ð¸ÑģÐ¸Ð¼": 2307,
      "ĠÐ¾ÐºÐ°Ð·": 2308,
      "ĠÑĩÐ°ÑģÑĤÐ¾": 2309,
      "ĠÑĢÐ¾ÑģÑģÐ¸Ð¹ÑģÐºÐ¸Ð¹": 2310,
      "ĠÐ¼ÐµÑĤÐ¾Ð´": 2311,
      "ÐºÐ¸Ð½": 2312,
      "Ð¼Ð°ÑĤÑĢÐ¸": 2313,
      "Ð¾ÑĢÑĤÐ°": 2314,
      "Ð»ÐµÑĢ": 2315,
      "ÑĨÐ¾Ð²": 2316,
      "Ð²Ð¸Ð´": 2317,
      "Ð·Ð°Ð¸Ð¼": 2318,
      "ĠÐĵÐµÑĢ": 2319,
      "ĠÐļÐ¾Ð»": 2320,
      "ĠÑĥÑģÐ¿": 2321,
      "ÑĢÐ¸ÑģÐ°": 2322,
      "ĠÐ¿Ð¸ÑģÑĮ": 2323,
      "ĠÐ¿Ð¾Ð»ÑĥÑĩÐ¸Ð»": 2324,
      "ĠÐ»Ð¸Ð±": 2325,
      "ĠÐĲÐ»ÐµÐºÑģÐ°Ð½Ð´ÑĢ": 2326,
      "ĠÐ»Ð¸Ñĩ": 2327,
      "Ð±Ðµ": 2328,
      "ÐºÐ°Ñı": 2329,
      "ĠÑģÑĤÐ¾ÑĢÐ¾Ð½Ñĭ": 2330,
      "ĠÑĢÐ°Ð·Ð´ÐµÐ»": 2331,
      "ĠÐ¿ÑģÐ¸Ñħ": 2332,
      "ĠÐ²ÑĭÐ¿Ñĥ": 2333,
      "ra": 2334,
      "ĠÐĲÐ»ÑĮ": 2335,
      "Ð½Ð°ÑĢ": 2336,
      "Ð°Ð½ÑĤÐ°": 2337,
      "ĠÐ°Ð±": 2338,
      "Ð°Ð»ÑĮÐ½Ð¾Ðµ": 2339,
      "ĠÐ¿ÑĢÐ¸ÑĢÐ¾Ð´": 2340,
      "ĠÐĲÐ·": 2341,
      "Ð¸ÐºÐµ": 2342,
      "ĠÐ½Ð°Ð¸Ð±Ð¾Ð»ÐµÐµ": 2343,
      "ÑĥÑģÐ°": 2344,
      "ĠÑģÐ¾ÐµÐ´Ð¸Ð½": 2345,
      "ĠÑģÐ¾ÑĨÐ¸Ð°Ð»ÑĮ": 2346,
      "ĠÑģÐ²ÐµÑĤ": 2347,
      "ĠÑĩÐ¸ÑģÐ»Ð¾": 2348,
      "ÑĥÐºÐ°": 2349,
      "ĠÐ²ÑħÐ¾Ð´": 2350,
      "ĠÐŁÐ¾Ð´": 2351,
      "ĠÑįÑĦÑĦ": 2352,
      "ĠÑĢÑĥÑģÑģÐºÐ¸Ð¹": 2353,
      "Ġ[": 2354,
      "ĠÐĶÐ»Ñı": 2355,
      "Ð»ÐµÐ½Ð¸ÐµÐ¼": 2356,
      "ĠÐĽÐµÐ½Ð¸": 2357,
      "ĠÑĤÑĢÐ°Ð½ÑģÐ¿": 2358,
      "Ð°Ð½ÑĮ": 2359,
      "ĠÐ´ÐµÑĢÐµÐ²": 2360,
      "Ð½Ð¸ÑĤ": 2361,
      "ĠÑĢÐµÐ²Ð¾Ð»Ñİ": 2362,
      "ĠÐ¿ÑĢÐ¸Ð·Ð½": 2363,
      "Ð¸Ð·Ð¼": 2364,
      "ÑĳÐ½Ð½ÑĭÐ¹": 2365,
      "Ð°Ð»Ñĭ": 2366,
      "197": 2367,
      "Ð¬": 2368,
      "ĠÐ·Ð°Ñħ": 2369,
      "Ġof": 2370,
      "Ð»Ð°ÑĤ": 2371,
      "ĠÐ±Ð°Ð·": 2372,
      "ĠÐ½Ð°Ð±Ð»Ñİ": 2373,
      "Ð¾ÑģÐ¿": 2374,
      "ĠÐ¿Ð°Ð¼ÑıÑĤ": 2375,
      "ĠÑģÑĤÑĢÑĥÐºÑĤ": 2376,
      "ĠÑĥÐ²ÐµÐ»Ð¸Ñĩ": 2377,
      "ĠÐĽÑİ": 2378,
      "ĠÑĤÑĢÑĳÑħ": 2379,
      "ĠÐ´ÐµÐ¿": 2380,
      "ÑģÐ¸Ð¾Ð½": 2381,
      "ĠÐ·Ð°Ð²Ð¾Ð´": 2382,
      "ÑĩÐ°ÐµÑĤÑģÑı": 2383,
      "Ð¸ÐµÐ²": 2384,
      "ĠÑģÐ¿ÐµÑĨÐ¸Ð°Ð»ÑĮ": 2385,
      "ÑħÐ¾Ð´Ð°": 2386,
      "ent": 2387,
      "ĠÐ»Ð¸ÑĨ": 2388,
      "Â»).": 2389,
      "ĠÐ°Ð¼ÐµÑĢÐ¸ÐºÐ°Ð½ÑģÐºÐ¸Ð¹": 2390,
      "ĠÐ²Ð¾Ð·Ð²": 2391,
      "ĠÐ¼ÐµÑĤÐ°Ð»": 2392,
      "ĠÐĳÐ¾Ð³": 2393,
      "25": 2394,
      "ing": 2395,
      "ĠÑįÑĤÐ°": 2396,
      "ĠÐ½ÐµÐ²": 2397,
      "ĠÐ·Ð°Ñı": 2398,
      "ĠÐ±Ð¸": 2399,
      "ĠÐ±ÑĥÐ´ÐµÑĤ": 2400,
      "ĠÑģÑĤÐ°Ð½Ð¾Ð²": 2401,
      "ĠÐ½Ð°ÑĩÐ°Ð»": 2402,
      "ĠÐ¿ÑĥÐ±Ð»Ð¸": 2403,
      "ĠÐ¾Ð±Ð¾Ð·": 2404,
      "ĠÐºÐ»Ð°ÑģÑģÐ¸": 2405,
      "ĠÐ°ÑĢÑħÐ¸ÑĤÐµÐº": 2406,
      "ĠÐ²ÐµÑīÐµ": 2407,
      "ÐºÐ¸Ðµ": 2408,
      "ÑĤÑĥÑĢÐµ": 2409,
      "ĠÑģÑĤÐ°ÑĤÑĮ": 2410,
      "ĠÑĢÐ°Ð±": 2411,
      "ĠÑħÐ°ÑĢÐ°ÐºÑĤÐµÑĢ": 2412,
      "ÑıÐµÑĤ": 2413,
      "Ð¾Ð¿Ð¸Ñģ": 2414,
      "ĠÑģÐ²Ð¾Ð±Ð¾Ð´": 2415,
      "ĠÐľÐ¾ÑģÐºÐ¾Ð²": 2416,
      "ĠÑĦÐ¾ÑĤ": 2417,
      "ĠÐºÑĥÑĢ": 2418,
      "ĠÐ¿ÑĢÐ¾Ð±Ð»ÐµÐ¼": 2419,
      "ÐŁÐµÑĤ": 2420,
      "Ð²Ð°ÑĢ": 2421,
      "ÑģÑĤÐ²ÐµÐ½Ð½ÑĭÐµ": 2422,
      "ĠÐ¿ÑĢÐ¾ÑģÑĤÑĢÐ°Ð½": 2423,
      "Ð¾ÑĨÐ¸": 2424,
      "ĠÑģÑĤÐ°Ð»Ð°": 2425,
      "ĠÐ°ÑĢÐ¼Ð¸Ð¸": 2426,
      "Ð°ÑĤÑĢÐ¸": 2427,
      "ĠÑĥÐºÐ°Ð·": 2428,
      "ÑĢÐ¾Ð¿ÐµÐ¹": 2429,
      "ĠÐĿÐ¸ÐºÐ¾Ð»": 2430,
      "ÑĥÑĢÐ¸": 2431,
      "ĠÐ·Ð°ÐºÐ»ÑİÑĩ": 2432,
      "196": 2433,
      "ÐŀÑģ": 2434,
      "Ð°ÑĤÐ¾Ñĩ": 2435,
      "Ð¸ÑĤÑĥÑĤ": 2436,
      "ÐµÐ½Ð¸ÑıÑħ": 2437,
      "Ð¸ÑĨÐ¸Ð¸": 2438,
      "Ð°ÑĤÐµÐ³Ð¾": 2439,
      "ĠÐ½Ð°ÑħÐ¾Ð´Ð¸ÑĤÑģÑı": 2440,
      "ĠÐ¿ÑĢÐ¸Ð¼ÐµÑĢ": 2441,
      "ĠÐ±Ð»Ð°": 2442,
      "ÑĢÐ¾Ð±": 2443,
      "ĠÑıÐ·ÑĭÐºÐµ": 2444,
      "ĠÐ¼Ð¸ÑĢÐµ": 2445,
      "ĠÐ°ÑĢÑĤÐ¸": 2446,
      "Ð½Ñİ": 2447,
      "ÑĥÐ½Ð´": 2448,
      "ĠÐľÐ°ÑĢÐ¸": 2449,
      "Ġ23": 2450,
      "Ð¸Ð¾Ð½": 2451,
      "Ð³Ð¸Ð¿": 2452,
      "ĠÐ¾ÑĤÐºÑĢÑĭÑĤ": 2453,
      "ĠÐ²Ð¼ÐµÑģÑĤÐµ": 2454,
      "Ð·Ð¼Ð°": 2455,
      "Ð¸Ð½Ð°Ð¼Ð¸": 2456,
      "ĠK": 2457,
      "Ð½Ð¾Ð´": 2458,
      "ĠÐ¤ÑĢÐ°Ð½ÑĨÐ¸Ð¸": 2459,
      "ĠÐ»ÐµÑģ": 2460,
      "Ð¾Ð»ÑĮÐºÑĥ": 2461,
      "ĠÑĨÐµÑĢÐºÐ¾Ð²": 2462,
      "ĠÑģÐ¸Ð¼Ð²Ð¾Ð»": 2463,
      "um": 2464,
      "ĠÐ¦ÐµÐ½ÑĤ": 2465,
      "ĠÐ¿ÑĢÐ¾Ð´Ñĥ": 2466,
      "ĠÐ²ÑģÑĳ": 2467,
      "ÑıÑĤÐ¸Ñı": 2468,
      "ÐµÐ½Ð³": 2469,
      "Ð¸ÑĤÐ°Ð¹": 2470,
      "ĠÐ»ÐµÐ³": 2471,
      "ĠÐ½Ð¸Ðº": 2472,
      "Ð½Ð¾Ðº": 2473,
      "ĠÐ²Ð·Ð°Ð¸Ð¼": 2474,
      "ÑĢÐ¾ÑģÑĤ": 2475,
      "ĠÐ½ÐµÑģ": 2476,
      "ĠÐ¿ÐµÑĢÐµÐ²Ð¾Ð´": 2477,
      "ÑģÑĤÐ¸ÑĤÑĥÑĤ": 2478,
      "Ð»Ð¾Ðº": 2479,
      "Ð¼ÐµÑģÑĤ": 2480,
      "ÐµÑĩÐ°ÑĤ": 2481,
      "ĠÐĵÐµÑĢÐ¼Ð°Ð½Ð¸Ð¸": 2482,
      "ĠÑĢÐ°ÑģÑĤ": 2483,
      "ĠÐ´Ð°Ð»ÑĮ": 2484,
      "ĠÐĲÐ½Ð³": 2485,
      "ÐµÐ½Ð½Ð¾Ð³Ð¾": 2486,
      "ĠÐ¸Ð³ÑĢÐ°": 2487,
      "ĠÐ¼ÑĥÐ¶": 2488,
      "ĠÐ¾ÑĩÐµ": 2489,
      "ĠÐ»ÑĥÑĩ": 2490,
      "ĠÐ²ÑĭÑĢÐ°Ð¶": 2491,
      "ĠÑĥÐ½Ð¸Ð²ÐµÑĢÑģÐ¸ÑĤÐµÑĤ": 2492,
      "Ġ2010": 2493,
      "ĠÑĩÐ°ÑģÑĤÐ½Ð¾ÑģÑĤÐ¸": 2494,
      "ĠÐºÐ¾ÑĢÐ°": 2495,
      "ĠÐºÐ¾ÑĤÐ¾ÑĢÐ¾Ðµ": 2496,
      "ĠÑģÐ¾Ñģ": 2497,
      "ĠÐ²ÑĭÑĪ": 2498,
      "ĠÑĢÐ°Ð¹Ð¾Ð½Ðµ": 2499,
      "ĠÐ¸Ð½Ð´": 2500,
      "ÑıÐ²Ð»Ñı": 2501,
      "Ð»ÑĥÑĩ": 2502,
      "ĠÐ»ÑİÐ´ÐµÐ¹": 2503,
      "ĠÐ½ÐµÐºÐ¾ÑĤÐ¾ÑĢÑĭÑħ": 2504,
      "ĠÐ¼Ð°ÑĤÐµÐ¼Ð°ÑĤ": 2505,
      "ĠÐĴÐµÑĢÑħ": 2506,
      "ĠÐ·Ð½Ð°ÑĩÐ¸ÑĤÐµÐ»ÑĮ": 2507,
      "ĠÐ¤ÐµÐ´ÐµÑĢÐ°ÑĨÐ¸Ð¸": 2508,
      "Ð¸ÑĨÑĭ": 2509,
      "ĠÑĨÐ°ÑĢ": 2510,
      "ĠÐºÐ¾Ð¼Ð¿Ð¾Ð·": 2511,
      "ĠÐ±ÑĭÐ²": 2512,
      "Ð°ÑĤÐµÑĢÐ¸": 2513,
      "ĠÐ´ÐµÐ¼": 2514,
      "ĠIII": 2515,
      "ĠJ": 2516,
      "ÐµÐ¹Ð½": 2517,
      "ĠÐĿÐ°Ð¿": 2518,
      "ĠÑĦÐ¾Ð½": 2519,
      "ĠÐ¿Ð¾ÑģÑĤÐ¾ÑıÐ½": 2520,
      "ĠÐ¼ÐµÑħÐ°Ð½Ð¸": 2521,
      "ĠÐ½Ð°ÑĩÐ°Ð»Ð°": 2522,
      "ĠÑįÐ½ÐµÑĢÐ³": 2523,
      "ĠÐ½Ð¾Ñģ": 2524,
      "ĠÐ²ÑĤÐ¾ÑĢÐ¾Ð¹": 2525,
      "ĠÐļÐ°Ð·": 2526,
      "ĠÐ¾ÐºÑĢÑĥÐ¶": 2527,
      "ĠÑıÐ²": 2528,
      "ĠÑĦÑĥÑĤ": 2529,
      "Ð½Ð¾ÑģÑĤÐµÐ¹": 2530,
      "Ð¸Ð½ÑģÐºÐ¾Ð¹": 2531,
      "ÐºÐ¾ÑĢ": 2532,
      "ĠÑģÐ¼ÐµÑĢÑĤÐ¸": 2533,
      "ĠÐ½Ð¾ÑĢ": 2534,
      "ĠÐ¿ÑĢÐ¾Ð²ÐµÐ´": 2535,
      "ĠÐ¾ÑĤÐ¿ÑĢÐ°Ð²": 2536,
      "Ð°ÑĤÐµÐ»ÑĮÐ½Ð¾": 2537,
      "ĠÐ¿Ð°ÑĢÑĤÐ¸Ð¸": 2538,
      "ĠÑĩÐ°Ñģ": 2539,
      "ĠÐºÐ¾Ð»Ð¸ÑĩÐµÑģÑĤÐ²Ð¾": 2540,
      "Ð°Ð¼Ð±": 2541,
      "ĠÐºÑĥÐ»ÑĮÑĤÑĥÑĢÑĭ": 2542,
      "ĠÐ³ÑĢÐµ": 2543,
      "ÐµÑĢÐ¾Ð¼": 2544,
      "ĠÑĥÐ·": 2545,
      "ĠÐ¾Ð³ÑĢÐ°Ð½Ð¸Ñĩ": 2546,
      "ĠU": 2547,
      "ĠÐ¡ÐµÑĢÐ³": 2548,
      "ac": 2549,
      "Ð¾ÑĢÐ³": 2550,
      "ÐµÐ½ÑĤÐ¾Ð²": 2551,
      "ĠÑĥÐºÑĢÐ°": 2552,
      "ĠÐ¾Ð´Ð½Ð¸Ð¼": 2553,
      "ÑģÐºÐ°Ð·": 2554,
      "ĠÐ²Ð¾Ð·Ð½Ð¸Ðº": 2555,
      "Ð°Ð½Ð½Ð¾Ð¹": 2556,
      "Ġ26": 2557,
      "ĠÐ½Ð¸Ð·": 2558,
      "ĠÐ¸Ð¼Ð¿ÐµÑĢÐ°ÑĤÐ¾ÑĢ": 2559,
      "ĠÑģÐ¾ÑħÑĢÐ°Ð½": 2560,
      "ĠÑĤÑĭÑģ": 2561,
      "Ð°Ð»Ð¸ÑģÑĤ": 2562,
      "ĠÐ²ÑĢÐ°": 2563,
      "ĠÐ¾ÑĤÐ´ÐµÐ»": 2564,
      "ĠÐŁÐ°Ð²": 2565,
      "ĠÐ¿ÑĢÑıÐ¼": 2566,
      "ĠÐ·Ð½Ð°Ðº": 2567,
      "ĠÐºÐ»Ð°ÑģÑģ": 2568,
      "24": 2569,
      "ĠÑĢÐ¾Ð»ÑĮ": 2570,
      "ÑģÑĤÑĢÑĥÐº": 2571,
      "Ġ28": 2572,
      "ĠÑĢÐ¸Ð¼": 2573,
      "ĠÐ¸Ð¼ÐµÑİÑĤ": 2574,
      "Ð¸Ð»Ð»Ð¸": 2575,
      "Ð¼Ð»Ð½": 2576,
      "ÐĺÑģÑĤÐ¾ÑĢÐ¸Ñı": 2577,
      "Ð¾Ð²ÐµÐ´": 2578,
      "Ð¸Ð½ÑģÐºÐ¾Ð³Ð¾": 2579,
      "ĠÑĥÑģÐ»Ð¾Ð²Ð¸Ñı": 2580,
      "Ð¾Ð²ÑĭÑħ": 2581,
      "ĠÐ¿ÑĢÐ¾ÑĨÐµÑģ": 2582,
      "Ð°ÑĨÐ¸Ñı": 2583,
      "ĠIS": 2584,
      "ĠÐ¢Ð°ÐºÐ¶Ðµ": 2585,
      "Ð¶Ð¸": 2586,
      "ĠÑĢÐ°Ð·Ð²Ð¸ÑĤÐ¸Ñı": 2587,
      "Ġ27": 2588,
      "Ð½Ð´": 2589,
      "ĠÐºÐ°Ð¿": 2590,
      "Ð¼ÐµÑī": 2591,
      "ĠÑģÐ¾Ð³": 2592,
      "ĠÐĺÑģÐ¿": 2593,
      "Ð¾ÑĤÑĭ": 2594,
      "ĠÐ´Ð¾Ð³Ð¾Ð²": 2595,
      "ĠĊĠĊĠĊĠĊ": 2596,
      "Ð¾Ð»Ð½Ð¸ÑĤÐµÐ»ÑĮ": 2597,
      "ĠÐ·Ð°Ð»": 2598,
      "ÑĢÐ°ÑĤÐ¸": 2599,
      "ĠÑĥÐ½Ð¸Ð²ÐµÑĢÑģÐ¸ÑĤÐµÑĤÐ°": 2600,
      "ĠÐ¿Ð¾ÑĩÑĤÐ¸": 2601,
      "ÑĢÐ¸Ð³": 2602,
      "ĠÐ±Ð¾Ð»ÑĮÑĪÐµ": 2603,
      "Ð¾Ð¼ÐµÑĤ": 2604,
      "ÑĳÑĤÑģÑı": 2605,
      "Ð°Ð²ÑĪÐ¸Ð¹": 2606,
      "ÑĤÐ¸ÑĢÐ¾Ð²": 2607,
      "ĠÐ¸ÑģÐºÐ»ÑİÑĩ": 2608,
      "Ð°Ð½Ðº": 2609,
      "Ġc": 2610,
      "ĠÐ·Ð°Ñģ": 2611,
      "ÐµÐ»ÐµÐ½Ð¸Ðµ": 2612,
      "ÐµÐ½Ð·": 2613,
      "ĠÑħÑĢÐ¸ÑģÑĤÐ¸Ð°Ð½": 2614,
      "ÑĩÐµÐ±": 2615,
      "Ð½Ð°Ð´Ð»ÐµÐ¶": 2616,
      "ÐµÐ½Ðµ": 2617,
      "ĠÐºÐ¸Ñģ": 2618,
      "ĠÐ¿ÑĢÐ¾Ð¿": 2619,
      "ÐµÐ½Ð½Ð°Ñı": 2620,
      "Ð²Ð°Ð»": 2621,
      "ÑĩÐ½Ð¾": 2622,
      "ĠÐĽÐµ": 2623,
      "ĠÐļÐ¾Ð½ÑģÑĤ": 2624,
      "Ġ2000": 2625,
      "ĠÐ°Ð²Ð¸": 2626,
      "Ð¾ÐµÐ´Ð¸Ð½": 2627,
      "ĠÐĵÐ¾ÑģÑĥÐ´Ð°ÑĢ": 2628,
      "Ġs": 2629,
      "Ð¸ÑģÑģÑĳÑĢ": 2630,
      "ÑĮÐµÑĢ": 2631,
      "ĠÐ®Ð¶": 2632,
      "Ð²Ð°ÐµÑĤ": 2633,
      "Ð¶ÐµÐ½Ð¸Ñı": 2634,
      "ĠÑĩÐ¸ÑģÐ»Ð°": 2635,
      "ĠÐ¼ÐµÑģÑı": 2636,
      "ÑĥÑİÑĤÑģÑı": 2637,
      "ĠÑĤÐµÐ¿": 2638,
      "ÑĥÑį": 2639,
      "ĠÐ²ÑĭÐ¿": 2640,
      "ÐµÑĢÐ¸Ñı": 2641,
      "ĠÑĤÐ²Ð¾ÑĢ": 2642,
      "ĠÐ²Ð¿ÐµÑĢÐ²ÑĭÐµ": 2643,
      "ĠÐľÐ¸ÑħÐ°": 2644,
      "ÑıÐµÑĤÑģÑı": 2645,
      "ĠÑĤÐµÑĩÐµÐ½Ð¸Ðµ": 2646,
      "ĠÐ¾Ð±ÑıÐ·": 2647,
      "ĠÐ¿ÑĢÐµÐ´Ð¿Ð¾Ð»": 2648,
      "ĊĠĊ": 2649,
      "Ð½Ð°ÑĢÑĥÐ¶": 2650,
      "ÑĥÑĤÐ¸": 2651,
      "Ġ1990": 2652,
      "ĠÑĢÐµÐºÐ¸": 2653,
      "Ð°Ð½ÑģÐºÐ¾Ð¹": 2654,
      "Ð»Ð°Ð¼ÐµÐ½ÑĤ": 2655,
      "ĠÐ°ÐºÑĤÑĢÐ¸ÑģÐ°": 2656,
      "ĠÑĨÐµÐ½ÑĤÑĢ": 2657,
      "Ð¾ÑıÑĤ": 2658,
      "ĠÐ²Ð½ÑĥÑĤÑĢÐµÐ½": 2659,
      "ĠÐ±Ð»Ð¸Ð·": 2660,
      "Ð³ÑĢÐ°Ð´": 2661,
      "ĠÐĹÐµÐ¼": 2662,
      "Ð²ÑıÑī": 2663,
      "Ð°Ð»Ð¸Ð¸": 2664,
      "Ð¾Ð¶Ð´ÐµÐ½Ð¸Ðµ": 2665,
      "ĠÐ£ÐºÑĢÐ°Ð¸Ð½Ñĭ": 2666,
      "Ð¾Ð»Ð¸": 2667,
      "ĠÐ´ÑĥÑħ": 2668,
      "ĠÑĥÑĤÐ²ÐµÑĢÐ¶Ð´": 2669,
      "ĠÑģÐ¾Ð±Ñĭ": 2670,
      "ĠÐºÐ¾ÑĢÐ°Ð±": 2671,
      "Ð³Ð¸Ð¾Ð·": 2672,
      "ĠÐ¶ÐµÐ½Ñī": 2673,
      "Ġ22": 2674,
      "ÐµÑĢÐµÐ¶": 2675,
      "ĠÑħÐ¾ÑĤÑı": 2676,
      "Ġ=": 2677,
      "ĠÐ¼Ð°ÑĪ": 2678,
      "ig": 2679,
      "Ð¸ÑĩÐµÑģÐºÐ¾Ðµ": 2680,
      "ĠÐ¸Ð¼Ñı": 2681,
      "ĠÐ¿ÑĢÐ¸Ð½Ð°Ð´Ð»ÐµÐ¶": 2682,
      "ĠÑĢÑĥÐ±": 2683,
      "âĢĻ": 2684,
      "ĠÐ¾Ð´Ð½Ð¾": 2685,
      "ÑĥÑĢÑĭ": 2686,
      "ĠÐ¿ÑĢÐ¾ÑĨÐµÑģÑģ": 2687,
      "ĠÐ¡Ð¿": 2688,
      "ĠÐ²ÐµÑĤ": 2689,
      "ĠÐ½Ð°ÑĥÐº": 2690,
      "ĠÑıÐ´": 2691,
      "Ġ2008": 2692,
      "ÑģÐ¼": 2693,
      "Ð½Ð¾Ð³": 2694,
      "ĠÐĵÐµÐ½": 2695,
      "ĠÐ¸ÑģÐ¿Ð¾Ð»ÑĮÐ·ÑĥÐµÑĤÑģÑı": 2696,
      "ĠÐŁÑĢÐ°Ð²": 2697,
      "ĠÑĨÐµÑĢÐºÐ²Ð¸": 2698,
      "ÐµÐ·Ð´Ð°": 2699,
      "Ð¸Ð±Ð»Ð¸Ð¾ÑĤ": 2700,
      "ĠÐŁÐµÑĢ": 2701,
      "ĠÑħÐ¾ÑĢ": 2702,
      "ĠÑģÐ²Ð¾Ð¸": 2703,
      "ÑĢÐº": 2704,
      "ĠÐ²Ð¾ÑģÐ¿": 2705,
      "Ð½Ð¸ÑĨÑĭ": 2706,
      "ĠÐ²Ð½ÐµÑĪ": 2707,
      "id": 2708,
      "ĠÐ¾Ð±ÑĭÑĩÐ½Ð¾": 2709,
      "ĠÐĴÐ¾Ð»": 2710,
      "Ð±Ð¸": 2711,
      "Ð¼Ð¾Ñģ": 2712,
      "ĠÐ¿Ð»Ð°Ð½": 2713,
      "ĠÐºÐ»ÑĥÐ±": 2714,
      "ĠÐ°Ð³": 2715,
      "Ð¾ÑĢÐ¸ÑĤ": 2716,
      "ĠÐ·Ð°Ð±": 2717,
      "ĠÐĺÑĤ": 2718,
      "ÐºÐ°Ð·ÑĭÐ²Ð°": 2719,
      "ĠÐºÑĢÐµ": 2720,
      "ut": 2721,
      "ĠÐ¿Ð¾Ð´Ð¿Ð¸Ñģ": 2722,
      "ĠÑĢÐ°Ð·Ð»Ð¸ÑĩÐ½ÑĭÑħ": 2723,
      "ĠÐ¿Ð¾ÑĢÑıÐ´": 2724,
      "Ð°ÑĢÑĭ": 2725,
      "ĠÑĤÐ°ÐºÐ¸Ñħ": 2726,
      "BN": 2727,
      "ĠÐ·Ð°Ð¿Ð¸Ñģ": 2728,
      "Ð¸ÐµÐ¹": 2729,
      "ĠÑģÐ»Ð¾Ð²Ð°": 2730,
      "Ð»Ð°Ð²Ð°": 2731,
      "Ð¼ÐµÐ½Ð¸": 2732,
      "Ġ+": 2733,
      "Ð°ÐºÑĤ": 2734,
      "ĠÐ¶Ð¸Ð²Ð¾ÑĤ": 2735,
      "Ġ100": 2736,
      "ÐµÐ¼ÑĭÑħ": 2737,
      "ÑĢÐµÐ½Ð¸Ñı": 2738,
      "ĠÑĤÐ¾ÑĤ": 2739,
      "ĠÐ¾Ð´Ð½Ð¾Ð³Ð¾": 2740,
      "Ð¾Ð´ÐµÐ¹ÑģÑĤÐ²": 2741,
      "ĠÑİÐ¶": 2742,
      "Ð°Ñĩ": 2743,
      "Ð»ÐµÐ½Ð¸Ð¹": 2744,
      "ĠÑģÐ¸ÑģÑĤÐµÐ¼Ð°": 2745,
      "ĠÑģÑĥÐ±": 2746,
      "ÑĪÑĳÐ»": 2747,
      "Ð°Ð»Ð¸Ð½": 2748,
      "ĠÐ´ÑĢÐ°": 2749,
      "ĠÑĤÐ¾Ð½": 2750,
      "ÑĢÐµÑĪ": 2751,
      "ĠÐ·Ð°Ð½Ð¸Ð¼Ð°": 2752,
      "Ð¿Ð¾": 2753,
      "ĠÐ¾ÑĤÐ²ÐµÑĤ": 2754,
      "ÑĦÐ¸ÑĨÐ¸": 2755,
      "ĠÐ³ÑĢÐ°ÑĦ": 2756,
      "ĠÑĥÐ¼ÐµÑĢ": 2757,
      "ĠÐ²Ð¾Ðº": 2758,
      "ĠÐ»Ð¸Ð±Ð¾": 2759,
      "Ġ50": 2760,
      "ĠÑĤÐµÐ¾ÑĢÐ¸Ð¸": 2761,
      "ĠÐ¾ÑģÐ½Ð¾Ð²Ðµ": 2762,
      "ĠÐ·Ð°Ð½Ð¸Ð¼": 2763,
      "ĠÑģÑĤÑĢÐ°Ð½Ð°": 2764,
      "ĠÐ´ÐµÐ¹ÑģÑĤÐ²Ð¸Ñı": 2765,
      "ĠÐ±Ð¾ÑĢÑĮ": 2766,
      "ÑĥÐ±Ð»Ð¸ÐºÐ¾Ð²": 2767,
      "ĠÐĲÐ´": 2768,
      "ĠÐ¿ÐµÑĢÐ²Ð¾Ð¹": 2769,
      "ÑĢÐ¸Ð½": 2770,
      "Ð®": 2771,
      "Ð¾Ð½ÑĤ": 2772,
      "ĠÑĸ": 2773,
      "ĠÐ¿ÑĢÐ¾Ð¸ÑģÑħ": 2774,
      "ÑĨÐ°Ð¼Ð¸": 2775,
      "ĠÐ±Ð¾Ð»": 2776,
      "ĠÐ²Ð¾Ð·ÑĢÐ°": 2777,
      "ĠÐ¾Ð±Ð½Ð°ÑĢÑĥÐ¶": 2778,
      "ĠÐ¿ÑĢÐ¾Ð¸Ð·Ð¾ÑĪ": 2779,
      "ĠÐ¼Ð¾Ð¼ÐµÐ½ÑĤ": 2780,
      "ĠÐ¿Ð¾Ð·Ð´": 2781,
      "ĠÐĹÐ°Ð¿Ð°Ð´": 2782,
      "ia": 2783,
      "ĠÑĪÑĤ": 2784,
      "ĠÐ¾Ð¿ÑĢÐµÐ´ÐµÐ»Ñı": 2785,
      "ĠÑģÐ¾ÑİÐ·": 2786,
      "ĠÐºÐ¾ÑĢÐ¾Ð»ÐµÐ²": 2787,
      "ĠISBN": 2788,
      "Ð¾Ð»Ð¸ÑĤ": 2789,
      "ĠÐ´Ð¾ÐºÑĥÐ¼ÐµÐ½ÑĤ": 2790,
      "Ð½Ð¸ÑĨÐ¸Ð¿": 2791,
      "Ð±ÑĢÑĮ": 2792,
      "Ð°Ð½Ð½Ð°Ñı": 2793,
      "193": 2794,
      "ĠÐ¾Ð±ÑĬÑıÐ²": 2795,
      "ĠÐ½ÐµÑĤ": 2796,
      "ĠÐ¼Ð½Ð¾Ð³Ð¸Ñħ": 2797,
      "Ġ21": 2798,
      "ÑĳÑĤÐ°": 2799,
      "ĠÑģÐ¿ÐµÑĨÐ¸": 2800,
      "ĠÐ¿Ð¾ÑįÑĤ": 2801,
      "Ġ2011": 2802,
      "ĠÐ¿Ð¾Ð¼Ð¾ÑīÑĮÑİ": 2803,
      "ĠÑĥÑĩÑĢÐµÐ¶Ð´": 2804,
      "ĠÐ½Ð°Ð·ÑĭÐ²": 2805,
      "ĠÐ¿ÑĢÐ¸Ñĩ": 2806,
      "Ð¸ÑģÐº": 2807,
      "ÐºÐ¸Ð¼": 2808,
      "ĠÑħÐ¾Ð·ÑıÐ¹": 2809,
      "Ð¾ÑģÑĤÐ¾": 2810,
      "ÐµÐ½Ð¸ÑıÐ¼Ð¸": 2811,
      "ĠÐ´Ð²Ð¾ÑĢ": 2812,
      "ĠÐ°ÐºÑĤÑĳÑĢ": 2813,
      "Ð±ÑĥÑĢÐ³": 2814,
      "ĠÑĢÐµÐ°Ðº": 2815,
      "ÑĩÐµÑģÐºÐ°Ñı": 2816,
      "ĠÑģÑĥÐ¼": 2817,
      "ĠÑĤÑĥÑĢ": 2818,
      "ĠÐ²Ð»Ð°ÑģÑĤÑĮ": 2819,
      "ĠÑħÐ°ÑĢÐ°ÐºÑĤÐµÑĢÐ¸": 2820,
      "ĠÐĴÐ°Ð»": 2821,
      "ÑĢÑĥÑģ": 2822,
      "Ġ2007": 2823,
      "ĠÐĿÐ¾": 2824,
      "ÑĢÐ¾ÑĤÐ¸Ð²": 2825,
      "ĠÐ½ÐµÐ±Ð¾Ð»ÑĮÑĪ": 2826,
      "ĠÑģÐµÑĤ": 2827,
      "ĠÐ¼Ð¾Ð»Ð¾Ð´": 2828,
      "ĠÐļÐ¾Ð½ÑģÑĤÐ°Ð½ÑĤ": 2829,
      "em": 2830,
      "ĠÐĴÐ»Ð°Ð´Ð¸Ð¼Ð¸ÑĢ": 2831,
      "ĠÐ¾Ð±Ð»Ð°ÑģÑĤÑĮ": 2832,
      "ĠÐ½Ð°ÑģÑĤÐ¾ÑıÑīÐµÐµ": 2833,
      "ÑģÑĤÐ°Ð½": 2834,
      "ĠÐ¾ÑģÐ½Ð¾Ð²Ð½Ð¾Ð¼": 2835,
      "Ð»ÐµÐ½Ð¾": 2836,
      "Ð¸Ð²Ð°ÐµÑĤ": 2837,
      "ĠÐºÑĢÐµÐ¿": 2838,
      "Ġ184": 2839,
      "ĠÐ½ÐµÐºÐ¾ÑĤÐ¾ÑĢÑĭÐµ": 2840,
      "ĠÐ¼Ð°Ðº": 2841,
      "ÑĩÐµÐ²": 2842,
      "ĠÐ¾Ð±Ð»Ð°ÑģÑĤ": 2843,
      "ÐłÐ¾Ð´": 2844,
      "ÑİÑīÐ°Ñı": 2845,
      "ĠÐ¾ÑĩÐµÑĢÐµÐ´": 2846,
      "ĠÐ·Ð°Ð´Ð°": 2847,
      "ĠÐºÑĢÐ°Ñģ": 2848,
      "Ð³Ð¾Ð´Ð°ÑĢÑı": 2849,
      "Ð¾Ð¿Ð°Ñģ": 2850,
      "ĠÐ¾Ð±ÑĢÐ°Ð·Ð¾Ð²Ð°Ð½Ð¸Ñı": 2851,
      "Ġ2005": 2852,
      "ÐµÐºÑĤÐ¾Ð²": 2853,
      "ĠÐ´Ð²Ðµ": 2854,
      "ĠÐ¼ÐµÐ½ÑĮ": 2855,
      "ĠÐ¾ÑģÐ¾Ð±ÐµÐ½Ð½Ð¾": 2856,
      "ÑĩÐ½Ð¾Ð¹": 2857,
      "ĠÐ¾ÑĢÐ³Ð°Ð½Ð¸Ð·Ð°ÑĨÐ¸Ð¸": 2858,
      "ÑĳÐ´": 2859,
      "âĢľ": 2860,
      "ĠÑģÑĤÐµÐ¿ÐµÐ½Ð¸": 2861,
      "78": 2862,
      "Ġ29": 2863,
      "ÐŁÐ¾ÑģÐ»Ðµ": 2864,
      "ÑĳÐ½Ð½Ð¾Ð¹": 2865,
      "ĠÐ±ÑĢÐ¸ÑĤ": 2866,
      "ĠÐ¿ÑĢÐ¸Ð²Ð¾Ð´": 2867,
      "ĠÐ²Ð¾Ð¹ÑģÐºÐ°": 2868,
      "ÐºÐ°Ð¼": 2869,
      "Ð»ÐµÐ²": 2870,
      "ÑģÑĤÐ²Ð¸Ð¸": 2871,
      "ĠÐ¿Ð¾Ð²ÐµÑĢÑħ": 2872,
      "Ð¾Ð»Ð¾Ð´": 2873,
      "ĠÐ²Ð²ÐµÐ´": 2874,
      "ĠÐ·Ð°ÑıÐ²": 2875,
      "Ð¼Ð¾ÑĤÑĢÑı": 2876,
      "ĠÐ·Ð½": 2877,
      "Ð²ÐµÐ¹": 2878,
      "Ð½Ð¸Ð¼Ð°": 2879,
      "ÐµÐ»ÐµÐ²": 2880,
      "Ġ2009": 2881,
      "ĠÑĤÐµÑħÐ½": 2882,
      "ĠÑģÐ±Ð¾ÑĢ": 2883,
      "ĠÐ¿Ð¾ÑģÐ»ÐµÐ´Ð¾Ð²": 2884,
      "Ð¾ÑĢÑĥÑģ": 2885,
      "Ð¸Ð·Ð¼Ð°": 2886,
      "ĠÐ½Ð°Ñĥ": 2887,
      "ĠÐ²ÑģÑĤÑĥÐ¿": 2888,
      "Ð°ÑĢÐº": 2889,
      "Ð²ÑĳÑĢ": 2890,
      "ĠÐ¾ÑģÑĥÑīÐµÑģÑĤÐ²Ð»Ñı": 2891,
      "ĠÐ¼Ð½Ð¾Ð³Ð¸Ðµ": 2892,
      "ĠÐ¶ÑĥÑĢÐ½Ð°Ð»": 2893,
      "Ð½Ð¸ÐºÐ°Ð¼Ð¸": 2894,
      "ĠÑģÑĤÐ°Ð»Ð¾": 2895,
      "ÑĥÑİÑīÐ¸Ñħ": 2896,
      "ÑĪÐ¸ÑĢ": 2897,
      "Ð·Ð°ÑĨÐ¸Ð¸": 2898,
      "Â»),": 2899,
      "ĠÐ¡Ð°Ð½ÐºÑĤ": 2900,
      "ĠÐķÐ³Ð¾": 2901,
      "ir": 2902,
      "ĠÐłÐµÑģÐ¿ÑĥÐ±Ð»Ð¸ÐºÐ¸": 2903,
      "ÑĪÐµÐ¼": 2904,
      "Ð°ÑĤÐ¾Ð¼": 2905,
      "ĠÐ³Ð¸Ð¿": 2906,
      "ter": 2907,
      "ĠÐºÑĢÐ¸ÑĤÐ¸": 2908,
      "ĠÑĤÐ°ÐºÐ¸Ðµ": 2909,
      "la": 2910,
      "Ð¼ÑĭÑģ": 2911,
      "ĠÐ¿Ð»Ð°": 2912,
      "Ð°ÑģÐ¸": 2913,
      "ĠThe": 2914,
      "Ð¸ÑĩÐ°": 2915,
      "ĠÐ¾ÑĤÑģÑĥÑĤÑģÑĤÐ²": 2916,
      "ÑģÐ¾Ð½Ð°": 2917,
      "ĠÑĤÐµÐ°ÑĤÑĢÐ°": 2918,
      "ĠÑģÑĤÐ¸Ñħ": 2919,
      "28": 2920,
      "ĠÐ°ÑģÑĤ": 2921,
      "ĠÐ²Ð°ÑĢÐ¸": 2922,
      "ÑĪÐ»Ð¸": 2923,
      "ĠÐĴÑĭ": 2924,
      "ĠÑģÑĥÑīÐµÑģÑĤÐ²Ð¾Ð²": 2925,
      "ĠÐºÑĥÐ»ÑĮ": 2926,
      "ĠÐ¿ÑĢÐµÐºÑĢÐ°": 2927,
      "ÑħÐ°": 2928,
      "Ġ2012": 2929,
      "ĠÐ¿Ð¾Ð¿ÑĥÐ»ÑıÑĢ": 2930,
      "Ð¾ÑĢÐ¾Ð´Ð°": 2931,
      "ĠÑģÑĤÐ°Ð²": 2932,
      "Ð²ÐµÐºÐ°": 2933,
      "ĠÑĦÐ¸Ð»ÑĮÐ¼": 2934,
      "Ð»Ð¸Ð¼Ð¿": 2935,
      "Ð²ÐµÑģÑĤÐ¸": 2936,
      "ĠÐ´Ð°Ð½Ð½ÑĭÐ¼": 2937,
      "ÑĢÐ°Ð³": 2938,
      "ÑıÐ»": 2939,
      "ÑıÑĤÐ¸Ðµ": 2940,
      "ĠÑĢÐ°Ð±Ð¾Ñĩ": 2941,
      "ÑģÑĤÐ²ÐµÐ½Ð½Ð¾Ðµ": 2942,
      "ÑģÐ¾Ð¼": 2943,
      "ĠÐ½ÐµÑģÐºÐ¾Ð»ÑĮ": 2944,
      "ĠÐ²ÑĭÐ±Ð¾ÑĢ": 2945,
      "Ð°Ð»ÑĮÑıÐ½": 2946,
      "Ð¾Ð±ÑĢÐ¸ÑĤ": 2947,
      "ĠÐ·Ð°Ð´": 2948,
      "Ð²Ð°ÐµÑĤÑģÑı": 2949,
      "ĠÐ¾Ð¿ÑĥÐ±Ð»Ð¸ÐºÐ¾Ð²": 2950,
      "ÑĩÐ¸Ðº": 2951,
      "Ð¾Ð¼Ð¸Ð½Ð°": 2952,
      "ĠÑģÐ¾ÑģÑĤÐ°Ð²Ðµ": 2953,
      "ĠÑĦÐ¾ÑĢÐ¼Ñĥ": 2954,
      "Ð¿Ð¸ÑģÐºÐ¾Ð¿": 2955,
      "Ð¾Ð¿ÑĢÐ¸": 2956,
      "Ġ2006": 2957,
      "ÑĥÐºÐ¾Ð²": 2958,
      "ĠÐ·Ð½Ð°ÑĩÐµÐ½Ð¸Ðµ": 2959,
      "ĠÐ¡Ð²ÑıÑĤ": 2960,
      "ĠÐĿÐµ": 2961,
      "ÑĪÑĤ": 2962,
      "ĠÑĩÐµÐ³Ð¾": 2963,
      "ĠÐŀÑģÐ½Ð¾Ð²": 2964,
      "ĠÐ¿Ð¾Ð»Ñı": 2965,
      "ĠÐ²ÑĭÑħÐ¾Ð´": 2966,
      "ĠÐĺÐ²Ð°Ð½Ð¾Ð²": 2967,
      "ĠÐłÐ¡": 2968,
      "ĠÑģÐµÑĢÐµÐ´": 2969,
      "ĠÐ´ÐµÐ¿ÑĥÑĤ": 2970,
      "ĠÐ½ÐµÑĦ": 2971,
      "ÑģÑĤÐ²Ð¸Ðµ": 2972,
      "Ð¾ÑģÐ¾Ð²": 2973,
      "Ġ2004": 2974,
      "Ð±Ð¾Ð¼": 2975,
      "ÑģÑĤÐ¾Ð²": 2976,
      "ĠÑħÐ¾Ð´Ðµ": 2977,
      "ĠÑĢÐ°ÑģÑģÐ¼Ð°ÑĤÑĢÐ¸": 2978,
      "Ð¾Ð³ÑĢÐ°ÑĦÐ¸Ð¸": 2979,
      "ÑĢÐ¾ÑĦ": 2980,
      "ÑĢÐ¾Ð³": 2981,
      "ĠÐ²ÐµÑģ": 2982,
      "ĠÐ¼Ð¸Ðº": 2983,
      "ĠÑĤÐµÑĢÐ¼Ð¸Ð½": 2984,
      "ĠÑĤÑĢÑĥÐ´": 2985,
      "ĠÐ·Ð¾Ð»Ð¾ÑĤ": 2986,
      "Ð¾Ð½Ð°Ñĩ": 2987,
      "Ð½Ð¾Ñģ": 2988,
      "ĠÐºÐ¾Ð½Ðº": 2989,
      "ĠÐļÑĢÐ¾Ð¼Ðµ": 2990,
      "Ð¸Ð¶": 2991,
      "ĠÐ¡Ð¾Ð²ÐµÑĤÐ°": 2992,
      "ĠÑĦÐ¾ÑĢÐ¼": 2993,
      "ĠâĢŀ": 2994,
      "ÐµÑĢÐ¸Ð¹": 2995,
      "27": 2996,
      "iv": 2997,
      "ĠÐ´Ð²Ð¸Ð¶ÐµÐ½Ð¸Ñı": 2998,
      "ĠÐ¿Ð»Ð°ÑĤ": 2999,
      "ĠÐ³Ð»ÑĥÐ±": 3000,
      "Ð°Ð¹ÑĤ": 3001,
      "195": 3002,
      "ĠÑģÐºÐ°Ð·": 3003,
      "ÑĪÐ¸ÐµÑģÑı": 3004,
      "Ð¾Ð¸ÑĤ": 3005,
      "ĠÐ¼Ð¸Ð½Ð¸ÑģÑĤ": 3006,
      "ĠÐ¿Ð¾Ð»Ð½Ð¾ÑģÑĤÑĮÑİ": 3007,
      "Ð¾Ð»Ðµ": 3008,
      "ĠÑģÐ»Ð°Ð²": 3009,
      "Ð½Ð¾ÑĪ": 3010,
      "im": 3011,
      "ĠÐ¼Ð¾Ñī": 3012,
      "Ð¶Ð°": 3013,
      "ĠÐ¿Ð¾Ð´Ð³Ð¾ÑĤÐ¾Ð²": 3014,
      "ĠÑĤÐ¾Ð³Ð´Ð°": 3015,
      "ĠÐ¿Ð¾Ð¿ÑĭÑĤ": 3016,
      "ĠÐ¢Ð¾Ð¼": 3017,
      "ĠÑĦÐµÐ´ÐµÑĢÐ°": 3018,
      "ĠÐ¿ÑĢÐ°Ð²Ð°": 3019,
      "Ð·Ð°Ð¿": 3020,
      "ĠÐĵÐµ": 3021,
      "ÑİÑīÐµÐµ": 3022,
      "ĠÐ¼Ð¸Ð»Ð»Ð¸": 3023,
      "ĠÐ¾ÑĤÐºÐ°Ð·": 3024,
      "ĠÐľÐ°Ð»": 3025,
      "ĠÐºÑĢÑĥÐ¿Ð½ÐµÐ¹": 3026,
      "ĠÑĨÐµÐ½ÑĤÑĢÐ°Ð»ÑĮ": 3027,
      "ĠÐ¸Ð½ÑĤÐµÑĢÐµ": 3028,
      "ĠÑĢÐµÐ°Ð»Ð¸Ð·": 3029,
      "ÑĢÐ°Ñħ": 3030,
      "ĠÐ´ÐµÑıÑĤÐµÐ»ÑĮÐ½Ð¾ÑģÑĤÐ¸": 3031,
      "Ð½Ð¾Ð´Ð¾ÑĢÐ¾Ð¶": 3032,
      "Ð°Ð»Ð¸ÑģÑĤÐ¸ÑĩÐµ": 3033,
      "ĠÐŁÑĢÐµÐ´": 3034,
      "ĠÐ²ÐµÑĢÑħ": 3035,
      "Ð¾ÑĤÑĢÐµÐ±": 3036,
      "ĠÐ¿ÑĢÐ¾ÑħÐ¾Ð´": 3037,
      "Â»;": 3038,
      "ĠÐ²ÐµÐºÐµ": 3039,
      "ĠÐ³ÐµÐ½ÐµÑĢÐ°Ð»": 3040,
      "Ð¸Ð»Ñı": 3041,
      "Ð³Ð¸Ð¸": 3042,
      "ĠÑģÐ¾ÑĤÑĢÑĥÐ´": 3043,
      "Ð°ÑģÑģÐ°": 3044,
      "ĠÐľÐ¾ÑģÐºÐ²Ðµ": 3045,
      "ĠÑģÑĥ": 3046,
      "ĠÑģÑĨÐµÐ½": 3047,
      "ÑĳÐ½Ð½Ð¾Ð³Ð¾": 3048,
      "ĠÐŀÐŀ": 3049,
      "Ð´Ð°ÐµÑĤ": 3050,
      "ĠÐĹÐ°": 3051,
      "ĠÐ¡Ð¾ÑİÐ·Ð°": 3052,
      "ÑĥÐ½ÐºÑĤ": 3053,
      "ĠÐ´ÑĢÑĥÐ³Ð¾Ð¹": 3054,
      "ation": 3055,
      "ĠÐ¿Ð¾ÑģÑĤÐ°Ð²": 3056,
      "Ð»Ð¸Ð¶": 3057,
      "ĠÐľÐµÐ¶Ð´": 3058,
      "ĠÐ²Ð¾Ð¹Ð½Ð°": 3059,
      "ot": 3060,
      "ÑĢÐ¾Ñĩ": 3061,
      "Ð¿ÑĢÐ¸Ð¼ÐµÑĢ": 3062,
      "ĠÑĤÐ¸Ð¿Ð°": 3063,
      "ÑĢÑıÐ´": 3064,
      "ĠÑģÑĢÐ°Ð²Ð½": 3065,
      "Ġ2014": 3066,
      "Ð¾ÑģÐ»ÐµÐ´ÑģÑĤÐ²Ð¸Ð¸": 3067,
      "ĠÐ¾Ð±Ð¾ÑĢ": 3068,
      "Ð°Ð½ÑģÐºÐ¾Ð³Ð¾": 3069,
      "ÑĩÐ¸ÑģÐ»ÐµÐ½": 3070,
      "26": 3071,
      "ec": 3072,
      "ĠÐ±ÑĥÐº": 3073,
      "ĠÐ°ÑĤÐ¾Ð¼": 3074,
      "ĠÑģÐ²ÑıÑĤ": 3075,
      "ĠÑģÑĤÑĢÐµ": 3076,
      "ÐĺÐ·": 3077,
      "Ð°ÑİÑīÐ¸Ñħ": 3078,
      "ĠÐ¿Ð¾ÑģÐº": 3079,
      "Ð³Ð»Ð°Ð²": 3080,
      "ĠÐ±Ð¾Ð»ÑĮ": 3081,
      "ĠÑĥÐ»Ð¸ÑĨÐ°": 3082,
      "ĠÑįÐ¿Ð¾Ñħ": 3083,
      "ĠÑģÐ²Ð¾Ñĳ": 3084,
      "ĠÐĳÐµÑĢ": 3085,
      "ad": 3086,
      "ĠÐ°Ð²ÑĤÐ¾Ð¼Ð¾Ð±": 3087,
      "ÐµÐ½Ð¸ÑĤ": 3088,
      "Ñµ": 3089,
      "ÐµÐ½Ð½Ð¾Ðµ": 3090,
      "ÑİÑīÐµÐ¹": 3091,
      "ĠÐ¿Ð¾ÑģÑĳÐ»": 3092,
      "ĠÐ²Ð¾ÑģÑģÑĤÐ°Ð½Ð¾Ð²": 3093,
      "ĠÑįÐ»ÐµÐºÑĤÑĢÐ¾Ð½": 3094,
      "Ġ40": 3095,
      "ĠÐ½Ð°Ð·ÑĭÐ²Ð°ÐµÐ¼": 3096,
      "ĠÐ¸Ð½ÑģÑĤÐ¸ÑĤÑĥÑĤ": 3097,
      "ĠÐ²Ð¾ÑģÑĤÐ¾Ñĩ": 3098,
      "Ð°Ð´Ñĭ": 3099,
      "ĠÐºÐ¾Ð¼Ð¿ÑĮÑİÑĤ": 3100,
      "Ð¾Ð²ÑĭÐµ": 3101,
      "ĠÑĩÐµÑģÑĤÑĮ": 3102,
      "ĠÑĨÐ²ÐµÑĤ": 3103,
      "ĠÑģÑĬ": 3104,
      "ĠÐ½Ð°ÑģÐ»ÐµÐ´": 3105,
      "ĠÐ¿Ð¾ÑģÐºÐ¾Ð»ÑĮÐºÑĥ": 3106,
      "Ð¼Ð¾": 3107,
      "ĠÑģÐ¼Ðµ": 3108,
      "Ð±Ð¸Ð½": 3109,
      "ÐºÑģ": 3110,
      "ĠÐłÐ°Ð·": 3111,
      "ĠÐºÑĢÐ¾Ð²": 3112,
      "ĠÐ²ÐºÐ»Ñİ": 3113,
      "ÑĥÐ³Ð¾Ð»ÑĮ": 3114,
      "ĠÐ´Ð°Ð»": 3115,
      "Ġ185": 3116,
      "ĠÐ¿Ð°ÑĢÐ»Ð°Ð¼ÐµÐ½ÑĤ": 3117,
      "ÐµÑĤÐµ": 3118,
      "ĠÐ¿ÑĢÐ¾Ð¸ÑģÑħÐ¾Ð´Ð¸ÑĤ": 3119,
      "ĠÐ±Ð°Ð»": 3120,
      "Ġm": 3121,
      "ĠÑĨÐµÐ»ÑĮ": 3122,
      "ĠÐ¼Ð¾Ð½Ð°": 3123,
      "29": 3124,
      "ĠÑģÐ¾ÑħÑĢÐ°Ð½Ð¸": 3125,
      "Ð¾ÑģÐ»Ð¾Ð²": 3126,
      "Ð±Ð¸ÑĤ": 3127,
      "Ð°Ð²ÑĪÐ¸Ñħ": 3128,
      "ĠÑĢÐµÐ»Ð¸Ð³Ð¸Ð¾Ð·": 3129,
      "ÑĢÐ¾Ð¸Ð·": 3130,
      "ĠÐ²Ð¾Ð´Ñĭ": 3131,
      "ĠÐ¿Ð»ÐµÐ¼": 3132,
      "ĠÐºÐ¾Ð½ÑĦ": 3133,
      "ÑĢÑİ": 3134,
      "Ð¾ÑĩÑĮ": 3135,
      "ĠÐ¿ÑĢÐµÐ´ÑģÐµÐ´": 3136,
      "ĠÑĦÐ¸Ð½Ð°Ð½": 3137,
      "ĠÐ·Ð°Ð²ÐµÑĢÑĪ": 3138,
      "ĠÑĦÑĢÐ°Ð½ÑĨÑĥÐ·ÑģÐºÐ¸Ð¹": 3139,
      "Ð»Ð¸ÑĤÐµÐ»ÑĮ": 3140,
      "ĠÑģÐ½Ð¸": 3141,
      "ĠÐ´Ð¾ÑģÑĤÐ¸Ð³": 3142,
      "ĠÐ¸ÑģÑģÐ»ÐµÐ´Ð¾Ð²Ð°Ð½Ð¸Ñı": 3143,
      "ÂŃ": 3144,
      "ĠÐ±Ð¸Ð±Ð»Ð¸Ð¾ÑĤ": 3145,
      "ĠÐĴÐµÑĢÑħÐ¾Ð²": 3146,
      "ÑĢÐ¸ÑĨ": 3147,
      "os": 3148,
      "ĠÐ°Ð´Ð¼Ð¸Ð½Ð¸ÑģÑĤÑĢÐ°ÑĤÐ¸Ð²": 3149,
      "ĠÐ°Ð¿": 3150,
      "ĠÐºÐ¾Ð¼Ð¿Ð¾Ð·Ð¸ÑĤ": 3151,
      "ĠÑĤÐ°Ð¼": 3152,
      "ĠÑĥÑģÑĤÑĢÐ¾Ð¹": 3153,
      "Ð»Ð¸Ð¼Ð¿Ð¸Ð¹": 3154,
      "ĠÐµÐ²ÑĢÐ¾Ð¿ÐµÐ¹": 3155,
      "Ð¸ÑĤÐµÐ»ÐµÐ¼": 3156,
      "ĠÑĤÑıÐ¶": 3157,
      "40": 3158,
      "ÐµÐ²Ð¾Ð¹": 3159,
      "ĠÐĺÑģÑĤ": 3160,
      "ÑĢÐ´": 3161,
      "ÑģÑĤÐ²ÐµÐ½Ð½ÑĭÐ¼": 3162,
      "ĠÐ½Ð°ÑĩÐ¸Ð½Ð°": 3163,
      "ĠÐ¿Ð¾ÑĤÑĢÐµÐ±": 3164,
      "ĠÐ½Ð°Ð±Ð»ÑİÐ´": 3165,
      "ĠÐ¿Ð¾Ð´Ð¾Ð±": 3166,
      "ĠÐĴÐµÐ»Ð¸ÐºÐ¾Ð±ÑĢÐ¸ÑĤ": 3167,
      "Ð°ÑĨÐ¸Ð¾Ð½": 3168,
      "Ð¾Ð·Ð¼Ð¾Ð¶": 3169,
      "Ð¸Ð¼Ð¾": 3170,
      "ĠÑģÐµÐ±Ðµ": 3171,
      "ĠIn": 3172,
      "ĠÑĢÐµÐ³Ñĥ": 3173,
      "Ð¤Ð¡Ðł": 3174,
      "ĠÐ·Ð°Ð²Ð¸ÑģÐ¸Ð¼": 3175,
      "ĠÐ³Ð¾ÑģÑĥÐ´Ð°ÑĢÑģÑĤÐ²ÐµÐ½Ð½ÑĭÐ¹": 3176,
      "ÑİÑīÐµÐ³Ð¾": 3177,
      "ĠÐ¿ÑĢÐ¸Ð½ÑĨÐ¸Ð¿": 3178,
      "ĠÐ¿ÑĥÐ½ÐºÑĤ": 3179,
      "ĠÐ²ÐµÐ»Ð¸Ñĩ": 3180,
      "ĠÐ³ÑĢÐ°Ð½Ð¸ÑĨ": 3181,
      "Ð¿Ð°ÑĢÐ°": 3182,
      "ĠÐ²Ð¾Ð¾ÑĢÑĥÐ¶": 3183,
      "ÐŁÐµÑĤÐµÑĢÐ±ÑĥÑĢÐ³": 3184,
      "ĠÐ¾ÑģÐ²": 3185,
      "Ð»Ð¸ÑĢÐ¾Ð²": 3186,
      "ĠÑĢÑı": 3187,
      "ĠÐºÑĢÐ°Ð¹": 3188,
      "ÑģÑĤÐ²ÐµÐ½Ð½Ð°Ñı": 3189,
      "ĠÑģÑĩÑĳÑĤ": 3190,
      "ĠÐ¿ÑĢÐ¾Ñģ": 3191,
      "ĠÐ¿ÑĢÐµÐ¼Ð¸Ð¸": 3192,
      "Ð»Ð»": 3193,
      "ĠÐłÐ°": 3194,
      "ĠÐ°Ð¿Ð¿": 3195,
      "ĠÐ¾Ð±ÑĢÐ°Ñī": 3196,
      "ĠÐłÑĥ": 3197,
      "ĠÐ¿Ð¾ÑįÑĤÐ¾Ð¼Ñĥ": 3198,
      "ÐµÐ»Ðµ": 3199,
      "ĠÐ¿Ð¾Ð»ÑĮ": 3200,
      "Ð°ÑĢÐ¸Ð¸": 3201,
      "Ð°Ð´Ð¸": 3202,
      "ĠÐ»Ð¸ÑĤÐµÑĢÐ°ÑĤÑĥÑĢ": 3203,
      "ÑĤÐ¾ÑĢÐ¾Ð²": 3204,
      "ÑĤÐ¸Ðµ": 3205,
      "ĠÐ¯Ð¿Ð¾Ð½": 3206,
      "190": 3207,
      "Ð¾Ð²Ð¾Ð»ÑĮ": 3208,
      "Ð¾ÑĢÐ°Ñħ": 3209,
      "ĠÐ°Ñį": 3210,
      "ĠÑĢÐ°Ð¼": 3211,
      "ĠÐĴÐ¸Ðº": 3212,
      "ĠÐ¼ÑĥÐ½Ð¸ÑĨÐ¸Ð¿": 3213,
      "ÑĥÑİÑīÐ¸Ðµ": 3214,
      "ĠÐĽÐµÐ½Ð¸Ð½": 3215,
      "ie": 3216,
      "Ð½Ð¾ÑģÑĤÑĢÐ°Ð½": 3217,
      "ĠÐºÐ¾Ð»Ð¾Ð½": 3218,
      "ÑĮÐ¸": 3219,
      "ĠÐ½Ð¸Ð¼": 3220,
      "ÑĤÐ°Ðº": 3221,
      "ĠÐ¿Ð¾ÑģÐ²ÑıÑī": 3222,
      "ÑĤÐµÐ½": 3223,
      "ĠÐºÐ¾ÑĢÐ¿": 3224,
      "ĠÐ¼Ð½ÐµÐ½Ð¸Ñİ": 3225,
      "ĠÑĤÐµÐ»ÐµÐ²": 3226,
      "ĠÐ»Ð¸": 3227,
      "ĠÐ¾Ð±ÑīÐµÑģÑĤÐ²Ð°": 3228,
      "ĠÑħÑĥÐ´Ð¾Ð¶Ðµ": 3229,
      "Ġ2013": 3230,
      "ĠÑģÑĤÑĥÐ´": 3231,
      "ĠÐ¿ÐµÐ²": 3232,
      "ÑĩÐ½ÑĭÑħ": 3233,
      "ĠÑĤÐ¾Ð¿": 3234,
      "ĠÐŀÑĤÐµ": 3235,
      "Ð»Ð°Ð¼": 3236,
      "ĠÑģÐ¾ÑĨÐ¸": 3237,
      "ĠÐ½Ð°ÑĩÐ°Ð»Ð¾": 3238,
      "ĠÐ²ÑĭÐ·Ð²": 3239,
      "ĠÐķÐ²ÑĢÐ¾Ð¿Ñĭ": 3240,
      "ĠÐ²ÑĭÐ¿Ð¾Ð»Ð½": 3241,
      "ĠÑıÐ·ÑĭÐºÐ¾Ð²": 3242,
      "ĠÐŁÐ°ÑĢÐ¸": 3243,
      "Ð°ÑĤÐµÐ»ÐµÐ¼": 3244,
      "ĠÐ¼Ð¸ÑĢÐ¾Ð²Ð¾Ð¹": 3245,
      "ĠÐ²ÑģÐµÐ¼": 3246,
      "ĠÑĢÐ°Ð·Ð²Ð¸ÑĤÐ¸Ðµ": 3247,
      "Ð³Ð¾Ñģ": 3248,
      "ĠÑģÐ°Ð¼Ð¾": 3249,
      "Ð°ÐºÐ¾Ð½": 3250,
      "ĠÐ²Ð¾Ð·Ð´ÑĥÑħ": 3251,
      "Ġf": 3252,
      "ĠÐ±Ð¸ÑĤ": 3253,
      "Ð¾Ð»Ð°Ð³": 3254,
      "ĠÑģÑĤÐ°Ð½Ð´": 3255,
      "ĠÐ´Ð½ÐµÐ¹": 3256,
      "ĠÐºÐ¾Ð½Ñģ": 3257,
      "ÑģÑĤÑĢÐ¾Ð¹": 3258,
      "ĠÐłÐ¡Ð¤Ð¡Ðł": 3259,
      "Ð¾Ð±ÑīÐµ": 3260,
      "ĠÐºÐ¾Ð½ÑĤÑĢ": 3261,
      "ĠÐºÐ¾ÑĢÐ¾Ð»ÑĮ": 3262,
      "Ð¸Ð¼Ð°": 3263,
      "Ð·ÐµÐ¼": 3264,
      "ÐµÐ½ÐµÐ¼": 3265,
      "ĠÑĥÐ¼": 3266,
      "ĠÐ¼Ð°ÑģÑģÐ¾Ð²": 3267,
      "80": 3268,
      "ÑĤÐ¾ÑĢÑĭ": 3269,
      "Ð»Ð°Ð±": 3270,
      "ĠÐ¿ÑĢÐ¸Ð±": 3271,
      "Ġ1991": 3272,
      "ĠÐ¿ÑĢÐ°Ð²Ð¾": 3273,
      "ĠÐ¿ÐµÑĢÐµÐ²": 3274,
      "ÑĢÐ°Ð»": 3275,
      "ĠÑģÐ¸Ð»Ñĭ": 3276,
      "ĠÐ´ÐµÑĤÐµÐ¹": 3277,
      "Ð°ÑĦ": 3278,
      "ĠÐ³Ð¾Ð»Ð¾Ð²": 3279,
      "Ð¸Ð±Ð¸ÑĢ": 3280,
      "ĠÐ´Ð»Ð¸Ð½": 3281,
      "ÐµÐºÑĤÑĭ": 3282,
      "ÑĥÐ¼Ñĭ": 3283,
      "ÑģÐºÐ¾Ð²": 3284,
      "Ġ2003": 3285,
      "Ð½Ð°Ð¿ÑĢÐ¸Ð¼ÐµÑĢ": 3286,
      "ĠÑģÑĭÐ½": 3287,
      "ĠÐ¾Ð´Ð½Ð°": 3288,
      "ĠÐ¿Ð¾ÑģÐµÐ»": 3289,
      "ĠÐĶÐ¼Ð¸ÑĤ": 3290,
      "ĠÐ¿Ð¾Ð²ÑĭÑĪ": 3291,
      "Ð¾ÑĢÐ´": 3292,
      "ĠÐ¿ÑĢÐ°Ð²Ð¾ÑģÐ»Ð°Ð²": 3293,
      "Ð³Ð³": 3294,
      "ĠÐ²Ð»Ð°Ð´": 3295,
      "ĠÐ²Ð¸Ð´Ð¾Ð²": 3296,
      "ĠÐ¼Ð°ÑĢÑĪ": 3297,
      "ĠÐ¼Ð°ÑģÑĤ": 3298,
      "ÑĦÐ¾ÑĢÐ¼Ð¸ÑĢÐ¾Ð²": 3299,
      "ĠÐ¸ÑĤÐ°Ð»ÑĮÑıÐ½": 3300,
      "Ð°ÑĥÑĢÐµ": 3301,
      "Ð»ÐµÐ½Ð¸Ñİ": 3302,
      "ĠÐºÐ»Ð¸": 3303,
      "ĠÐ¼Ð¾ÑĢÑı": 3304,
      "ÑĩÐ°ÑİÑĤÑģÑı": 3305,
      "Ð°ÑĤÐ¸": 3306,
      "ÐºÑĤÐ¾ÑĢ": 3307,
      "Ð°Ð½Ð½Ð¾Ð³Ð¾": 3308,
      "%,": 3309,
      "Ð¸Ð´ÐµÑĢ": 3310,
      "Ġthe": 3311,
      "ÐµÑĢÑĮ": 3312,
      "ĠÐĴÐ¾ÑģÑĤÐ¾Ñĩ": 3313,
      "ĠÐ´Ð°Ð½Ð½ÑĭÑħ": 3314,
      "Ġ2015": 3315,
      "Ð³Ð»Ñı": 3316,
      "ÑĩÐµÑģÑĤÐ²Ð°": 3317,
      "Ð»ÐµÐºÑģÐµ": 3318,
      "Ð»ÐµÑĩ": 3319,
      "ÑĢÐ°Ð¹": 3320,
      "Ð³Ð´Ð°": 3321,
      "ÐŀÑģÐ½Ð¾Ð²": 3322,
      "ĠÑģÐ¾Ð³Ð»Ð°ÑģÐ½Ð¾": 3323,
      "ĠÐ¦ÐµÐ½ÑĤÑĢÐ°Ð»ÑĮ": 3324,
      "Ð¼ÑıÐ½": 3325,
      "Ð¾Ð±ÑĢÐµÑĤ": 3326,
      "Ð°ÐºÐ°": 3327,
      "Ð¼ÐµÐ½ÑĮ": 3328,
      "ÑĢÐ¸ÑĢÐ¾Ð²": 3329,
      "ĠÐ¿ÐµÑĢÐ²Ð¾Ð³Ð¾": 3330,
      "ĠÐ¢ÑĥÑĢ": 3331,
      "Ð¸Ð½Ð¾Ð¹": 3332,
      "ĠÐºÐ¾Ð¼Ð¿Ð»ÐµÐºÑģ": 3333,
      "Ð¾Ð·Ð³": 3334,
      "ĠÑĥÑĩÐ°ÑģÑĤÐ¸Ðµ": 3335,
      "Ð¸Ð²Ð°ÐµÑĤÑģÑı": 3336,
      "ĠÐ½ÑĳÐ¼": 3337,
      "ĠÐ¿Ð¾Ñħ": 3338,
      "ÑĨÑĥ": 3339,
      "Ġ(),": 3340,
      "ĠÐĺÐ½Ð´": 3341,
      "Ġ2020": 3342,
      "ĠÐ¶Ð¸Ð·Ð½ÑĮ": 3343,
      "ĠÐŁÑĢÐµÐ·": 3344,
      "ÐµÐ½Ð½ÑĭÐ¼": 3345,
      "ĠÐ±ÐµÑģÐ¿": 3346,
      "Ð³ÑĢÐµ": 3347,
      "ĠÐĴÑģÐµ": 3348,
      "ĠÑĪÐ°Ñħ": 3349,
      "ĠÐ½ÐµÐ¼ÐµÑĨÐºÐ¸Ð¹": 3350,
      "ĠÐ¿Ð¾Ð³Ð¸Ð±": 3351,
      "):": 3352,
      "ĠÑģÐ°Ð¼Ð¾Ð»": 3353,
      "ÐºÑĢÐµÐ¿": 3354,
      "ĠÐĺÐ¼": 3355,
      "ĠÐķÑģÐ»Ð¸": 3356,
      "ĠÐ¼ÐµÑģÑĤÐµ": 3357,
      "ĠÑĦÑĢÐ¾Ð½": 3358,
      "ĠÐ¢Ðµ": 3359,
      "Ð¶ÐµÐ½Ð¸Ðµ": 3360,
      "ÑĢÐµÐ¼ÐµÐ½Ð½Ð¾": 3361,
      "ĠÐ¿ÑĢÐ¾Ð¶": 3362,
      "ĠÐ¸Ð¼ÐµÐ½Ð½Ð¾": 3363,
      "Ð¸ÑĩÐµÑģÐºÐ¸Ð¼": 3364,
      "Ð¸Ð´ÐµÑĤ": 3365,
      "Ð±ÐµÑĢ": 3366,
      "ÑģÑĸ": 3367,
      "ĠÑģÐ¾Ðº": 3368,
      "ĠÐĶÐ¾Ð½": 3369,
      "ÑıÐ³": 3370,
      "ĠÐłÐ¤": 3371,
      "ĠÐ¿ÑĢÐ¸Ð±Ñĭ": 3372,
      "ĠÑģÑĤÑĢÐ°Ð½Ðµ": 3373,
      "ÑĢÐ¾Ð´Ð°": 3374,
      "ĠÑĪÐºÐ¾Ð»Ñĭ": 3375,
      "ĠÐ¾Ð±ÑĥÑĩ": 3376,
      "Ġ183": 3377,
      "ĠÐ´Ð°Ð»ÑĮÐ½ÐµÐ¹": 3378,
      "ĠÐ¼ÑĥÐ·ÑĭÐº": 3379,
      "Ð°Ð»ÑĮÐ½ÑĭÐ¼": 3380,
      "ĠÐ·Ð´ÐµÑģÑĮ": 3381,
      "ĠÐ¼ÐµÐ´Ð¸ÑĨ": 3382,
      "ĠÑĤÑĢÐµÑĤÑĮ": 3383,
      "ĠÐ¿ÑĢÐµÐ´ÐµÐ»": 3384,
      "ĠÑįÑĤÐ¸Ð¼": 3385,
      "ÑĩÑĤ": 3386,
      "ĠÐ¼Ð¾Ð½Ð°ÑģÑĤÑĭ": 3387,
      ".).": 3388,
      "ĠÐ¿ÑĢÐµÐ¼": 3389,
      "ĠÐ¼Ð¸ÑĦ": 3390,
      "ĠÐ¾ÑĤÐ½Ð¾ÑĪÐµÐ½Ð¸Ñı": 3391,
      "Ġ2016": 3392,
      "ÑĳÐ³": 3393,
      "ÑĥÐ¶Ð´": 3394,
      "ĠÑĤÐ°Ð½": 3395,
      "ĠÐ¿Ð¾Ð»Ñĥ": 3396,
      "ĠÑģÑħ": 3397,
      "60": 3398,
      "Ġ|": 3399,
      "ĠÑĩÐµÐ»Ð¾Ð²Ðµ": 3400,
      "ÐµÐ½Ð½Ð¾ÑģÑĤÐ¸": 3401,
      "ĠÐļÐ°Ðº": 3402,
      "ÐĴÐ¾": 3403,
      "Ð¾Ð·Ð°": 3404,
      "ĠÑģÑĥÑīÐµÑģÑĤÐ²ÑĥÐµÑĤ": 3405,
      "ÐĲÐ½": 3406,
      "ĠÐ¿Ð°Ð»": 3407,
      "ĠÑĥÐ¿ÑĢÐ°Ð²Ð»ÐµÐ½Ð¸Ñı": 3408,
      "ow": 3409,
      "ĠÐºÑĢÑĥÐ³": 3410,
      "ĠÐºÐ°ÑĢÑĤ": 3411,
      "ĠÐļÐ¸ÐµÐ²": 3412,
      "Ð¸Ð²ÑĪÐ¸Ð¹": 3413,
      "ĠÐ¾ÑĢÑĥÐ¶": 3414,
      "Ð¾ÑĤÐ²Ð¾ÑĢ": 3415,
      "ĠÐ»Ð°ÑĤ": 3416,
      "ÑıÐ±ÑĢÐµ": 3417,
      "ĠÐ·ÐµÐ¼Ð»Ð¸": 3418,
      "ĠÐ»ÐµÐº": 3419,
      "ag": 3420,
      "ĠÐ´ÐµÐ²": 3421,
      "ĠÑĤÐ¾ÑĩÐºÐ¸": 3422,
      "ÐºÐ¾Ð½Ð¾Ð¼": 3423,
      "ĠÐ½ÐµÑģÐºÐ¾Ð»ÑĮÐºÐ¸Ñħ": 3424,
      "ĠÑĢÐ¾ÑģÑĤ": 3425,
      "ĠÐĿÐ¸ÐºÐ¾Ð»Ð°Ð¹": 3426,
      "Ð¾ÑģÐºÐ¾Ð²": 3427,
      "ĠÐĺÐ²Ð°Ð½": 3428,
      "ÐŁÐµÑĢÐ²": 3429,
      "ĠÑĦÐ»Ð¾ÑĤ": 3430,
      "Ð¸ÑĩÐµÑģÐºÐ¸": 3431,
      "Ð°ÐºÑĥ": 3432,
      "ĠIV": 3433,
      "ĠÐ²Ð¾Ð·Ð²ÑĢÐ°Ñī": 3434,
      "Ð°Ð½Ð¾Ð¼": 3435,
      "ĠÑĩÐµÑĢ": 3436,
      "ÐµÑĢÐ¸Ð¼ÐµÐ½ÑĤ": 3437,
      "ĠÐºÐ¾ÑĢÐ¾Ð»Ñı": 3438,
      "ĠÐºÐ¾Ð»Ð»ÐµÐº": 3439,
      "ĠÐ¿ÑĢÐ¸ÑħÐ¾Ð´": 3440,
      "ĠÐºÐ¾ÑģÐ¼Ð¸": 3441,
      "ĠÐ¿ÐµÑĢÐµÐ½": 3442,
      "ĠÐ´Ð¾ÑģÑĤÐ°ÑĤÐ¾Ñĩ": 3443,
      "ĠÐ¿Ð¾Ð¶": 3444,
      "ĠÐĲÐ»ÐµÐºÑģÐ°Ð½Ð´ÑĢÐ°": 3445,
      "ĠÑĢÐ°Ð·Ð½ÑĭÑħ": 3446,
      "Ġb": 3447,
      "ĠÐ²ÑĭÑĪÐµ": 3448,
      "Ġ2018": 3449,
      "ÐºÐ¾Ð²Ð°": 3450,
      "ĠÐºÐ¾Ð¼Ð¿Ð°Ð½Ð¸Ð¸": 3451,
      "ĠÑĦÑĥÐ½ÐºÑĨÐ¸Ð¸": 3452,
      "ĠÑĢÐµÐ³": 3453,
      "ĠÐ²ÑĭÐ´ÐµÐ»": 3454,
      "Ð°ÑĢÐµ": 3455,
      "ĠÐ¿ÑĢÐ¾Ð¸Ð·Ð²Ð¾Ð´ÑģÑĤÐ²Ð°": 3456,
      "ĠÑĥÑĩÐµÐ±": 3457,
      "ĠÑģÑĥÑīÐµ": 3458,
      "Ġ2002": 3459,
      "Ð¾Ð±ÑĢÐ°Ð·Ð¾Ð²": 3460,
      "ĠÐ±ÐµÐ·Ð¾Ð¿Ð°Ñģ": 3461,
      "ĠÐ¿Ð¾Ð»ÑĮÐ·Ð¾Ð²": 3462,
      "ÑĤÐµÐ»ÑĮ": 3463,
      "ĠÐ³Ð¾ÑĢÐ¾Ð´Ð¾Ð²": 3464,
      "ÑĩÐ°ÑģÑĤ": 3465,
      "ĠÐĳÐ¾ÑĢÐ¸": 3466,
      "ĠÐ¿Ð¾ÑģÑĤÑĥÐ¿": 3467,
      "ĠÐ¸Ð½Ð¾ÑģÑĤÑĢÐ°Ð½": 3468,
      "ÑįÐ¹": 3469,
      "ĠÐ³ÑĢÑĥÐ¿Ð¿Ð°": 3470,
      "ĠÐĿÐ°ÑĨÐ¸Ð¾Ð½Ð°Ð»ÑĮ": 3471,
      "od": 3472,
      "ĠÐ°ÑĢÑĤÐ¸ÑģÑĤ": 3473,
      "Ð²ÐµÑĢÐ³": 3474,
      "ĠÑĢÐ°Ð·ÑĢÑĥÑĪ": 3475,
      "op": 3476,
      "Ð¾ÑģÑĤÑĮÑİ": 3477,
      "ĠÐ¿Ð¾ÑĢÑĤ": 3478,
      "ĠÐ¿Ð¾ÐºÐ°": 3479,
      "ĠÐ¿ÑĢÐ¾Ñĩ": 3480,
      "Ġ2017": 3481,
      "Ġand": 3482,
      "ĠÐ±Ð¾Ð»ÑĮÑĪÐ¾Ð¹": 3483,
      "ĠÐľÐ¸ÑħÐ°Ð¸Ð»": 3484,
      "ĠÐ¼Ð¾ÑĢÐµ": 3485,
      "Ġ().": 3486,
      "ÐµÐ´Ð¸": 3487,
      "ĠSt": 3488,
      "ĠÑĢÐµÑĪÐµÐ½Ð¸Ðµ": 3489,
      "ĠÐºÐ¾Ð´": 3490,
      "ÑĤÐ¸ÐºÐ¸": 3491,
      "Ð¸ÑģÐ¿": 3492,
      "ĠÐ¾Ð±ÑĬÑıÑģ": 3493,
      "Ð²Ð¾Ð¹": 3494,
      "ĠÐ´Ð°ÑĤ": 3495,
      "ĠÐĴÑĤÐ¾ÑĢ": 3496,
      "ĠÐ´Ð¾ÑģÑĤÑĥÐ¿": 3497,
      "ĠÐ¿Ð°Ð¼ÑıÑĤÑĮ": 3498,
      "ÐĲÐŀ": 3499,
      "ĠÐĵÐ°Ð»": 3500,
      "ĠÑĢÐµÐ³Ð¸Ð¾Ð½": 3501,
      "ĠÐ¾ÐºÑĢÑĥÐ³Ð°": 3502,
      "Ġ2001": 3503,
      "ĠÐ´Ð²Ð¸Ð³": 3504,
      "ĠÐ¿ÑĢÐ°ÐºÑĤÐ¸ÑĩÐµÑģÐºÐ¸": 3505,
      "ĠÑģÐ¿Ð¾ÑĢ": 3506,
      "ĠÑĩÐ¸ÑģÐ»ÐµÐ½": 3507,
      "ĠÑģÐ²Ð¸Ð´ÐµÑĤ": 3508,
      "ĠÐ¿ÐµÑĢÐµÑħÐ¾Ð´": 3509,
      "ĠÐ²ÑģÐµÐ¹": 3510,
      "ÑģÐ¸Ð´": 3511,
      "ĠÐĲÐ¼ÐµÑĢÐ¸": 3512,
      "ĠÐ±Ð°Ð½": 3513,
      "ĠÐ°Ð¿Ð¿Ð°ÑĢÐ°": 3514,
      "ĠÐ¿ÑĢÐµÐ¿Ð¾Ð´": 3515,
      "ĠÐºÐ¸ÑģÐ»Ð¾ÑĤ": 3516,
      "Ð¡Ð¿": 3517,
      "ĠÐ¿ÑĢÐ°Ð²Ð¸ÑĤÐµÐ»ÑĮÑģÑĤÐ²Ð°": 3518,
      "Ð¾Ð¼Ð¿": 3519,
      "Ð¾Ð²Ð°Ñı": 3520,
      "ÑĤÐ²ÐµÑĢ": 3521,
      "ĠÐĳÑĭ": 3522,
      "Ð¾Ð»Ñİ": 3523,
      "ÑĥÑı": 3524,
      "og": 3525,
      "ĠÑĢÐ°ÑģÐ¿Ð¾Ð»Ð°Ð³": 3526,
      "ÑĢÐ°Ð±Ð°ÑĤÑĭ": 3527,
      "ĠÐ¿ÐµÑĢÐ²ÑĭÑħ": 3528,
      "ĠÑĤÑĢÐ°Ð½ÑģÐ¿Ð¾ÑĢÑĤ": 3529,
      "ĠÑģÑĦ": 3530,
      "ĠÐļÐ°Ð½": 3531,
      "ĠÐ°Ð½Ð°Ð»Ð¸Ð·": 3532,
      "Ð¸ÐºÑĥ": 3533,
      "ĠÐ¾Ð±Ð¾Ð·Ð½Ð°Ñĩ": 3534,
      "ĠÐ½Ð°ÑĢÑĥÑĪ": 3535,
      "ĠÐ¿ÑĢÐ°Ð²Ð¸Ð»Ð¾": 3536,
      "ÑĨÐ¸Ð¾Ð½Ð½ÑĭÑħ": 3537,
      "ĠÑĩÐµÑĤ": 3538,
      "ÐĹÐ°": 3539,
      "ĠÐ¿ÐµÑĢÐ²ÑĭÐ¼": 3540,
      "ÑĩÐ°ÑĤ": 3541,
      "ÑĢÐµÐ¶": 3542,
      "ĠÐĻ": 3543,
      "ĠÑģÐ²Ð¾Ð¸Ð¼": 3544,
      "Ð²Ð°Ð´": 3545,
      "ĠÐ·Ð°Ð¿ÑĢÐµ": 3546,
      "Ð¾Ð°Ð½": 3547,
      "ĠÐ²ÐµÑģÑĮ": 3548,
      "ÐµÐ´ÐµÐ½Ð¸Ñı": 3549,
      "Ġ1980": 3550,
      "ÑģÐ»ÑĥÐ¶": 3551,
      "ÑĥÑģÐº": 3552,
      "ĠÐ¡Ðº": 3553,
      "ĠÐĲÐ¼": 3554,
      "ÐºÐ»ÑİÑĩ": 3555,
      "ĠÐĿÐ¸ÐºÐ¾Ð»Ð°": 3556,
      "Ð½ÑĥÐ»": 3557,
      "ÐŀÑĤ": 3558,
      "ĠÐ²Ð»Ð¸ÑıÐ½Ð¸Ðµ": 3559,
      "ĠÐ¿Ð¾ÑĢÐ°Ð¶": 3560,
      "Ð¾ÑģÑĢÐµÐ´": 3561,
      "ĠÑĦÐ¾ÑĢÐ¼Ð¸ÑĢÐ¾Ð²": 3562,
      "Ð½Ð¾Ð²ÑĮ": 3563,
      "ÐµÐ½ÑģÐºÐ¸Ð¹": 3564,
      "Ġ2019": 3565,
      "ĠÑģÐ°Ð¼ÑĭÑħ": 3566,
      "ÐºÐ°ÑĤÐµÑĢÐ¸": 3567,
      "ĠÐ´Ð½Ñı": 3568,
      "ÐµÐ»Ñİ": 3569,
      "ĠÐ¿ÑĢÐµÐ´Ð¾ÑģÑĤÐ°Ð²": 3570,
      "ÑĥÐ»ÑĮÐ¿": 3571,
      "ĠÐ²Ð¾Ð·Ð¼Ð¾Ð¶Ð½Ð¾ÑģÑĤÑĮ": 3572,
      "ĠÑĦÑĥÑĤÐ±Ð¾Ð»": 3573,
      "ÑĨÐµÐ½ÑĤ": 3574,
      "ĠÐ³ÑĢÑĥ": 3575,
      "ĠÐ¿ÑĢÐ¾Ð²Ð¸Ð½": 3576,
      "ist": 3577,
      "ĠÑħÐ¾ÑĢÐ¾ÑĪ": 3578,
      "ĠÐ¼ÑĥÐ·ÐµÐ¹": 3579,
      "ĠÑĢÐ°Ð¼ÐºÐ°Ñħ": 3580,
      "ÑģÐµÑĢ": 3581,
      "ÑİÑĢ": 3582,
      "ĠÐºÐ°Ð»": 3583,
      "ĠÑģÑĤÐ°Ð½Ð¾Ð²Ð¸ÑĤÑģÑı": 3584,
      "ĠÐ±Ð¾ÐµÐ²": 3585,
      "ÑģÐ¸Ð¹": 3586,
      "ÑĤÐ°Ð¼Ð¸": 3587,
      "Ð¾ÑģÐ°": 3588,
      "ĠÐ¾ÑĨÐµÐ½": 3589,
      "ĠÑģÑĤÐ°ÑĤÑĥÑģ": 3590,
      "ĠÐ³Ð°Ð»": 3591,
      "ÐµÑģÑģÐ¸Ð¾Ð½": 3592,
      "ĠÐ°ÑĢÐ°Ð±": 3593,
      "ÐµÐ´Ð°Ð³": 3594,
      "ĠÑĤÐ°Ð±": 3595,
      "ĠÐľÐ¾Ð½": 3596,
      "ĠÐ¿ÑĢÐµÐ·Ð¸Ð´ÐµÐ½ÑĤÐ°": 3597,
      "ÑĨÐ¾Ð³": 3598,
      "ĠÐ§ÐµÑĢ": 3599,
      "ĠÐ²Ð´": 3600,
      "Ð½Ð¾Ð²ÑĢÐµÐ¼ÐµÐ½Ð½Ð¾": 3601,
      "ĠÐ¼Ð½Ð¾Ð¶ÐµÑģÑĤÐ²Ð¾": 3602,
      "Ð»ÑıÑĢ": 3603,
      "ĠÐ¸Ð½ÑĤÐµÑĢ": 3604,
      "ĠÐ¿ÑĢÐ°Ð·Ð´": 3605,
      "ĠÐ³Ð¸Ð´": 3606,
      "Ð°Ð´Ðµ": 3607,
      "Ð»Ð»Ð¸": 3608,
      "Ð³Ð¾ÑĢ": 3609,
      "ÑĪÐ¸": 3610,
      "ÐĲÑĢ": 3611,
      "ĠÐłÐ¾ÑģÑģÐ¸Ñı": 3612,
      "ĠÐ´ÐµÑģÑı": 3613,
      "ÐµÐ½ÑĨÐ¸Ð¸": 3614,
      "ĠÐ¿Ð¾Ð´ÑĩÐ¸Ð½": 3615,
      "ÐµÑĤÐ¾Ð²": 3616,
      "Ð°Ð²Ð°Ð»": 3617,
      "ĠÐ¿ÑĢÐ¾ÑĦÐµÑģÑģ": 3618,
      "ÐµÑĪÐµ": 3619,
      "ĠÐºÑĥÐ¿": 3620,
      "ĠÐ¸Ð½Ð¾Ð³Ð´Ð°": 3621,
      "ÑıÑĤÐ¸Ð¹": 3622,
      "ĠÑħÑĥÐ´Ð¾Ð¶Ð½Ð¸Ðº": 3623,
      "Ð½Ð¾Ð²Ð°": 3624,
      "ĠÑĢÐµÐ¹": 3625,
      "ÑĤÐ°Ð±": 3626,
      ".),": 3627,
      "ĠÐ¿Ð»Ð¾": 3628,
      "ĠÐ¸ÑģÐºÑĥÑģÑģÑĤÐ²Ð°": 3629,
      "ĠÑĢÐµÐ´Ð°Ðº": 3630,
      "Ð¸Ð»Ðµ": 3631,
      "ĠÐŀÐ½Ð¸": 3632,
      "ÑĤÐ¾ÑĤ": 3633,
      "Ð°Ð¹Ð»Ð¾Ð²": 3634,
      "ÑģÑĤÐ²Ð¸Ñı": 3635,
      "Ġ1941": 3636,
      "ĠÐ¿ÑĢÐ°Ð²Ð¸ÑĤÐµÐ»ÑĮÑģÑĤÐ²Ð¾": 3637,
      "ĠÑģÐ¾ÑĩÐ¸Ð½": 3638,
      "ĠÐ´ÑĥÑħÐ¾Ð²": 3639,
      "Ð´Ð°ÑĤ": 3640,
      "ĠÐĳÐ°Ð»": 3641,
      "Ð»ÐµÐ³": 3642,
      "ĠÐ´ÑĢÑĥÐ³Ð¸Ð¼Ð¸": 3643,
      "ĠÑįÐ»ÐµÐºÑĤÑĢÐ¸": 3644,
      "ÑĳÑģ": 3645,
      "ĠÐ½Ð°Ð¹": 3646,
      "ĠÐ·Ð½Ð°ÑĩÐµÐ½Ð¸Ñı": 3647,
      "ÑģÐºÐ¾ÑĢÐµ": 3648,
      "Ð°Ð½Ð´Ð°": 3649,
      "ÐµÐ´Ð°Ð³Ð¾Ð³": 3650,
      "Ð°Ð»Ð¸Ñĩ": 3651,
      "ĠÐľÐµÐ¶Ð´ÑĥÐ½Ð°ÑĢÐ¾Ð´": 3652,
      "ĠÐ¿Ð¾Ð½Ð¸Ð¼": 3653,
      "ĠÑģÐ¼ÑĭÑģ": 3654,
      "ĠÐ½ÐµÐ¸Ð·": 3655,
      "ĠÐ¸Ð´": 3656,
      "ĠÐ¿ÑĢÐ¸ÑĩÐ¸Ð½": 3657,
      "ĠÐ¿ÑĢÐ¾Ð³": 3658,
      "ĠÐ½Ð¾Ð²ÑĭÑħ": 3659,
      "Ð»Ð¸Ð½Ð°": 3660,
      "Ð°Ð½Ð½Ð¾Ðµ": 3661,
      "ĠÐ¸ÑģÐ¿Ð¾Ð»Ð½": 3662,
      "ĠÐ³Ð°": 3663,
      "ĠÑĤÐ¾Ð²": 3664,
      "ÐµÐ½ÑĤÐ¸": 3665,
      "ers": 3666,
      "ĠÐ³ÑĥÐ±ÐµÑĢ": 3667,
      "Ð¢Ð°Ðº": 3668,
      "Ġ1970": 3669,
      "ÑĥÐ¹": 3670,
      "Ġ180": 3671,
      "ÑĢÐ¾Ð½Ð¾Ð¼": 3672,
      "ĠÐ¿ÑĢÐ¾Ð³ÑĢÐ°Ð¼Ð¼": 3673,
      "ĠÐ³Ð»Ð°Ð²Ðµ": 3674,
      "ĠÐ²Ð·Ð°Ð¸Ð¼Ð¾Ð´ÐµÐ¹ÑģÑĤÐ²": 3675,
      "Ð°Ð¼Ð°": 3676,
      "ĠÑĤÐ¾Ð¼Ñĥ": 3677,
      "ĠÑĤÐ¾Ð»": 3678,
      "Ð²Ñĥ": 3679,
      "ĠÑĥÐ¿Ð¾ÑĤÑĢÐµÐ±": 3680,
      "ĠÐ´ÐµÑıÑĤÐµÐ»ÑĮÐ½Ð¾ÑģÑĤÑĮ": 3681,
      "ĠÐ²Ð½Ð¾Ð²ÑĮ": 3682,
      "ĠÐļÐŁ": 3683,
      "Ġ1960": 3684,
      "Ġ(,": 3685,
      "ĠÐµÑģÑĤÐµ": 3686,
      "ĠÐ¶ÐµÐ»ÐµÐ·Ð½Ð¾Ð´Ð¾ÑĢÐ¾Ð¶": 3687,
      "ĠÐ¾ÑĤÐ½Ð¾ÑģÑıÑĤ": 3688,
      "Ð½Ð¸Ñİ": 3689,
      "ĠÐ°Ð¼ÐµÑĢÐ¸ÐºÐ°Ð½ÑģÐºÐ°Ñı": 3690,
      "ĠÐ±Ð»Ð°Ð³Ð¾Ð´Ð°ÑĢÑı": 3691,
      "ÑĪÑĥÑİ": 3692,
      "ĠÑĢÐ°Ð½ÐµÐµ": 3693,
      "ĠÐ²ÑģÐµÐ³Ð´Ð°": 3694,
      "ÑģÑĤÑĮÑıÐ½": 3695,
      "ÑģÐ¸ÑĢÐ¾Ð²": 3696,
      "ĠÐ¸Ð½ÑĦ": 3697,
      "ĠÐ¾ÑĩÐµÑĢÐµÐ´ÑĮ": 3698,
      "Ð¸Ð¼ÑĥÑīÐµ": 3699,
      "ĠÑĢÐ°Ð±Ð¾ÑĤÑĥ": 3700,
      "ÐµÑģÑĤÑĮ": 3701,
      "ĠÐ½ÐµÐ´Ð¾ÑģÑĤ": 3702,
      "ul": 3703,
      "ĠÑıÐ¿Ð¾Ð½": 3704,
      "ĠÑĦÐ¾ÑĢÐ¼Ñĭ": 3705,
      "ÐºÑĥÐ¿": 3706,
      "ĠÐ¿ÐµÑĢÐ²ÑĭÐµ": 3707,
      "Ð¾Ð½Ð¸Ð¼": 3708,
      "ĠÐ¼Ñĭ": 3709,
      "Ð¸Ð·Ð°Ð½": 3710,
      "Ġin": 3711,
      "ĠÐ²Ð½Ð¸Ð¼": 3712,
      "Ð¸ÑģÐ°": 3713,
      "ÐĺÐ½": 3714,
      "ÑĢÐµÐ´ÐµÐ»": 3715,
      "ĠÑĢÐ°Ð·ÑĢÐµÑĪ": 3716,
      "ĠÐ½Ð°Ð·Ð²Ð°Ð½Ð¸Ñı": 3717,
      "ĠÐ¿ÑĢÐµÐ´ÑģÑĤÐ°Ð²Ð»ÑıÐµÑĤ": 3718,
      "Ð»Ð¸Ð±Ð¾": 3719,
      "ĠÑĢÐ°Ð·Ð¼ÐµÑĢ": 3720,
      "ÐµÑĢÐ¾": 3721,
      "ĠÐºÐ¾ÑĤÐ¾ÑĢÑĥÑİ": 3722,
      "Ð²Ð°ÑİÑĤ": 3723,
      "Ð°ÑĤÐ¾Ð»": 3724,
      "ĠÐ½Ð°Ð·ÑĭÐ²Ð°ÐµÑĤÑģÑı": 3725,
      "ĠÐļÐ¾Ð½ÑģÑĤÐ°Ð½ÑĤÐ¸Ð½": 3726,
      "ÑĩÐ½ÑĭÐµ": 3727,
      "ĠÐĴÐ¸Ð»ÑĮ": 3728,
      "ĠÐºÐ¾Ð½ÑĨÐ°": 3729,
      "ÑĪÐ¸Ð¼Ð¸": 3730,
      "ĠÐ¶Ð¸ÑĤÐµÐ»ÐµÐ¹": 3731,
      "ĠÐ¼ÑĭÑģ": 3732,
      "Ð¾ÑĢÑĤÑĥ": 3733,
      "Ð¸Ð½Ð°ÑģÑĤÐ¸": 3734,
      "ÑĥÑĤÑĮ": 3735,
      "ĠÐ¾ÑģÑĤÑĢÐ¾Ð²Ð°": 3736,
      "ĠÐ¼Ð¾ÑģÑĤ": 3737,
      "ĠÐ»Ð¾Ð³": 3738,
      "Ð´Ð°ÑİÑĤ": 3739,
      "Ð¼Ð°ÑĢ": 3740,
      "ĠÐ¿Ð»Ð¾ÑīÐ°Ð´Ð¸": 3741,
      "Ġn": 3742,
      "ĠÐĴÐ°Ñģ": 3743,
      "ÑĨÐ¸ÑıÑħ": 3744,
      "ĠÐĶÐ¶Ð¾Ð½": 3745,
      "ĠÐ²ÐµÑĢÑģÐ¸Ð¸": 3746,
      "ĠÐ²ÐµÑĢÐ¾ÑıÑĤ": 3747,
      "Ð°ÑĤÐµÐ³Ð¾ÑĢÐ¸Ñı": 3748,
      "Ð¾ÑĤÐµ": 3749,
      "ĠÐ¾ÑĤÐ½Ð¾ÑģÐ¸ÑĤÐµÐ»ÑĮÐ½Ð¾": 3750,
      "ĠÐ¾ÑĤÐ»Ð¸ÑĩÐ¸Ðµ": 3751,
      "Ð°ÑĤÐµÐ»ÑĮÐ½ÑĭÑħ": 3752,
      "Ð²ÐµÐº": 3753,
      "ĠÐ¿Ð»Ð¾ÑĤ": 3754,
      "ĠÐķÐ³Ð¸Ð¿": 3755,
      "70": 3756,
      "ĠÐĳÐ¾Ð»": 3757,
      "Ð¸Ð¿Ð»Ð¾Ð¼": 3758,
      "ÑģÐµÐ½": 3759,
      "Ð¼Ð°Ñħ": 3760,
      "%.": 3761,
      "Ð¾Ð²Ð¾Ð³Ð¾": 3762,
      "ĠÑģÑĢÐµÐ´ÑģÑĤÐ²Ð°": 3763,
      "Ð¼ÐµÐ½ÑĮÑĪ": 3764,
      "ÑĤÐµÑĢÐ½": 3765,
      "ĠXVIII": 3766,
      "ĠÑĥÐ½Ð¸ÑĩÑĤ": 3767,
      "ĠÑĥÐ½Ð¸ÑĩÑĤÐ¾Ð¶": 3768,
      "ĠÐĵÑĢÐµ": 3769,
      "ĠÐĵÐ»Ð°Ð²": 3770,
      "ÑĤÐµÐ¿": 3771,
      "ÑĩÐ°ÑİÑĤ": 3772,
      "ÑıÐ±ÑĢÑĮ": 3773,
      "ĪĴ": 3774,
      "ĠÐļÐ°Ð¼": 3775,
      "ÑģÑĤÐ²Ð¾Ð²Ð°Ð»": 3776,
      "ÑĩÐµÑģÐºÐ¾Ðµ": 3777,
      "ĠÐŁÐ¾Ð»ÑĮÑĪ": 3778,
      "ÐµÐ¼ÑĭÐµ": 3779,
      "ĠÐ¿Ð¾ÑģÑĤÐ°Ð½Ð¾Ð²": 3780,
      "ĠÐĲÐ»ÐµÐºÑģÐµ": 3781,
      "ĠÑĢÐ¾Ð¼Ð°Ð½": 3782,
      "ĠÐ´Ð¾Ð»Ð¶ÐµÐ½": 3783,
      "ĠÐ±Ñİ": 3784,
      "ĠÐºÐ¾ÑĤÐ¾ÑĢÑĭÐ¼": 3785,
      "ÑĢÐ°Ð½Ð°": 3786,
      "ÑĨÐ¸Ð¾Ð½Ð½Ð¾Ð¹": 3787,
      "ĠÑĢÐ°Ðº": 3788,
      "ĠÑĢÐ°Ð·Ð±": 3789,
      "ĠÐķÐºÐ°ÑĤÐµÑĢÐ¸": 3790,
      "ĠÑĦÐµÐ´ÐµÑĢÐ°Ð»ÑĮ": 3791,
      "ĠÑĢÐ¾Ð´Ð°": 3792,
      "ĠÐ¿Ð¾Ð¼Ð¾ÑīÐ¸": 3793,
      "ĠÐĿÐ°Ð¿ÑĢÐ¸Ð¼ÐµÑĢ": 3794,
      "ĠÐŀÑĤÐµÑĩÐµ": 3795,
      "ĠÐ¸Ð·Ð±Ð¸ÑĢÐ°": 3796,
      "ĠÐ°Ð»ÑĮÐ±Ð¾Ð¼": 3797,
      "ĠÑĨÐµÐ»ÑĮÑİ": 3798,
      "ĠÑģÐ¾ÑģÑĤÐ¾Ð¸ÑĤ": 3799,
      "ĠÐ¿ÑĢÐ¸ÑģÐ¾ÐµÐ´Ð¸Ð½": 3800,
      "Ð´ÐµÐ½Ð°": 3801,
      "Ġ1999": 3802,
      "ĠÑįÐºÑģÐ¿ÐµÑĢÐ¸Ð¼ÐµÐ½ÑĤ": 3803,
      "Ð¾Ð²Ð°Ð»": 3804,
      "ĠÐ½Ð¾Ð²ÑĭÐ¹": 3805,
      "ĠÐ»Ð¸Ð½Ð¸Ð¸": 3806,
      "ĠÑģÐ²ÑıÑī": 3807,
      "ĠÐ¡Ð¾Ð³Ð»Ð°ÑģÐ½Ð¾": 3808,
      "Ð°ÐºÐ¸": 3809,
      "ĠÐ¿Ð¾ÑĤÐ¾Ð¼": 3810,
      "90": 3811,
      "Ð½ÐµÑĢ": 3812,
      "ÑĭÐ½Ðµ": 3813,
      "ĠÐ¼Ð°": 3814,
      "ĠÑĩÑĥÐ²": 3815,
      "ÑģÐ¾Ð»": 3816,
      "Ġ1992": 3817,
      "ĠÑĤÐµÐºÑģÑĤ": 3818,
      "ĠÐºÐ°Ð¿Ð¸ÑĤ": 3819,
      "Ð¾ÑģÑĤÐ¾ÑıÑĤÐµÐ»ÑĮ": 3820,
      "Ð¾Ð±ÑĭÑĤÐ¸Ñı": 3821,
      "Ð³Ð¾ÑģÑı": 3822,
      "ĠÐĲÐ½Ð´ÑĢÐµ": 3823,
      "ĠÐ¿ÐµÑĢÐµÐ´Ð°": 3824,
      "ĠÐ´Ð¾Ð±Ð°Ð²": 3825,
      "ĠÐ·Ð½Ð°Ð¼": 3826,
      "ĠÐ¾ÑĢÐ³Ð°Ð½Ð¸Ð·Ð¾Ð²": 3827,
      "ĠÑĩÐµÑĤÑĭÑĢÑĳÑħ": 3828,
      "ÑĢÐµÐº": 3829,
      "ÑĨÐ¸ÐºÐ»": 3830,
      "ÑĳÐ½Ð½Ð°Ñı": 3831,
      "Ð¸ÑĨÐµ": 3832,
      "ĠÐ¼ÐµÐ»": 3833,
      "ĠÐľÐµÐ´": 3834,
      "ÑĩÐµÐ¹": 3835,
      "ÑĢÐµÐ³": 3836,
      "Ð¸ÑĤÐµÐ»ÑĮÐ½ÑĭÐ¹": 3837,
      "Ð³Ð°ÑĢ": 3838,
      "ÑĪÐ¸ÑģÑĮ": 3839,
      "ÑĤÑĢÐ¸": 3840,
      "Ð°ÑĢÐ¸ÑģÑĤ": 3841,
      "ĠÐ¿Ð¾ÑĤÐµÑĢ": 3842,
      "ÑĤÐ¸Ðº": 3843,
      "ÑıÑİÑĤ": 3844,
      "ĠÐ¿ÑĢÐ¾ÑĤÑıÐ¶": 3845,
      "ÑĤÑĮÑģÑı": 3846,
      "Ġ60": 3847,
      "ĠÐ±Ð»Ð°Ð³": 3848,
      "ĠÐºÐ¾Ð¼Ð¼Ñĥ": 3849,
      "ÐºÐ¾Ð½Ñĩ": 3850,
      "ĠÐºÐ¾Ð¼Ð¿Ð¾Ð·Ð¸ÑĤÐ¾ÑĢ": 3851,
      "Ã©": 3852,
      "ĠÐļÑĥÐ±": 3853,
      "ĠÐŃÐ½": 3854,
      "Ð¸ÑģÑĤÐ¾Ð²": 3855,
      "ÑİÑīÐ¸Ð¼": 3856,
      "ĠÐ¾ÐºÐµ": 3857,
      "ĠÐ¾Ð½Ð¾": 3858,
      "Â²": 3859,
      "ĠÐ¸ÑĤÐ¾Ð³": 3860,
      "ĠÐ¡Ð¾Ð²ÐµÑĤÑģÐºÐ¾Ð³Ð¾": 3861,
      "Ð²Ð°Ð»Ð¸": 3862,
      "ĠÐĴÐ°ÑģÐ¸": 3863,
      "ĠÑĤÐ°ÐºÐ¸Ð¼": 3864,
      "ÐĴÑĭ": 3865,
      "Ð¾Ð¿ÐµÐ´": 3866,
      "ÐĲÐ²": 3867,
      "ĠÐĽÐµÐ¾Ð½": 3868,
      "ĠÐĴÐµÐ»Ð¸ÐºÐ¾Ð¹": 3869,
      "Ð¾Ð¿Ð¾Ð»ÑĮ": 3870,
      "Ð·Ðµ": 3871,
      "ĠÐ¿ÑĢÐ¸Ð¼ÐµÑĢÐ½Ð¾": 3872,
      "ĠÑĥÐ¼ÐµÐ½ÑĮÑĪ": 3873,
      "ĠÑĢÐµÐº": 3874,
      "ĠÐ¤Ð¸Ð»Ð¸": 3875,
      "ĠÐ¢ÐµÐ¼": 3876,
      "ĠÐ·Ð°ÐºÑĢÑĭ": 3877,
      "ĠÑĥÑģÐ»Ð¾Ð²Ð¸ÑıÑħ": 3878,
      "ÐºÐ¾Ðµ": 3879,
      "ĠÐ´ÐµÐº": 3880,
      "ĠÐ´Ð¾Ð³Ð¾Ð²Ð¾ÑĢ": 3881,
      "ĠÑģÐ¾Ð³Ð»Ð°ÑĪ": 3882,
      "ĠÑĩÑĳÑĢ": 3883,
      "ĠÐ´Ð²ÑĥÐ¼": 3884,
      "ÑĥÑĢÑĥ": 3885,
      "ĠÑģÐ¸ÑĤÑĥ": 3886,
      "ĠÑģÑĢÐ¾Ðº": 3887,
      "Ð²Ð°ÑĢÐ´": 3888,
      "ĠÐ¡ÐŁ": 3889,
      "Ð½ÑĥÑĤÑĮ": 3890,
      "ÑģÑĤÐ¾Ð½": 3891,
      "ĠÐºÐ¾Ð½ÑģÑĤÑĢÑĥÐº": 3892,
      "ĠÑĢÐ°ÑģÑģÑĤÐ¾Ñı": 3893,
      "ÐĶÐ»Ñı": 3894,
      "Ð¸Ð½Ð¸": 3895,
      "Ġ1918": 3896,
      "ÑĥÐ»Ð¸": 3897,
      "Ġ31": 3898,
      "ÑĳÐ½Ð½ÑĭÐ¼": 3899,
      "ĠÐ¡ÐµÑĢÐ³ÐµÐ¹": 3900,
      "ĠÐĵÑĢÐ°": 3901,
      "ĠÐķÐ²ÑĢÐ¾Ð¿Ðµ": 3902,
      "ĠÑĨÐµÑĢÐºÐ¾Ð²ÑĮ": 3903,
      "ĠÐ½Ð°ÑģÑĤÑĥÐ¿": 3904,
      "ĠÐ¾Ð±ÑĢÐ°Ð·Ð¾Ð²Ð°Ð½Ð¸Ðµ": 3905,
      "ĠÐ²Ð½ÑĥÑĤÑĢÐ¸": 3906,
      "ĠÐļÑĥÑĢ": 3907,
      "ĠÑĤÐµÐ»Ð°": 3908,
      "ĠÐºÑĢÑĭ": 3909,
      "ĠÐ³Ð¸Ð¼": 3910,
      "Ġ\"": 3911,
      "ĠÐ½Ð°Ð»": 3912,
      "Ð¾ÑģÐ½Ð¾Ð²": 3913,
      "Ġ2021": 3914,
      "Ð¾Ð´Ñĭ": 3915,
      "Ð±ÐµÑĢÐ³": 3916,
      "Ð¾ÑĢÐ¾ÑĤ": 3917,
      "ĠÐ½Ð°ÑĥÐºÐ¸": 3918,
      "ÐŀÐ´": 3919,
      "ÑĥÑİÑīÐ¸Ð¹": 3920,
      "ĠÐ´Ð¾Ð»Ð¶Ð½Ñĭ": 3921,
      "ĠÐ±Ð¾Ð»ÑĮÑĪÐ¸Ð½ÑģÑĤÐ²Ð¾": 3922,
      "ĠÑģÐ²Ð¾Ð¹ÑģÑĤÐ²Ð°": 3923,
      "ĠÐĳÐ°ÑĢ": 3924,
      "ÐµÑĢÐ°Ð»ÑĮ": 3925,
      "ĠÐ½Ð¾Ð²Ð¾Ð³Ð¾": 3926,
      "ĠÑģÐ°Ð¼ÑĭÐ¼": 3927,
      "ĠÐ¾ÑĦ": 3928,
      "ĠÐ½ÐµÐº": 3929,
      "99": 3930,
      "ĠÐļÐ°Ð»": 3931,
      "ĠÐĺÐ·ÑĢÐ°": 3932,
      "ĠÑĨÐµÐ½ÑĤÑĢÐ°": 3933,
      "ĠÐ´Ð¾Ð¼Ð°": 3934,
      "ĠÐ·Ð°Ð³": 3935,
      "ÑĦÐ°Ð²": 3936,
      "Ð°Ð½Ð´Ð¸Ð´": 3937,
      "ĠÑģÑĤÑĢÐ°Ð½Ð°Ñħ": 3938,
      "ĠÐ¡ÐµÐ¼": 3939,
      "ĠÐ¸Ð·Ð¼ÐµÑĢ": 3940,
      "ÑıÐ»Ð¸": 3941,
      "86": 3942,
      "Ð¡Ð¡": 3943,
      "Ð¸ÑĤÐµÐ»ÑĮÐ½ÑĭÐµ": 3944,
      "ĠÐºÐ½Ð¸Ð³Ð¸": 3945,
      "Ð·ÑĭÐ²Ð°ÐµÑĤ": 3946,
      "Ð°ÑıÑģÑĮ": 3947,
      "ĠÐ¾ÑĤÑĢÐ°Ð¶": 3948,
      "oc": 3949,
      "Ð¡Ð¾Ð±ÑĭÑĤÐ¸Ñı": 3950,
      "ĠÐ¿ÑĢÐ¾Ð´ÑĥÐº": 3951,
      "ÐµÐºÐ¾ÑĤÐ¾ÑĢÑĭÐµ": 3952,
      "Ġ1996": 3953,
      "ĠÐ½Ð°Ð·": 3954,
      "ĠÐ¿ÑĢÐ¾Ð¸ÑģÑħÐ¾Ð´": 3955,
      "ĠÐ»ÐµÐ²": 3956,
      "ÐµÑĢÐ°Ð¼Ð¸": 3957,
      "ĠÑģÐ¾Ð²Ð¼ÐµÑģÑĤ": 3958,
      "Ð»ÐµÐ±": 3959,
      "Ġ1993": 3960,
      "ĠÐ²ÐºÐ»ÑİÑĩÐ°Ñı": 3961,
      "ĠÐ³Ð¾ÑĤÐ¾Ð²": 3962,
      "Ð°ÑģÑģÐ°Ð¶": 3963,
      "ĠÐºÐ¸Ð½": 3964,
      "Ð´Ð°ÐµÑĤÑģÑı": 3965,
      "Ġ1920": 3966,
      "ÑĩÐ½ÑĭÐ¹": 3967,
      "ĠÑģÐ»Ð¾Ð²Ð¾": 3968,
      "Ð·Ð¸": 3969,
      "ĠÐ¿Ð°Ð¿": 3970,
      "ĠÑĢÑĥÑģÑģÐºÐ¾Ð¹": 3971,
      "ĠÐ¿ÑĢÐ¸Ð½ÑıÑĤ": 3972,
      "ĠÐ¸Ð³ÑĢÑĭ": 3973,
      "ÐºÐ¸Ð½Ð°": 3974,
      "ÑĢÐ¾ÑĨ": 3975,
      "ĠÐ·Ð°Ð²Ð¸ÑģÐ¸Ð¼Ð¾ÑģÑĤÐ¸": 3976,
      "ÑĤÐ¸ÑĩÐµÑģÐºÐ¾Ð¹": 3977,
      "ĠÐ³ÐµÑĢÐ¼": 3978,
      "ĠÐµÐ¿Ð¸ÑģÐºÐ¾Ð¿": 3979,
      "Ð²ÐµÑĤÐ°": 3980,
      "ĠÐ·ÑĢÐµÐ½Ð¸Ñı": 3981,
      "ĠÐ¿Ð¾Ð¼ÐµÑī": 3982,
      "ĠÐľÐ¾ÑĢ": 3983,
      "ĠÐ¸Ð¼Ð¿ÐµÑĢÐ°ÑĤÐ¾ÑĢÐ°": 3984,
      "ĠÐ´Ð¸Ð¿Ð»Ð¾Ð¼": 3985,
      "ĠÑĪÐºÐ¾Ð»Ð°": 3986,
      "Ð¸Ð²Ð°Ð»": 3987,
      "ĠÐ°Ð½Ð³Ð»Ð¸Ð¹ÑģÐºÐ¸Ð¹": 3988,
      "ĠÐ¦ÐµÑĢ": 3989,
      "Ð°ÑİÑīÐ¸Ðµ": 3990,
      "ĠÑģÐ»ÐµÐ´ÑĥÐµÑĤ": 3991,
      "ĠÑģÐ²Ð¸Ð´ÐµÑĤÐµÐ»ÑĮ": 3992,
      "Ð½Ð¾Ð·": 3993,
      "ĠÐĽÐ¸": 3994,
      "ĠÐŃÐ¹": 3995,
      "ĠÐ¾ÑĤÐ»Ð¸": 3996,
      "ĠÐ´Ð¸Ð½Ð°ÑģÑĤÐ¸": 3997,
      "ÐµÐ´Ð¾Ð½": 3998,
      "ÑģÑĤÑĢÑĥÐ¼ÐµÐ½ÑĤ": 3999,
      "ĠÐ¿ÑĥÑĤÐ¸": 4000,
      "XI": 4001,
      "ĠÐ¾Ð±Ð²Ð¸Ð½": 4002,
      "ĠÑĥÐ´Ð°Ð»Ð¾ÑģÑĮ": 4003,
      "ĠÐ¿Ð°": 4004,
      "ht": 4005,
      "ĠÐ¤Ð¸Ð½": 4006,
      "ÑĥÐ½Ð°": 4007,
      "ĠÐ²Ð¾Ð·Ð³Ð»Ð°Ð²": 4008,
      "ĠÐŁÐ°Ð¼": 4009,
      "Ð¿Ð¾Ð·": 4010,
      "ÑģÑĤÐ°Ð»": 4011,
      "ĠÐ°Ð¼": 4012,
      "ÑĤÐ°Ñħ": 4013,
      "ĠÑģÐµÐ²ÐµÑĢÐ¾": 4014,
      "ÑĨÐ¸ÐºÐ»Ð¾Ð¿ÐµÐ´": 4015,
      "ĠÐłÐ¾Ð´": 4016,
      "ĠÐ¿ÑĢÐ¾Ð¼ÑĭÑĪÐ»ÐµÐ½Ð½Ð¾ÑģÑĤÐ¸": 4017,
      "ĠÐĴÑĭÑģ": 4018,
      "ĠÐ¸Ð½ÑĦÐ¾ÑĢÐ¼Ð°ÑĨÐ¸Ð¸": 4019,
      "ĠÑģÐ±": 4020,
      "ĠÑįÑĤÐ¾Ð¼Ñĥ": 4021,
      "Ð¾Ð¿Ð¾Ð»Ð¾Ð¶": 4022,
      "ĠÑĦÐ¸Ð½Ð°Ð½ÑģÐ¾Ð²": 4023,
      "ĠÐ¸Ð¼ÐµÐ»": 4024,
      "Ġ1994": 4025,
      "ĠÐ¿Ð¸ÑģÐ°Ð»": 4026,
      "Ð¸Ð³ÑĢÐ°": 4027,
      "ĠĠĠĠĠĠĠĠ": 4028,
      "ĠÐ¿Ð¾Ð·Ð²Ð¾Ð»ÑıÐµÑĤ": 4029,
      "ĠÐ½ÐµÐ¿Ð¾ÑģÑĢÐµÐ´": 4030,
      "Ð¸ÑĤÐµÐ»ÑĮÐ½ÑĭÑħ": 4031,
      "ĠÑģÑĩÐ¸ÑĤÐ°ÐµÑĤÑģÑı": 4032,
      "ÑĤÐ¸ÐºÐ°": 4033,
      "ÑĢÑĥÐµÑĤÑģÑı": 4034,
      "ĠÐºÐ»ÐµÑĤ": 4035,
      "ĠÎ": 4036,
      "Ð»ÑıÐµÑĤ": 4037,
      "Ð¾ÐºÑģ": 4038,
      "ĠÑĩÐµÑĤÑĭÑĢÐµ": 4039,
      "Ġl": 4040,
      "ÐĻ": 4041,
      "Ġv": 4042,
      "ĠÐ¾ÑĤÐ¼ÐµÑĩ": 4043,
      "ĠÐ¿ÑĢÐ¾Ð³ÑĢÐ°Ð¼Ð¼Ñĭ": 4044,
      "Ð¾ÑģÑĤÐ¾ÐºÐµ": 4045,
      "ĠÐ¿ÐµÑĢÐ²Ð°Ñı": 4046,
      "ĠÐ¾ÑģÐ²Ð¾Ð±": 4047,
      "ĠÐ¿ÑĢÐ¸Ð½Ð¸Ð¼": 4048,
      "ĠÐºÐ¾Ð¼Ð¸ÑĤ": 4049,
      "ĠÐ¿ÑĢÐ¾Ð²Ð¾Ð·Ð³": 4050,
      "ĠÐ·Ð°ÑħÐ²Ð°ÑĤ": 4051,
      "ĠÐ·Ð¸Ð¼": 4052,
      "ÑıÑģÑĮ": 4053,
      "ĠÑĢÐ°Ð·Ð´": 4054,
      "ĠÑģÑĥÐ¿": 4055,
      "ĠÐ¼Ð½Ð¾Ð³Ð¾ÑĩÐ¸ÑģÐ»ÐµÐ½": 4056,
      "ĠÐłÐ¾Ð¼": 4057,
      "ĠÑĤÐ°ÐºÐ¾Ð¹": 4058,
      "ĠÐ¿Ð¾Ð´ÑĤÐ²ÐµÑĢ": 4059,
      "ÑĢÐ¾Ð²Ð°": 4060,
      "Ð¸Ð²Ð°": 4061,
      "ĠÑģÐ°Ð¼Ð¾ÑģÑĤÐ¾ÑıÑĤÐµÐ»ÑĮ": 4062,
      "ĠÐ¿Ð¾Ð·Ð¶Ðµ": 4063,
      "Ġ1995": 4064,
      "ĠÐºÐ½Ð¸Ð³": 4065,
      "Ġa": 4066,
      "Ð°Ð½Ñģ": 4067,
      "ĠÐ´Ð¾Ð»Ð»Ð°": 4068,
      "ĠÑĤÑİ": 4069,
      "ĠÐŁÐµÑĢÐµ": 4070,
      "ĠÐ±Ð»Ð¾Ðº": 4071,
      "ĠÑģÐ¸ÑģÑĤÐµÐ¼Ðµ": 4072,
      "ĠÐ¿ÑĢÐµÑģ": 4073,
      "ĠÑĢÐµÐ¶Ð¸ÑģÑģÑĳÑĢ": 4074,
      "ĠÑģÑĤÑĢÐ¾Ð¸ÑĤÐµÐ»ÑĮÑģÑĤÐ²Ð¾": 4075,
      "ĠÐºÐ¾Ð½ÑĦÐ»Ð¸": 4076,
      "Ð¾Ð´Ð°ÑĤÐµÐ»ÑĮ": 4077,
      "ĠÐ¿ÐµÑĢÐµÑģ": 4078,
      "Ð°ÑĢÐ´Ð°": 4079,
      "ĠÑĤÐµÑħÐ½Ð¸ÑĩÐµ": 4080,
      "Ð»Ð¾Ð³": 4081,
      "Ð¾Ð²Ð¸Ñĩ": 4082,
      "ÑĳÐ¶": 4083,
      "ÐµÑĢÐº": 4084,
      "ĠÐ´Ð¸Ð²": 4085,
      "ĠÐ¾ÑģÐ°Ð´": 4086,
      "ĠÐ³Ð¾ÑĢÐ¾Ð´ÑģÐºÐ¾Ð³Ð¾": 4087,
      "ĠÐ¾Ð¿Ð°Ñģ": 4088,
      "ĠÐ±Ð¾Ð»ÐµÐ·": 4089,
      "ĠÐ¿ÑĢÐµÐ¼ÑĮÐµÑĢ": 4090,
      "ÑĤÐµÐ³": 4091,
      "ĠÑģÐ¾Ð±ÑģÑĤÐ²ÐµÐ½": 4092,
      "ĠÐ½Ð°Ð·ÑĭÐ²Ð°ÑİÑĤ": 4093,
      "ĠÑģÑĤÐ°Ð½ÑĨÐ¸Ð¸": 4094,
      "Ġ2022": 4095,
      "ÑĩÐ°Ñģ": 4096,
      "ĠÐ²ÑĭÐ´ÐµÐ»Ñı": 4097,
      "ĠÐ²ÑģÐ¿": 4098,
      "Ð°Ð½ÑģÐºÐ°Ñı": 4099,
      "ÑıÑīÐ¸Ñħ": 4100,
      "ru": 4101,
      "Ð¶Ð´Ñĭ": 4102,
      "ĠÑģÐ¾Ð·Ð´Ð°Ð½Ð¸Ñı": 4103,
      "ĠÐ°Ð»ÑĦÐ°Ð²": 4104,
      "ri": 4105,
      "ĠÐĲÑĦÑĢÐ¸": 4106,
      "ĠÐ¿ÐµÐ´Ð°Ð³Ð¾Ð³": 4107,
      "Ġ1998": 4108,
      "th": 4109,
      "ĠÑĥÑĢÐ¾Ð²Ð½Ñı": 4110,
      "ĠÐĵÑĢÐ¸": 4111,
      "ĠÐ¿ÑıÑĤÐ¸": 4112,
      "ĠÐ¿Ð°ÑĢÑĤÐ¸Ñı": 4113,
      "ĠÐ½Ð¾Ð²ÑĭÐµ": 4114,
      "ĠÐ½Ð°ÑģÐµÐ»ÐµÐ½Ð¸Ðµ": 4115,
      "ĠÐºÐ¾Ð½ÐµÑĩ": 4116,
      "ov": 4117,
      "ĠÑģÐ¿ÐµÐºÑĤ": 4118,
      "35": 4119,
      "Ð¸Ð²Ð°ÑİÑĤ": 4120,
      "ĠÐĶÐ¸": 4121,
      "Ġ1930": 4122,
      "Ð°Ð»Ð¾Ð¼": 4123,
      "Ð¿Ð°": 4124,
      "ĠÐ¿ÑĢÐ¸ÐºÐ°Ð·": 4125,
      "Ġ1917": 4126,
      "ĠÐĶÐ¾Ð¼": 4127,
      "ÑĦÐ¸ÐºÐ°ÑĨÐ¸Ð¸": 4128,
      "ĠÐ²ÑĭÐ¿ÑĥÑģÐº": 4129,
      "ĠÑĢÐ°ÑģÑĤÐ²": 4130,
      "ĠÐŃÑĤÐ¸": 4131,
      "ĠÑĢÐ°ÑģÑģÐºÐ°Ð·": 4132,
      "ĠÑįÐ»ÐµÐ¼ÐµÐ½ÑĤÐ¾Ð²": 4133,
      "ĠÐ¤ÑĳÐ´": 4134,
      "ĠÐ²Ð¿Ð¾ÑģÐ»ÐµÐ´ÑģÑĤÐ²Ð¸Ð¸": 4135,
      "ĠÐ¶Ð¸Ð»": 4136,
      "Ð¡Ð¾Ð²": 4137,
      "ĠÐľÐ°Ð¹": 4138,
      "ĠÐ½Ð¾Ð¼": 4139,
      "ĠÑģÐ¾Ð¾ÑĤÐ²ÐµÑĤÑģÑĤÐ²Ð¸Ð¸": 4140,
      "ĠÐ´ÑĢÐ°Ð¼Ð°ÑĤ": 4141,
      "ĠÐºÐ¸ÑĤÐ°Ð¹": 4142,
      "ĠÐ¸Ð·Ð±ÑĢÐ°Ð½": 4143,
      "ĠÐŁÐ°ÑĢ": 4144,
      "ÑģÑĤÐ¸ÐºÐ¸": 4145,
      "ĠÐĴÐµÐ»Ð¸ÐºÐ¾Ð±ÑĢÐ¸ÑĤÐ°Ð½Ð¸Ð¸": 4146,
      "Ð³ÐµÐ»ÑĮ": 4147,
      "ĠÑģÑĢÐ°Ð¶": 4148,
      "ÐµÑģÐ°": 4149,
      "ĠÐ²ÑģÑı": 4150,
      "ĠÐ´Ð¾Ð¿Ð¾Ð»Ð½Ð¸ÑĤÐµÐ»ÑĮ": 4151,
      "Ð°Ð»ÑĮÐ½Ð¾Ð¼": 4152,
      "ĠÑĩÐ°ÑģÑĤÑĮÑİ": 4153,
      "Ð¾Ð·Ð½": 4154,
      "Ġde": 4155,
      "ĠÐ¼ÐµÑĢ": 4156,
      "ÑĩÐ½Ð¾Ð³Ð¾": 4157,
      "ĠÐ¿ÑĢÐµÐ¸Ð¼ÑĥÑīÐµ": 4158,
      "ĠÐ¸ÑģÐ¿Ð¾Ð»ÑĮÐ·ÑĥÑİÑĤÑģÑı": 4159,
      "ĠÐ´Ð¾ÐºÐ°Ð·": 4160,
      "ĠÑĥÐºÑĢÐµÐ¿": 4161,
      "ÑĢÐ¾Ð¶": 4162,
      "ĠÐ³ÐµÑĢÑĨÐ¾Ð³": 4163,
      "ĠÐĽÐµÐ²": 4164,
      "ĠÐĵÐµÐ½ÑĢÐ¸Ñħ": 4165,
      "ÐµÐ¼ÑĭÐ¹": 4166,
      "ĠÐ¾ÑĢÐ´ÐµÐ½": 4167,
      "ĠÐ±Ð°ÑĢ": 4168,
      "ĠÐ°Ð½Ð°Ð»Ð¾Ð³": 4169,
      "ÑĭÐ²Ð°ÐµÑĤÑģÑı": 4170,
      "ĠÐ¿ÑĢÐ°Ð²Ð»ÐµÐ½Ð¸Ñı": 4171,
      "ÐµÐ½ÑĤÑĭ": 4172,
      "ĠÑĢÐ°Ð·Ð»Ð¸ÑĩÐ½ÑĭÐµ": 4173,
      "ÑĨÐ¸Ð¾Ð½Ð½ÑĭÐµ": 4174,
      "ĠÑıÐ´ÐµÑĢ": 4175,
      "ĠÐ²Ð¾Ð¹Ð½Ðµ": 4176,
      "ĠÐłÐ¾Ð±": 4177,
      "ĠÐĲÑĢÑħ": 4178,
      "ĠÐºÑĤÐ¾": 4179,
      "ĠÐ¿ÑĢÐµÐ´Ð¿Ð¾Ð»Ð°Ð³": 4180,
      "ÑĪÐ»Ð°": 4181,
      "ĠÐ°ÑģÑģ": 4182,
      "ĠÐĵÐ¾ÑĢ": 4183,
      "ĠÐ¸Ð½Ð¶ÐµÐ½": 4184,
      "ĠÐ¿ÐµÑĢÐ¸Ð¾Ð´Ð°": 4185,
      "Ð¾ÑĩÐ½ÑĭÑħ": 4186,
      "ÑĩÐµÐº": 4187,
      "Ð½ÑİÑİ": 4188,
      "ĠÑĥÑĢÐ°Ð²Ð½": 4189,
      "ĠÐĺÐ¾Ð°Ð½": 4190,
      "ÑıÑİÑĤÑģÑı": 4191,
      "ĠÑģÐµÐ·": 4192,
      "ĠÐ¡Ð¸Ð¼": 4193,
      "ĠÑī": 4194,
      "ĠÐ´Ð¾ÑģÑĤÐ°ÑĤÐ¾ÑĩÐ½Ð¾": 4195,
      "ÐºÐ¸Ð¼Ð¸": 4196,
      "Ð¾ÑĢÑĦ": 4197,
      "ĠÐ²Ð¾ÑģÐ¿ÑĢÐ¸": 4198,
      "ĠÑģÐ¾Ð²ÑĢÐµÐ¼ÐµÐ½Ð½Ð¾Ð¹": 4199,
      "Ð°Ð²ÐºÐ°Ð·": 4200,
      "Ð¼Ð¾Ð²": 4201,
      "ĠÐľÐ¾ÑģÐºÐ²Ñĭ": 4202,
      "ess": 4203,
      "ÐļÐ°ÑĤÐµÐ³Ð¾ÑĢÐ¸Ñı": 4204,
      "ĠÑĥÑģÐ¿ÐµÑħ": 4205,
      "Ġ)": 4206,
      "Ġ1997": 4207,
      "ĠÐ¸ÑģÐ¿Ð¾Ð»ÑĮÐ·Ð¾Ð²Ð°ÑĤÑĮ": 4208,
      "ÑĢÐ³": 4209,
      "ĠÐ¡Ð¼": 4210,
      "ĠÑģÐºÑĥÐ»ÑĮÐ¿": 4211,
      "ÑĥÑİÑīÐµÐ³Ð¾": 4212,
      "Ð°Ð±ÑĢÐ¸": 4213,
      "ĠÐ¿ÑĢÐ¾Ð¸ÑģÑħÐ¾Ð¶Ð´ÐµÐ½Ð¸Ñı": 4214,
      "ĠÑģÐ²Ð¾ÑĳÐ¼": 4215,
      "ĠÐ³Ð»Ð°": 4216,
      "Ð»ÑıÐµÑĤÑģÑı": 4217,
      "ĠÑģÐ¾Ð±ÑĢÐ°": 4218,
      "ĠÐ´Ð¸Ð°Ð»": 4219,
      "ÑģÑģÐ¸": 4220,
      "Ð±Ð¾Ð»ÑĮ": 4221,
      "ÑĪÐ¸Ð±": 4222,
      "ĠÐ¼Ð¾ÑĤ": 4223,
      "ĠÑĨÐµÐ½ÑĤÑĢÐ¾Ð¼": 4224,
      "ĠÑĢÐµÐ²Ð¾Ð»ÑİÑĨÐ¸Ð¸": 4225,
      "Ð¾Ð·Ñĭ": 4226,
      "ĠÐ¾Ð±ÑĢÐ°ÑĤ": 4227,
      "Ð¸ÑĤÐµÐ»ÑĮÐ½Ð¾ÑģÑĤÐ¸": 4228,
      "ĠÑĥÑģÑĤÐ°Ð½Ð¾Ð²Ð»ÐµÐ½": 4229,
      "Ð°Ð½Ð°Ð²": 4230,
      "Ð»Ñĳ": 4231,
      "ĠÐ½ÑĥÐ¶": 4232,
      "ĠÐĲÐ½Ð³Ð»Ð¸Ð¸": 4233,
      "ÐłÑĥÑģ": 4234,
      "ĠÐ²ÐµÐ»": 4235,
      "Ð°ÑģÐ°": 4236,
      "ĠÐ¶Ð°Ð½": 4237,
      "Ġ1989": 4238,
      "ĠÐ¢Ð°ÐºÐ¸Ð¼": 4239,
      "ĠÐ±ÑĢÐ¾Ð½": 4240,
      "ĠÐºÐ½ÑıÐ¶Ðµ": 4241,
      "Ð½Ð°ÑĩÐ°ÐµÑĤ": 4242,
      "ĠÑĨÐµÐ»Ð¾Ð¼": 4243,
      "ÐµÐ´Ð°": 4244,
      "ĠÐĵÑĢÑĥÐ·": 4245,
      "ÑĦÐ¾ÑĢÐ¼": 4246,
      "ĠÐ¿ÑĢÐ¾Ðº": 4247,
      "ÑıÑĤÑĮÑģÑı": 4248,
      "ĠÐ¿ÑĢÐ¸Ð½ÑıÐ»": 4249,
      "ĠÐ´ÐµÐ½": 4250,
      "Ð¸ÑĩÐµÑģÐºÑĥÑİ": 4251,
      "ĠÐ¶ÑĥÑĢÐ½": 4252,
      "ĠÑĢÑĥÑģÑģÐºÐ¾Ð³Ð¾": 4253,
      "ĠÐ¼Ð°ÑĢÑĪÑĢÑĥ": 4254,
      "ĠÐ¿Ð°ÑĤÑĢÐ¸": 4255,
      "ĠÐļÑĢÑĭ": 4256,
      "ĠÐ¿ÑĥÑĤÑĳÐ¼": 4257,
      "Ð²Ð°ÑĤÑĮ": 4258,
      "ÑĪÐ°": 4259,
      "ĠÐ¡Ð¾Ð±": 4260,
      "Ġ80": 4261,
      "ĠÐ¼ÑĭÑĪ": 4262,
      "ĠÐ¸ÑģÑħÐ¾Ð´": 4263,
      "ĠÑģÐ¸Ð»Ð°": 4264,
      "ÑĥÑĩÐµÐ½Ð¸": 4265,
      "ĠÐ»Ð¸ÑĤÐµÑĢÐ°ÑĤÑĥÑĢÑĭ": 4266,
      "ĠÐ¿Ð°ÑģÑģÐ°Ð¶": 4267,
      "ĠÐ²Ð¸Ð´Ð°": 4268,
      "ÑĨÐµÐ½Ð¸": 4269,
      "ĠÐ¼ÑĥÑģ": 4270,
      "ÐĿÐ°Ñģ": 4271,
      "ĠÐ¿ÑĢÐ¸ÑģÑĥÑĤÑģÑĤÐ²": 4272,
      "ĠÐ±Ð°ÑĪ": 4273,
      "ĠÐºÐ»Ð°Ð´": 4274,
      "ĠÐ½Ð°Ð»Ð¸Ñĩ": 4275,
      "ĠÐ¿ÐµÑĢÐ²ÑĥÑİ": 4276,
      "Ð´Ð°Ð²": 4277,
      "ĠÐ½Ð°Ð¿ÑĢÑı": 4278,
      "ĠÐ¡ÑĤÐ°ÑĢ": 4279,
      "ĠÑİÐ³Ð¾": 4280,
      "ĠÑĢÐ°ÑģÐ¿Ð¾Ð»Ð¾Ð¶ÐµÐ½": 4281,
      "Ð¾Ð»Ð¾Ð³Ð¸ÑĩÐµÑģÐºÐ¸Ñħ": 4282,
      "95": 4283,
      "ĠÐ·Ð½Ð°ÑĩÐ¸ÑĤÐµÐ»ÑĮÐ½Ð¾": 4284,
      "ÑģÑĤÐ¸ÑĤÑĥÑĤÐ°": 4285,
      "ĠÐ·ÐµÐ¼ÐµÐ»ÑĮ": 4286,
      "ĠÐĲÐºÐ°Ð´ÐµÐ¼": 4287,
      "ĠÑĩÐ°ÑģÐ¾Ð²": 4288,
      "ĠÑģÐ»ÑĥÑĩÐ°Ñı": 4289,
      "ĠÐ²Ð¾Ð·Ð¼Ð¾Ð¶Ð½Ð¾": 4290,
      "ĠÑģÐµÐ²": 4291,
      "ĠÐ½Ð°Ð½": 4292,
      "ĠÐĲÐ»ÐµÐºÑģÐ°Ð½Ð´ÑĢÐ¾Ð²": 4293,
      "Ð¶Ð¸Ð²": 4294,
      "ÐµÐ¹Ð¼": 4295,
      "ĠÑĤÐ¸ÑĤ": 4296,
      "ĠÑĨÐ¸ÑĦ": 4297,
      "ĠÑĩÐ¸ÑģÑĤ": 4298,
      "ÑĢÐ¾Ð²Ð¾Ð´": 4299,
      "ĠÐºÐ¾ÑĤÐ¾ÑĢÐ¾Ð¼Ñĥ": 4300,
      "ĠÐľÐ¸Ð½Ð¸ÑģÑĤ": 4301,
      "ĠÐ·Ð°Ð¼ÐµÑĤ": 4302,
      "ĠÐºÑĢÐ¾Ð¼Ðµ": 4303,
      "Ð°Ð½Ð½ÑĭÐ¼": 4304,
      "ĠÐ¿ÑĢÐ¾Ð¸Ð·Ð²Ð¾Ð´ÑģÑĤÐ²Ð¾": 4305,
      "ĠÐ¿Ð°Ð´": 4306,
      "Ð¸Ð½ÑģÐºÐ°Ñı": 4307,
      "ÑĳÑĢÐ°": 4308,
      "ĠÑģÐ°Ð¹": 4309,
      "Ð¾Ð½Ñĥ": 4310,
      "ĠÐľÐ°ÑĢÐº": 4311,
      "ĠÐ¾ÑģÐ½Ð¾Ð²Ð½ÑĭÑħ": 4312,
      "ĠÐ¿ÐµÑĩÐ°ÑĤ": 4313,
      "ÑĩÐµÑģÐºÐ¸Ð¼": 4314,
      "ĠÑģÐ°Ð¼Ð¾Ð³Ð¾": 4315,
      "ĠÐ½Ð°Ð·Ð²Ð°Ð½Ð¸ÐµÐ¼": 4316,
      "ĠÐ²Ð¼ÐµÑģÑĤÐ¾": 4317,
      "ĠÐ¸Ð½ÑģÑĤÑĢÑĥÐ¼ÐµÐ½ÑĤ": 4318,
      "ĠÐºÑĢÐµÑģÑĤÑĮÑıÐ½": 4319,
      "Ð½ÑĥÐ¶Ð´": 4320,
      "ĠÑĤÑĢÐ°Ð½Ñģ": 4321,
      "Ð¸ÑĨÐµÐ¹": 4322,
      "Ð¸ÑĤÐµÐ»ÑıÐ¼Ð¸": 4323,
      "ĠÐ²ÐµÐ»Ð¸Ðº": 4324,
      "ĠÐµÐ²ÑĢÐµÐ¹": 4325,
      "ĠÑģÐµÑĢÐµ": 4326,
      "ĠÐºÐ°Ð½Ð´Ð¸Ð´": 4327,
      "ÑĨÐ¸ÑıÐ¼Ð¸": 4328,
      "ĠÐ¶Ð¸Ð²Ð¾ÑĤÐ½ÑĭÑħ": 4329,
      "ĠÑģÑĦÐ¾ÑĢÐ¼Ð¸ÑĢÐ¾Ð²": 4330,
      "Ð²Ð°Ð½ÑĤÐ¾Ð²": 4331,
      "ĠÐ¿ÑıÑĤ": 4332,
      "Ð¸ÑĤÐµÐ»ÑĮÐ½Ð¾Ð¹": 4333,
      "ÑĩÐµÐ½": 4334,
      "ĠÐ¿Ð¾Ð»Ð½Ð¾Ð¼": 4335,
      "ÐłÐ°Ð·": 4336,
      "ĠÐŁÑĢÐµ": 4337,
      "Ð°ÑĤÐ¾ÑĢÐ°": 4338,
      "ĠÐ¾Ð±ÑīÐµÐ¹": 4339,
      "ĠÐ³Ð¾Ð²Ð¾ÑĢÐ¸": 4340,
      "Ð·Ð¸Ð¸": 4341,
      "ĠÐ¿ÑĢÐ¾ÑĦÐµÑģÑģÐ¸Ð¾Ð½": 4342,
      "ÑĥÑĢÐ³Ð°": 4343,
      "ĠÐºÐ¾Ð¿": 4344,
      "ĠÑĢÑĥÑģÑģÐºÐ¸Ñħ": 4345,
      "ĠÐ´Ð²Ð¸Ð¶ÐµÐ½Ð¸Ðµ": 4346,
      "Ð±ÐµÐº": 4347,
      "ĠÐ³Ð¾ÑģÑĥÐ´Ð°ÑĢÑģÑĤÐ²ÐµÐ½Ð½Ð¾Ð³Ð¾": 4348,
      "ĠÐ²ÐµÐ»Ð¸": 4349,
      "ÐµÑģÐ¼Ð¾ÑĤÑĢÑı": 4350,
      "ĠÐĲÑħ": 4351,
      "ĠÐºÐ¾Ð½ÑģÑĤÐ¸ÑĤÑĥ": 4352,
      "ĠÑĩÐ¸ÑģÐµÐ»": 4353,
      "Ð¾Ð±ÑĥÑģ": 4354,
      "ÑĤÐ¾ÑĢÐ¾Ð¼": 4355,
      "ĠÐ»Ð°ÑĥÑĢÐµ": 4356,
      "ĠÑģÐµÑĢÐµÐ´Ð¸Ð½Ðµ": 4357,
      "ÑĩÐµÑģÑĤÐ²Ð¾": 4358,
      "ĠÐ¡Ð¾Ð»": 4359,
      "Ð°ÑĨ": 4360,
      "ÑĢÐ¾Ð¸Ð·Ð²Ð¾Ð´": 4361,
      "ĠÑĤÑıÐ¶ÑĳÐ»": 4362,
      "Ð¾ÑĩÑĳÑĤ": 4363,
      "ĠÑģÐµÐ³": 4364,
      "ĠÐĵÑĥ": 4365,
      "ĠÐŀÑģÑĤ": 4366,
      "ĠÐĺÑĤÐ°Ð»Ð¸Ð¸": 4367,
      "ÑĥÐ»Ñĭ": 4368,
      "ĠÐĺÑģ": 4369,
      "ĠÐŀÑĤÐµÑĩÐµÑģÑĤÐ²ÐµÐ½Ð½Ð¾Ð¹": 4370,
      "ĠÐ¾Ð³ÑĢÐ¾Ð¼": 4371,
      "75": 4372,
      "ĠÐ´ÐµÑģÑıÑĤÐ¸": 4373,
      "Ð¸ÑģÑĤÑĭ": 4374,
      "Ð¼Ð¾Ð½Ð°Ð²": 4375,
      "Ð¸ÐºÐ¾": 4376,
      "Ð¾ÑĢÐ¾Ð¼": 4377,
      "ĠÐĲÑĤ": 4378,
      "85": 4379,
      "ĠÐ´ÑĥÑĪ": 4380,
      "ĠÐ¶Ð¸Ð´": 4381,
      "96": 4382,
      "ÐµÑģÐº": 4383,
      "ĠÑĢÐµÑģÐ¿ÑĥÐ±Ð»Ð¸ÐºÐ¸": 4384,
      "ĠÐ¼Ð°Ð½": 4385,
      "ĠÑģÑĢÐµÐ´ÑģÑĤÐ²": 4386,
      "ĠÑģÐ¾Ð±ÑĭÑĤÐ¸Ñı": 4387,
      "ĠÑĦÐ°ÐºÑĥÐ»ÑĮÑĤ": 4388,
      "ÑĤÐµÐ·": 4389,
      "ÑĢÑĥÐµÑĤ": 4390,
      "Ġ70": 4391,
      "Ġ&": 4392,
      "ĠÑĤÐ¾Ð½Ð½": 4393,
      "45": 4394,
      "Ð½ÑıÑĤ": 4395,
      "ĠÐ¿Ð¾Ð»Ð¾Ð¶ÐµÐ½Ð¸Ðµ": 4396,
      "Ġ1945": 4397,
      "ĠÑĢÑıÐ´Ð°": 4398,
      "ÑģÐ¾": 4399,
      "ÐµÐ»ÐµÐ½": 4400,
      "ÑĤÑĭÑģ": 4401,
      "ĠÐ¾Ð´Ð½Ð¾Ð¼": 4402,
      "ĠÐ±ÐµÐ·Ð¾Ð¿Ð°ÑģÐ½Ð¾ÑģÑĤÐ¸": 4403,
      "ĠÐĴÑĤÐ¾ÑĢÐ¾Ð¹": 4404,
      "ĠÐºÐ°Ð±": 4405,
      "ÑĢÐ°Ð·Ñĥ": 4406,
      "ĠÐ°ÐºÐ°Ð´ÐµÐ¼Ð¸Ð¸": 4407,
      "ĠÑģÐ²ÐµÑĤÐ°": 4408,
      "ÐµÐ²ÑģÐºÐ¸Ð¹": 4409,
      "Ð³Ð¾Ð´Ð°Ñħ": 4410,
      "ĠÐŁÐ¾Ñį": 4411,
      "ĠÐ¿ÑĤÐ¸": 4412,
      "ĠÐ¿Ð¾Ð»Ðµ": 4413,
      "ĠĊĠ": 4414,
      "ĠÐ·Ð°ÑīÐ¸ÑĤ": 4415,
      "ĠÑįÑĦÑĦÐµÐºÑĤÐ¸Ð²": 4416,
      "ĠÐĵÐ¾Ð»": 4417,
      "ab": 4418,
      "ÑģÐµÐ¼": 4419,
      "ĠÐ»ÑĳÐ³": 4420,
      "ÐµÐ½Ð¸ÑıÐ¼": 4421,
      "ĠÐĴÐ¿": 4422,
      "ÑĩÐ½Ð°Ñı": 4423,
      "Ð¾Ð²ÑĭÐ¹": 4424,
      "ĠÐ¿ÑĢÐ¾ÐµÐº": 4425,
      "Ð¾Ð»ÐµÑĤ": 4426,
      "ĠÐĲÐ·Ð¸Ð¸": 4427,
      "ĠÐ½Ð°Ð³ÑĢÐ°": 4428,
      "Ġ35": 4429,
      "ÐºÐ°Ð·ÑĭÐ²": 4430,
      "Ð»ÑıÐ½Ð´": 4431,
      "Ð¾ÐºÐ¾Ð¼": 4432,
      "ĠÐ»ÑİÐ´Ð¸": 4433,
      "ĠÐ³Ð»Ð°Ð²Ð½ÑĭÐ¼": 4434,
      "ÑĨÐ¸Ð¾Ð½Ð½ÑĭÐ¹": 4435,
      "ĠÑĢÐ°ÑģÑĪÐ¸ÑĢ": 4436,
      "ĠÐļÐ°ÑĢÐ»": 4437,
      "Ð°Ð´Ð¶": 4438,
      "Ð¾ÑĢÐµÑĨ": 4439,
      "ĠÐ´Ð¾Ð±Ñĭ": 4440,
      "ĠÐ³Ð»": 4441,
      "Ð½Ð¸ÐºÐµ": 4442,
      "Ð»Ð°Ð³Ð°": 4443,
      "ĠÐ²Ð¾ÐµÐ½Ð½Ð¾": 4444,
      "ÑģÑĤÐ¸ÐºÐ°": 4445,
      "ĠÐĹÐ´": 4446,
      "ĠÐ¿Ð¸Ñī": 4447,
      "ĠÐ½ÑĭÐ½Ðµ": 4448,
      "ĠÑĤÐ°Ð¹": 4449,
      "ĠÐ°Ð²ÑĤÐ¾Ð½Ð¾Ð¼": 4450,
      "ĠÑįÐ½ÐµÑĢÐ³Ð¸Ð¸": 4451,
      "ĠÐ³Ð¾ÑĢÐ¾Ð´ÑģÐºÐ¾Ð¹": 4452,
      "ĠÐ°ÑĢÐ¼ÑıÐ½": 4453,
      "ĠÐĲÑĢÐ¼": 4454,
      "ĠÐ¼ÐµÑģÑĤÐ°": 4455,
      "ĠÑĪÐ¸ÑĢÐ¾ÐºÐ¾": 4456,
      "ĠÐĲÐ½ÑĤÐ¸": 4457,
      "ĠÐĶÐµÐ½ÑĮ": 4458,
      "ĠÐ³Ð¾ÑģÑĥÐ´Ð°ÑĢÑģÑĤÐ²": 4459,
      "ĠÐ¾ÑĪÐ¸Ð±": 4460,
      "Ð°Ð»ÑĮÐ½ÑĥÑİ": 4461,
      "Ð¼Ð¼": 4462,
      "Ð´Ð¾Ð¼": 4463,
      "ÑĦÐ¸Ðº": 4464,
      "ÐºÑĤÐ¾Ð²": 4465,
      "ÑħÐ¸": 4466,
      "ĠÐĽÐ¸Ð²": 4467,
      "ÑıÑĢ": 4468,
      "ĠÐ²ÑĭÑĩÐ¸Ñģ": 4469,
      "ĠÐ½Ð°ÑĢÐ¾Ð´Ð°": 4470,
      "Ð°ÑĢÐ¸Ñı": 4471,
      "ĠÑĢÐ°ÑģÐº": 4472,
      "ĠÑĩÐ»ÐµÐ½Ð¾Ð²": 4473,
      "ĠÐ·Ð°Ð±Ð¾Ð»ÐµÐ²": 4474,
      "ĠÐ¿Ð¾ÑıÐ²Ð»Ñı": 4475,
      "ĠÐĵÐ¾ÑĢÐ¾Ð´": 4476,
      "ÑĳÐ·Ð´": 4477,
      "ĠÑįÑĤÑĥ": 4478,
      "ĠÐ¿Ð¾ÑħÐ¾Ð´": 4479,
      "ĠÐ¾Ð´Ð½Ð¾Ð²ÑĢÐµÐ¼ÐµÐ½Ð½Ð¾": 4480,
      "ĠÐ¦Ðļ": 4481,
      "ub": 4482,
      "33": 4483,
      "ĠÑģÑĤÐ¾": 4484,
      "Ð³Ð¾Ð²Ð¾ÑĢ": 4485,
      "Ð¼Ð»ÑĢÐ´": 4486,
      "ĠÑĦÐ¸Ð»Ð¾ÑģÐ¾ÑĦÐ¸Ð¸": 4487,
      "Ð¸Ð¼ÐµÐ½Ð¾Ð²": 4488,
      "ĠÑģÐ¼Ð¾Ð³": 4489,
      "ĠÐ¸ÑģÐ¿Ð¾Ð»": 4490,
      "ĠÐºÐ¾Ð¼Ð¿Ð°Ð½Ð¸Ñı": 4491,
      "ÐºÐ»Ð¾Ð½": 4492,
      "ĠÐºÐ½ÑıÐ·ÑĮ": 4493,
      "ĠÐ¿Ð¾Ð±ÐµÑĢÐµÐ¶": 4494,
      "ĠÐ³ÐµÐ½": 4495,
      "ĠÐ¿Ð°ÑĢÑĤÐ¸Ð¹": 4496,
      "ÑİÐ¶": 4497,
      "ĠÐ¿ÑĢÐ¾ÐµÐºÑĤ": 4498,
      "ĠÐ½Ð°ÑĢÐ¾Ð´Ð¾Ð²": 4499,
      "ĠÑģÐ¿ÑĢÐ°Ð²": 4500,
      "Ð¸ÑĤÐµÐ»ÑĮÐ½Ð¾Ð³Ð¾": 4501,
      "ĠÐ´Ð¸ÑģÐº": 4502,
      "Ð¶ÐµÐ³Ð¾Ð´": 4503,
      "Ð¾ÐºÐ¾Ð»": 4504,
      "ĠÐ°ÑĤÐ¼Ð¾Ñģ": 4505,
      "ĠÑĤÐµÐ¼Ð¿ÐµÑĢÐ°ÑĤÑĥÑĢÐ°": 4506,
      "ĠÑģÐµÐºÑĢÐµÑĤ": 4507,
      "ĠÑĩÐµÐ»": 4508,
      "ĠÐ°ÑģÑĤÑĢÐ¾Ð½Ð¾Ð¼": 4509,
      "Ð½ÐµÐ²ÐµÐº": 4510,
      "ĠÐĴÐ°ÑģÐ¸Ð»ÑĮ": 4511,
      "Ð¾ÑĢÐµÐ¼": 4512,
      "ĠÐ¸ÑģÐ¿Ð¾Ð»ÑĮÐ·Ð¾Ð²Ð°Ð½Ð¸Ñı": 4513,
      "ÐµÐ¾Ð´": 4514,
      "Ð³Ð¾Ðµ": 4515,
      "ĠÑģÐµÐ¼ÐµÐ¹": 4516,
      "ĠÐ¯Ð¿Ð¾Ð½Ð¸Ð¸": 4517,
      "Ð½ÐµÑĤ": 4518,
      "ĠÐ¸Ð½Ð¸": 4519,
      "ĠÑĢÐµÑĪÐµÐ½Ð¸Ñı": 4520,
      "ĠÑģÐ¾Ð¾ÑĢÑĥÐ¶": 4521,
      "ĠÐºÐ°ÑĤÐµÐ³Ð¾": 4522,
      "ĠÐ¿Ð¾Ð»ÑĥÑĩÐ¸Ð»Ð¸": 4523,
      "Ð½Ð¾Ð¿": 4524,
      "ÑģÑĥÑĢ": 4525,
      "ĠÑĩÐ¸ÑĤ": 4526,
      "ĠÐĴÐµÑĢ": 4527,
      "Ð¾Ð¶Ð´Ðµ": 4528,
      "ĠÐŃÑĤÐ¾ÑĤ": 4529,
      "ĠÐ¶Ð¸Ð²Ð¾Ð¿Ð¸Ñģ": 4530,
      "ÑĥÐ·Ñĭ": 4531,
      "ĠÐĲÐ½ÑĤÐ¾Ð½": 4532,
      "Ð¾ÑİÐ·": 4533,
      "ĠÐ»Ðµ": 4534,
      "ĠÐľÐ¾ÑģÐºÐ²Ð°": 4535,
      "ĠÐ½ÐµÑĳ": 4536,
      "ĠÐ¿Ð»Ð°Ð½Ð¸": 4537,
      "ĠÑĢÐµÐ¶Ð¸Ð¼": 4538,
      "ÑĦÐµÐ´": 4539,
      "ĠÐļÐ°ÑĢÐ°": 4540,
      "ĠÑģÐ°Ð¼Ð¾Ð»ÑĳÑĤ": 4541,
      "ĠÐĶÑĢÐµÐ²": 4542,
      "ĠÐ¿ÑĢÐµÐ´Ð¼ÐµÑĤ": 4543,
      "ĠÐĹÐµÐ¼Ð»Ð¸": 4544,
      "ÑģÑĤÑĢÐ¸": 4545,
      "ÑĥÐ»ÑĮÐ¼Ð°Ð½": 4546,
      "Ð²ÐµÑī": 4547,
      "ĠÑĦÐ¾ÑĢÐ¼Ðµ": 4548,
      "ĠÐ¿ÑĢÐ¾ÑĤÐµÑģÑĤ": 4549,
      "ĠÐ¡ÐµÐ²ÐµÑĢÐ½Ð¾Ð¹": 4550,
      "ĠÐ¿ÑĢÐµÐ´Ð¿Ð¾Ð»Ð¾Ð¶": 4551,
      "ĠÐ¡Ð¾": 4552,
      "ĠÑĥÑģÐ¿ÐµÑĪ": 4553,
      "ĠÐ¿Ð¾Ð»ÑĥÑĩÐ¸Ð»Ð°": 4554,
      "ce": 4555,
      "ÐºÐ¾Ð²ÑģÐºÐ¸Ð¹": 4556,
      "ĠÐ¼ÐµÑĢÐµ": 4557,
      "ĠÑĢÐ¾Ð»Ð¸": 4558,
      "Ð»ÑıÐ½": 4559,
      "ĠÐ´ÐµÑĢÐ¶": 4560,
      "ĠÑįÐºÐ·": 4561,
      "ÑģÑĤÐ°Ð½Ð¾Ð²": 4562,
      "ĠÐĽÑĮ": 4563,
      "ĠÑģÐ¸ÑģÑĤÐµÐ¼Ñĥ": 4564,
      "ĠÐ½Ð¾Ð²Ð¾Ð¹": 4565,
      "ÑĨÐ¸Ð¾Ð½Ð½Ð¾Ð³Ð¾": 4566,
      "ĠÐ²ÐµÑī": 4567,
      "ĠÐ½Ð°ÑĩÐ¸Ð½": 4568,
      "ĠÐ²Ð°Ð»": 4569,
      "ĠÐ²Ð¾ÐºÑĢÑĥÐ³": 4570,
      "Ð¸Ð²Ð°ÑĤÑĮ": 4571,
      "ĠÐ¿Ð¾Ð²ÐµÑĢÑħÐ½Ð¾ÑģÑĤÐ¸": 4572,
      "ÐļÐ¾Ð¼": 4573,
      "ÐºÑĢÐ°ÑĤ": 4574,
      "ÑĢÐ¸Ð¿": 4575,
      "ĠÐ±Ð¾Ð»ÑĮÑĪÐ¾Ðµ": 4576,
      "Ð¸Ð½Ð¾Ð¼": 4577,
      "ĠÐ²ÑĭÑģÑĤÐ°Ð²": 4578,
      "ĠÐ°Ð·": 4579,
      "ÐµÑĢÑĥ": 4580,
      "Ð¶Ð´Ðµ": 4581,
      "ĠÑģÐ¿Ð¾ÑĢÑĤÐ¸Ð²": 4582,
      "ĠÐºÑĢÐµÑģÑĤ": 4583,
      "ÑģÑĤÐ²ÑĥÐµÑĤ": 4584,
      "ĠÐ¿ÑĢÐµÐ¿Ð°ÑĢÐ°": 4585,
      "ĠÐŃÐ´": 4586,
      "Ġ1950": 4587,
      "Ð²Ð°Ð½Ð¸Ðµ": 4588,
      "ĠÐ½Ð°ÑħÐ¾Ð´ÑıÑĤÑģÑı": 4589,
      "Ð°Ð»Ð¸ÑĤ": 4590,
      "ĠÐ´Ð²ÑĥÐ¼Ñı": 4591,
      "ard": 4592,
      "ĠÐĲÐº": 4593,
      "ĠÐ¸Ð»": 4594,
      "ĠÑĤÐµÐ½": 4595,
      "ĠÐŁÐµÑĤÑĢÐ¾Ð²": 4596,
      "ud": 4597,
      "ÑĤÑĢÐ°": 4598,
      "ÑĢÐ°Ð½Ð¸Ñı": 4599,
      "36": 4600,
      "ĠÐ¼ÐµÐ¶": 4601,
      "ĠÐºÐ°ÑĤÐ¾Ð»": 4602,
      "ĠÑĢÐ°Ð·Ð¼": 4603,
      "Ð½ÐµÐ½Ð¸Ñı": 4604,
      "ÑĳÐ½Ð½Ð¾Ðµ": 4605,
      "ĠÐ¼Ð¾Ð´ÐµÐ»Ð¸": 4606,
      "ĠÐĽÐ¾Ð½Ð´": 4607,
      "ĠÐ¿ÑĢÐµÑģÑĤÑĥÐ¿": 4608,
      "ÐĵÐµ": 4609,
      "ĠÐ³ÐµÑĢÐ±": 4610,
      "ÐµÐ¹Ð½Ð°": 4611,
      "Ð½Ð¾Ð¾Ð±ÑĢÐ°Ð·": 4612,
      "Ð¸ÑĤÐµÐ»ÑĮÐ½Ð¾Ðµ": 4613,
      "ĠÑĦÐ¾ÑĢÐ¼Ð°": 4614,
      "ÐµÑĤÐ¾Ð¼": 4615,
      "ĠÐ½Ð¸Ð¶Ðµ": 4616,
      "ĠÑĥÑģÐ¸": 4617,
      "ĠÐ¿ÐµÑĢÐµÐ¼ÐµÐ½": 4618,
      "ĠÐ²ÐµÑīÐµÑģÑĤÐ²Ð°": 4619,
      "Ð°ÑħÐ°": 4620,
      "ĠÐ¾ÑĤÐ½Ð¾ÑģÑıÑĤÑģÑı": 4621,
      "ÐĳÐ¸": 4622,
      "ĠÐ²ÑĭÐ¿Ð¾Ð»Ð½Ñı": 4623,
      "ĠÐĨ": 4624,
      "ĠÐ½Ð°ÑĩÐ°Ð»Ð¸": 4625,
      "und": 4626,
      "ĠÐ»Ð¸Ð´": 4627,
      "ĠÐ¿ÑĢÐµÑģÑĤ": 4628,
      "ÐµÐºÐ¸": 4629,
      "ĠÑħÑĢÐ°Ð½": 4630,
      "Ð°ÑĤÐ°ÑĢ": 4631,
      "Ð¾ÑĨ": 4632,
      "Ð¶Ñĥ": 4633,
      "ĠÐ¾Ð±Ð¾ÑĢÑĥÐ´": 4634,
      "ĠÐ´Ð¾Ð»Ð»Ð°ÑĢÐ¾Ð²": 4635,
      "ÑħÐ¾Ð²": 4636,
      "ĠÐ±Ð¾Ð³Ð°ÑĤ": 4637,
      "Ð¿ÑĥÑģÐº": 4638,
      "Ð¸Ð»ÐµÐ¹": 4639,
      "ĠÐ¿Ð¾Ð´ÑĢÐ°Ð·": 4640,
      "ĠÐºÐ¾Ð¼Ð¸Ñģ": 4641,
      "ÐĶÐ¾": 4642,
      "ÑĥÑīÐ¸Ñħ": 4643,
      "ÐĵÐ¾ÑĢÐ¾Ð´": 4644,
      "ÐºÐ»Ð°Ð´": 4645,
      "ĠÐŁÐ¾Ñģ": 4646,
      "Ð°Ð½Ð¸ÑıÑħ": 4647,
      "ĠÐºÑĢÐ°Ñı": 4648,
      "ÐºÐ¾Ð¿": 4649,
      "ĠÑĤÑĥ": 4650,
      "ĠÐ¡ÑĢÐµÐ´Ð¸": 4651,
      "Ð¾Ð»Ð¾Ð³Ð¸ÑĩÐµÑģÐºÐ¸Ðµ": 4652,
      "ĠÐ¾Ð»Ð¸Ð¼Ð¿Ð¸Ð¹": 4653,
      "ĠÐºÑĢÑĥÐ¿Ð½ÑĭÑħ": 4654,
      "ĠÐ´ÐµÐ¿ÑĥÑĤÐ°ÑĤÐ¾Ð²": 4655,
      "Ġ1944": 4656,
      "ĠÑĤÑĢÑĥÐ´Ð°": 4657,
      "Ð°Ð½Ð¸ÐµÐ¹": 4658,
      "ĠÐľÐ°Ð³": 4659,
      "ĠÐ³Ð¾ÑģÑĥÐ´Ð°ÑĢÑģÑĤÐ²Ð¾": 4660,
      "ĠÐĿÐ°ÑĢÐ¾Ð´": 4661,
      "ĠÐ²Ð¾ÐµÐ½Ð½ÑĭÑħ": 4662,
      "ĠÐĶÐ¾": 4663,
      "ĠÐ¿Ð¾ÑģÑĤÐµÐ¿": 4664,
      "Ġ1940": 4665,
      "ĠÐ¸Ð·Ð¼ÐµÐ½ÐµÐ½Ð¸Ñı": 4666,
      "ĠÐĲÐ³": 4667,
      "ĠÐ¿ÑĢÐ¾Ð¸Ð·Ð²ÐµÐ´ÐµÐ½Ð¸Ñı": 4668,
      "Ð°Ð¹Ð´Ð¶": 4669,
      "ĠÑĥÐ¿Ð¾Ð¼Ð¸Ð½Ð°": 4670,
      "ĠÐĴÐµÑĢÑħÐ¾Ð²Ð½Ð¾Ð³Ð¾": 4671,
      "Ð¼Ð¾ÑĢ": 4672,
      "Ð¾Ð½Ð¾Ñģ": 4673,
      "Ð½Ð¸Ð·": 4674,
      "ĠÐ¿ÑĢÐ¸Ð½Ð¸Ð¼Ð°": 4675,
      "ÑĤÐ¾ÑĢÐ°Ñı": 4676,
      "Ð°Ð¼ÐµÐ½ÑĤ": 4677,
      "ÐĵÐ£": 4678,
      "Ð¿Ð¾Ð»Ð¸ÑĤ": 4679,
      "ĠÐĴÐ¾Ð·": 4680,
      "Ð¸Ð¾": 4681,
      "ĠÐ¿ÑĢÐ¸ÑĤ": 4682,
      "ĠÐ»ÐµÑĩ": 4683,
      "ÐµÑĢÐµÐ·": 4684,
      "76": 4685,
      "ĠÐ¿Ð¾Ð´Ð°Ð²": 4686,
      "Ð¸ÑĢÐ¾Ð²Ð°ÑĤÑĮ": 4687,
      "ĠXVII": 4688,
      "ÐºÐ½Ð¾Ð²": 4689,
      "ÐµÐ½Ð½Ð¾Ð¼": 4690,
      "Ð¡ÑĢÐµÐ´": 4691,
      "Ð±ÑĢÐ°": 4692,
      "Ð¡Ð¾Ð³Ð»Ð°ÑģÐ½Ð¾": 4693,
      "Ð°ÑģÐº": 4694,
      "ĠÐĹÐ°Ð²": 4695,
      "ĠÑĤÐµÐ°ÑĤÑĢ": 4696,
      "ĠÐĿÐ°Ñĩ": 4697,
      "ĠÐ·Ð°Ð¿ÑĢÐµÑī": 4698,
      "Ð¸Ð½ÑĮ": 4699,
      "ĠÐ¿ÐµÑĢÐ²Ð¾Ðµ": 4700,
      "Ð²Ð°Ð»ÑĮ": 4701,
      "Ð¾Ð±ÐµÐ»ÐµÐ²": 4702,
      "Ð¸ÑĩÐµÑģÐºÐ¾Ð¼": 4703,
      "Ð¼Ð¸Ð½Ð¸ÑģÑĤ": 4704,
      "ĠÑģÐ»Ð°Ð²ÑıÐ½": 4705,
      "34": 4706,
      "ĠÑģÐ¿ÑĥÑĤ": 4707,
      "ÑĤÐ°Ð½": 4708,
      "ÐļÐ¾Ð½": 4709,
      "ĠÑģÐ¸Ð»ÑĮÐ½Ð¾": 4710,
      "ĠÐĿÐ¾ÑĢ": 4711,
      "ĠÐŀÐ½Ð°": 4712,
      "ĠÐĴÐµÐ»Ð¸": 4713,
      "Ð°Ð·Ð°": 4714,
      "ĠÑģÐ¸Ð»Ñĥ": 4715,
      "ĠÐ¿ÑĥÑĤÐµÑĪÐµ": 4716,
      "ÑĭÐ½": 4717,
      "ÑĨÐµÐ¿": 4718,
      "Ð»Ð¸Ð²Ð°": 4719,
      "ÑĢÐ¸Ðº": 4720,
      "ĠÑģÐ¾ÐºÑĢÐ°Ñī": 4721,
      "ĠÐ´Ð¸Ð²Ð¸Ð·": 4722,
      "ĠÐ¿ÐµÑĩ": 4723,
      "ÑĮÐµÐ²": 4724,
      "ÑĭÐ²Ð°ÐµÑĤ": 4725,
      "ĠÑģÐ»ÑĥÑĩÐ°Ð¹": 4726,
      "ĠÑģÐ»ÐµÐ´ÑĥÑİÑīÐ¸Ðµ": 4727,
      "ĠÐ½Ð¸ÐºÐ°Ðº": 4728,
      "ĠXVI": 4729,
      "ĠÐ¼Ð»": 4730,
      "ĠÑħÑĢÐ°Ð¼": 4731,
      "Ð¾Ð´Ð½Ñı": 4732,
      "ĠÐ±ÑĭÑģÑĤÑĢÐ¾": 4733,
      "ĠÐ¿ÐµÑĢÑģÐ¾Ð½Ð°": 4734,
      "ĠÐľÐ¸ÑĢ": 4735,
      "ĠÐ¶ÐµÐ½ÑīÐ¸Ð½": 4736,
      "ĠÐ°ÑįÑĢÐ¾Ð¿": 4737,
      "ĠÐ³Ð¾Ñģ": 4738,
      "Ð¸ÑĨÐ¸": 4739,
      "ĠÐ¿Ð¸ÑĤ": 4740,
      "ĠÐºÑĢÐ°ÑĤ": 4741,
      "ĠÐ½Ð°Ð¿ÑĢÐ°Ð²Ð»ÐµÐ½Ð¸Ñı": 4742,
      "ĠÑĤÐµÑĢÐ¼": 4743,
      "ĠÐ¼Ð°Ð³Ð½Ð¸ÑĤ": 4744,
      "ÐµÐ»ÐµÐ·": 4745,
      "ĠÐ¾ÑĢÐ´ÐµÐ½Ð°": 4746,
      "ĠÑģÑĤÑĢÐµÐ¼": 4747,
      "ĠÐ¿ÑĢÐ¸Ð´": 4748,
      "ĠÐ´Ð¾ÑĢÐ¾Ð³Ð¸": 4749,
      "Ð¿Ðµ": 4750,
      "ĠÐ»ÐµÐ¶": 4751,
      "ĠÐºÐ¾Ð½ÑĨÐµÐ½ÑĤ": 4752,
      "ĠÐ´ÑĢÑĥÐ³Ð¸Ð¼": 4753,
      "64": 4754,
      "Ð°ÑĤÐ°ÑģÑĤÑĢÐ¾": 4755,
      "Ð¸ÑģÐ¾Ðº": 4756,
      "ĠÐ¶ÐµÑĢÑĤ": 4757,
      "ĠÐĽÐ¸ÑĤ": 4758,
      "ĠY": 4759,
      "ĠÐŃÑĢ": 4760,
      "Â»:": 4761,
      "98": 4762,
      "ĠÑĢÑĥÑģÑģÐºÐ¾Ð¼": 4763,
      "ĠÐºÐ¾Ð½ÑĨÐµÐ¿": 4764,
      "ĠÑģÐ°Ð¼Ð¸": 4765,
      "ÐµÑĢÐ±Ð°Ð¹Ð´Ð¶": 4766,
      "Ð¿ÐµÑĢÐ°ÑĤÐ¾ÑĢ": 4767,
      "ĠÐ¸Ð½ÑĤÐµÑĢÐµÑģ": 4768,
      "ĠÐĿÑĮÑİ": 4769,
      "ÑĪÐ¸ÑħÑģÑı": 4770,
      "ĠÑĪÐ°ÑħÐ¼Ð°ÑĤ": 4771,
      "ĠÐ²ÑĭÐ½ÑĥÐ¶Ð´": 4772,
      "ĠÑĤÐµÐ¾ÑĢÐµ": 4773,
      "ĠÑĢÐ¾Ðº": 4774,
      "ÐµÐµÐ²": 4775,
      "ĠÐĺÑģÐ¿Ð°Ð½Ð¸Ð¸": 4776,
      "ÐµÐ»Ñĳ": 4777,
      "Ð°ÑİÑīÐµÐ¹": 4778,
      "ÑģÑĤÐµÑĢ": 4779,
      "ĠÐĿÐ¸Ð¶": 4780,
      "Ð¸ÑĤÐµÐ»ÑĮÐ½Ð¾ÑģÑĤÑĮ": 4781,
      "ĠÑģÐ¾ÑģÑĤÐ¾ÑıÐ½Ð¸Ñİ": 4782,
      "ĠÑĢÐ°Ð±Ð¾ÑĤÐµ": 4783,
      "Ð¾ÑĢÑıÐ´": 4784,
      "Ð½Ð¸ÐµÐ¼": 4785,
      "ÑĤÐ¾Ð»": 4786,
      "ÐµÐ¼Ð¾Ð¹": 4787,
      "ĠÐĽÐ°ÑĤ": 4788,
      "ĠÐ¾ÑĤÐ½Ð¾ÑĪÐµÐ½Ð¸Ð¸": 4789,
      "ÐºÐ»Ð¸": 4790,
      "ĠÐ²Ð¾Ð·Ð¼Ð¾Ð¶Ð½Ð¾ÑģÑĤÐ¸": 4791,
      "ĠÐ½Ð¾ÑĢÐ¼": 4792,
      "av": 4793,
      "Ġ1943": 4794,
      "ĠÐ¼Ð¸Ð½Ð¸Ð¼": 4795,
      "ĠÐ¼Ð°ÑģÑĤÐµÑĢ": 4796,
      "ĠÐ½ÐµÐ¿ÑĢÐ¸": 4797,
      "ĠÐ¿Ð»Ð¾ÑīÐ°Ð´ÑĮ": 4798,
      "Ð´Ð¸Ðº": 4799,
      "Ð²ÐµÐ¹ÑĨ": 4800,
      "Ð¾Ð¹ÑĩÐ¸Ð²": 4801,
      "ĠÐ³ÑĥÐ±ÐµÑĢÐ½": 4802,
      "37": 4803,
      "ĠÐ¿ÑĭÑĤ": 4804,
      "ĠÐ¾ÑĤÐ¼Ðµ": 4805,
      "Ð°ÑİÑīÐ¸Ð¹": 4806,
      "Ð°Ð½ÑģÐºÐ¸Ñħ": 4807,
      "ĠÐ²Ð½": 4808,
      "ĠÐ¢ÑĢÑĥ": 4809,
      "ĠÐ¼Ð°ÐºÑģÐ¸Ð¼": 4810,
      "Ð¸Ð½ÑģÐºÐ¸Ñħ": 4811,
      "ĠÐºÐ¾ÑĢÐ¾ÑĤ": 4812,
      "Ð»Ð¸ÑĤ": 4813,
      "ĠÐĺÐ³": 4814,
      "ÑĤÐ¸ÑĩÐµÑģÐºÐ¸Ñħ": 4815,
      "Ð¸Ð½ÑģÑĤÐ²Ð¾": 4816,
      "ĠÐľÐ°Ð½": 4817,
      "ĠÑģÐ²Ñı": 4818,
      "ÑĢÐ¾Ð´Ñĥ": 4819,
      "ĠÑįÐ¼Ð¸": 4820,
      "ÑīÐ¸Ðº": 4821,
      "Ð¸ÑĩÐµÑģÐºÐ¸Ð¼Ð¸": 4822,
      "ĠÑħÐ¾Ð»": 4823,
      "ĠÑĪÐ²ÐµÐ´": 4824,
      "ĠÐ»Ð¸ÑĤÐµÑĢÐ°ÑĤÑĥÑĢÐµ": 4825,
      "ÑģÐ¾Ð»ÑİÑĤ": 4826,
      "Ð¾ÐºÐ¾": 4827,
      "ĠÐĵÐµÑĢÐ¾Ð¹": 4828,
      "ÑĨÐµÐ¼": 4829,
      "ĠÐ½Ð°ÑĢÐ¾Ð´Ð½ÑĭÐ¹": 4830,
      "ĠÐ¾ÑĤÐ½Ð¾ÑģÐ¸ÑĤÑģÑı": 4831,
      "ĠÐ¼Ð¸ÑĤ": 4832,
      "ÑĥÑīÐµÐ³Ð¾": 4833,
      "ĠÑģÐ¾Ð¾ÑĤÐ²ÐµÑĤÑģÑĤÐ²ÐµÐ½Ð½Ð¾": 4834,
      "Ð¡ÐºÐ¾Ð½Ñĩ": 4835,
      "ĠÑĢÐ°Ð±Ð¾ÑĤÐ°Ð»": 4836,
      "ĠÐķÐ²Ð³": 4837,
      "94": 4838,
      "ct": 4839,
      "Ð¸Ð°ÑĤ": 4840,
      "Ġ978": 4841,
      "ĠÐ¿ÑĢÐ¸ÑĪ": 4842,
      "ĠÐ¿Ð¾Ñı": 4843,
      "ĠÑıÑĢ": 4844,
      "Ð»ÐµÐ½Ð½ÑĭÑħ": 4845,
      "ĠÑģÐ¾Ð¿ÑĢÐ¾Ð²": 4846,
      "ĠÐ¿ÑĢÐ¾ÑĢ": 4847,
      "ĠÐ¼Ð¾ÑģÐºÐ¾Ð²": 4848,
      "Ð³Ð¾Ð½": 4849,
      "ĠÐ¾Ð±ÑĬÑĳÐ¼": 4850,
      "ĠÐ¼Ð¾Ð³Ð»Ð¸": 4851,
      "97": 4852,
      "ĠÐ°ÑĢÐ¼Ð¸Ñı": 4853,
      "ĠÐ¡Ð°": 4854,
      "ĠÐļÐ¾Ð½ÑģÑĤÐ¸ÑĤÑĥ": 4855,
      "ĠÐļÐ°Ð¿": 4856,
      "ĠÐŁÑĢÐµÐ·Ð¸Ð´ÐµÐ½ÑĤ": 4857,
      "ÑģÐµÐ²": 4858,
      "ĠÐŀÐºÑĤ": 4859,
      "ÐĲÐĿ": 4860,
      "ĠÐ¼ÑĥÐ·ÑĭÐºÐ°Ð½": 4861,
      "65": 4862,
      "ĠÐºÐ¸Ð»": 4863,
      "Ð½Ð°Ð·Ð½Ð°Ñĩ": 4864,
      "ĠÐ²Ð¾Ð·Ð½Ð¸ÐºÐ°": 4865,
      "ĠÑģÑĥÐ±ÑĬ": 4866,
      "ind": 4867,
      "ĠÐ¿Ð¾Ð·Ð¸": 4868,
      "ĠÐºÐ¾Ð½ÑĤÑĢÐ¾Ð»": 4869,
      "ÑģÐ¸Ñİ": 4870,
      "ĠÐ¢Ð¸Ð¼": 4871,
      "ĠÐºÐ½ÑıÐ·Ñı": 4872,
      "ĠÐ¿Ð¾Ð»ÑĳÑĤ": 4873,
      "ĠÐ´ÐµÐ¼Ð¾ÐºÑĢÐ°": 4874,
      "ÐŁÑĢÐµÐ´": 4875,
      "ĠÐ²Ð¾Ð·Ð´ÐµÐ¹ÑģÑĤÐ²": 4876,
      "est": 4877,
      "31": 4878,
      "ĠÐĴÐ°ÑĢ": 4879,
      "ÑĤÐ¸ÐºÐµ": 4880,
      "Ð¸Ð²Ð°Ð½Ð¸Ñı": 4881,
      "ĠÐŀÐº": 4882,
      "ĠÐºÐ¾Ð½ÐºÑĥÑĢ": 4883,
      "ĠÑħÐ¾ÑĢÐ¾ÑĪÐ¾": 4884,
      "ÑĥÐ²Ð°": 4885,
      "ĠÐ¸Ð·Ð¾Ð±ÑĢÐµÑĤ": 4886,
      "ĠÐ´Ð¸Ð¿Ð»Ð¾Ð¼Ð°ÑĤ": 4887,
      "ĠÐºÐ²Ð°Ð½ÑĤÐ¾Ð²": 4888,
      "ĠÐ»ÑĮ": 4889,
      "ĠÐ½Ð°ÑĩÐ°Ð»ÑĮ": 4890,
      "Ð¸ÑĢÑĥÐµÑĤ": 4891,
      "ĠÑģÐ»ÑĥÑĩÐ°ÑıÑħ": 4892,
      "Ð°ÑĤÐµÐ»ÑĮÐ½ÑĭÐµ": 4893,
      "ĠÐ²ÑĭÐ±Ð¾ÑĢÐ°Ñħ": 4894,
      "ĠÑĥÐ±Ð¸Ð¹": 4895,
      "Ð¸Ð´Ñĥ": 4896,
      "ĠÑģÐ¸Ð³": 4897,
      "ĠÐ¸Ð³ÑĢÐ¾Ðº": 4898,
      "ĠÑģÐµÑĤÐ¸": 4899,
      "ĠÐŀÐŀÐĿ": 4900,
      "ĠÐ²Ð¸Ð½": 4901,
      "ĠÐ¼Ð»Ð°Ð´": 4902,
      "ĠÑģÑĭÐ½Ð°": 4903,
      "88": 4904,
      "ĠÑĢÐ°Ð·Ð²Ð¸Ð²": 4905,
      "ĠÑĢÐ°Ð´Ð¸Ð¾": 4906,
      "ĠÐ¾ÑĦÐ¸ÑĨ": 4907,
      "ĠÐľÐ°ÑĤ": 4908,
      "ĠÐĴÐ¸ÑĤ": 4909,
      "ÑĩÑĮ": 4910,
      "ÑĳÑĤÑĢ": 4911,
      "ÑĤÑĢÐ¾Ð¿": 4912,
      "qu": 4913,
      "ÐµÑĢÐ°Ð½": 4914,
      "ĠÐ¿Ð¾ÐºÑĢÑĭ": 4915,
      "ĠÐ¿Ð°Ð¼ÑıÑĤÐ¸": 4916,
      "ĠÐ¼Ð¾Ð»ÐµÐº": 4917,
      "ĠÑĤÑĥÑĢÐ½Ð¸": 4918,
      "ĠÐ¾Ð±Ð¾ÑĢÐ¾Ð½Ñĭ": 4919,
      "ÑĥÑİÑīÐ¸Ð¼": 4920,
      "ĠÑĢÐµÑģÑĥÑĢ": 4921,
      "ĠÐ¾ÑĤÑĢÐ¸ÑĨ": 4922,
      "ĠÐ»Ð°ÑĥÑĢÐµÐ°ÑĤ": 4923,
      "ĠÐ±ÐµÑĢÐµÐ³Ñĥ": 4924,
      "ĠÐ³Ð¸Ð¼Ð½Ð°": 4925,
      "Ð°ÑĤÐµÐ»ÑĮÑģÑĤÐ²Ð¾": 4926,
      "Ð¾Ñĥ": 4927,
      "ÑĥÑīÐ¸Ð¹": 4928,
      "ĠÑĥÐ¿ÑĢÐ°Ð²Ð»Ñı": 4929,
      "Ð»Ð¾ÑĢ": 4930,
      "ĠÑģÐ¾Ð³Ð»Ð°Ñģ": 4931,
      "ĠÐ¼Ð¾Ð·": 4932,
      "ĠÐ¿Ð°ÑĢÑĤÐ¸": 4933,
      "ĠÐ½Ð°ÑģÑĩÐ¸ÑĤ": 4934,
      "ĠÑģÐ¾Ð²ÑĢÐµÐ¼ÐµÐ½Ð½ÑĭÑħ": 4935,
      "ÑĢÐ°Ð´": 4936,
      "ĠÑĨÐ°ÑĢÑı": 4937,
      "32": 4938,
      "ĠÑģÐµÐ¹": 4939,
      "ĠÐ¿Ð¾ÑĤÐ¾Ð¼Ñĥ": 4940,
      "..": 4941,
      "ib": 4942,
      "Ð²ÐµÐ½": 4943,
      "ĠÐ¡Ð¸Ð½": 4944,
      "ĠÐ¿Ð¾Ð´Ð²ÐµÑĢÐ³": 4945,
      "ĠÐŁÐµÑĤÑĢÐ°": 4946,
      "ĠÑģÐµÑĢÑĮ": 4947,
      "ĠÐłÐ¾ÑģÑĤ": 4948,
      "ĠÐ¤ÑĢÐ¸Ð´": 4949,
      "ĠÑģÑĤÐµÐ½": 4950,
      "ĠÑĢÐµÐ·ÑĥÐ»ÑĮÑĤÐ°ÑĤ": 4951,
      "ĠÑĪÐº": 4952,
      "ĠÐ²Ð·Ð³Ð»Ñı": 4953,
      "ĠÐ·Ð°ÐºÐ¾Ð½Ð¾Ð´Ð°ÑĤÐµÐ»ÑĮ": 4954,
      "ÑĩÐµÑģÐºÐ¸": 4955,
      "ĠÐľÐ¸ÑħÐ°Ð¹Ð»Ð¾Ð²": 4956,
      "ĠÐ´Ð¸Ð½Ð°ÑģÑĤÐ¸Ð¸": 4957,
      "ÑĥÑģÐºÐ°": 4958,
      "ĠÐľÑĥÐ·": 4959,
      "ĠÑĢÑĥÐºÐ¾Ð²Ð¾Ð´ÑģÑĤÐ²Ð¾Ð¼": 4960,
      "Ð½Ð¾Ð³Ð¸Ðµ": 4961,
      "44": 4962,
      "ĠÐĵÐ°": 4963,
      "Ð°Ð²ÑĪÐ¸Ðµ": 4964,
      "ĠÐºÐ»Ð°ÑģÑģÐ°": 4965,
      "ĠÐ±ÐµÐ¶": 4966,
      "Ð·Ð°ÑĨÐ¸Ñı": 4967,
      "ĠÐ¸ÑģÑģÐ»ÐµÐ´Ð¾Ð²Ð°Ð½Ð¸Ð¹": 4968,
      "ÑīÐ°": 4969,
      "ĠÐŁÐ°Ð»": 4970,
      "ÑĢÐµÑĤÑĮ": 4971,
      "ĠÐ³Ð¾Ð²Ð¾ÑĢ": 4972,
      "ĠÑĢÑĥÐ±Ð»ÐµÐ¹": 4973,
      "ÑģÑĤÐµÐ¹": 4974,
      "ÑĳÐ¼Ð°": 4975,
      "ĠÐ¿ÑĢÐ¾ÐµÐºÑĤÐ°": 4976,
      "ay": 4977,
      "ÐµÑĢÐµÐ½": 4978,
      "ĠÐ½ÐµÐ²Ð¾Ð·Ð¼Ð¾Ð¶": 4979,
      "ĠÐ¤Ð¸Ð»Ð¸Ð¿Ð¿": 4980,
      "Ð¸Ð´Ð¾Ð²": 4981,
      "ĠÐ²ÑģÑİ": 4982,
      "ĠÐ¾Ð¿ÐµÑĢÐ°ÑĨÐ¸Ð¸": 4983,
      "ap": 4984,
      "ĠÐ¸Ð·Ð»ÑĥÑĩ": 4985,
      "ĠÐ²ÑĭÐ²Ð¾Ð´": 4986,
      "Ð·Ð²ÐµÑģÑĤ": 4987,
      "ĠÐ´ÐµÐ¹ÑģÑĤÐ²Ð¸Ðµ": 4988,
      "ĠÐ¿ÑĢÐ¸Ð·Ð½Ð°Ðº": 4989,
      "ĠÐ¿ÑĢÐ¸Ð²Ð¾Ð´Ð¸ÑĤ": 4990,
      "ÑĨÐ°Ð¼": 4991,
      "ĠÐ¾ÑĦÐ¸ÑĨÐ¸Ð°Ð»ÑĮÐ½Ð¾": 4992,
      "Ġe": 4993,
      "Ð°Ð½Ð¾Ð²Ð°": 4994,
      "ĠÐ¿ÑĢÐ¾ÑģÑĤÐ¾": 4995,
      "ĠÐ¸Ð·Ð³Ð¾ÑĤÐ¾Ð²": 4996,
      "ĠÐ½Ð°Ð·Ð½Ð°ÑĩÐµÐ½": 4997,
      "Ð²Ð¸ÑĤ": 4998,
      "Ð»Ð¾Ð²Ð°": 4999,
      "ĠÑģÐ°Ð¼Ð¾Ð¹": 5000,
      "ĠÐ²ÐºÐ»Ð°Ð´": 5001,
      "Ġ1919": 5002,
      "ĠÐ¿ÑĢÐ¸Ð½ÑıÑĤÐ¾": 5003,
      "ĠÐ°ÑĢÐµÑģÑĤ": 5004,
      "ĠÑĥÑĢÐ¾Ð²ÐµÐ½ÑĮ": 5005,
      "ĠÐ³Ð¾ÑģÑĥÐ´Ð°ÑĢÑģÑĤÐ²ÐµÐ½Ð½Ð¾Ð¹": 5006,
      "ĠÐ·Ð°ÑĢ": 5007,
      "ĠÐ²Ð¾ÐµÐ½Ð½ÑĭÐ¹": 5008,
      "Ð²Ð°ÑĢÐµ": 5009,
      "ĠÐ¿Ð¾Ð´ÑħÐ¾Ð´": 5010,
      "Ġ1939": 5011,
      "Ð¾ÑģÑĤÑĢÐ¾": 5012,
      "ÐµÑĢÑģÐ¾Ð½": 5013,
      "ĠÐļÐŁÐ¡Ð¡": 5014,
      "Ð²Ð¸Ð»Ð¸": 5015,
      "ÑıÐ½Ðµ": 5016,
      "ÐµÐºÑģ": 5017,
      "ĠÐĺÐ»ÑĮ": 5018,
      "ĠÑģÐ¾Ð·Ð´Ð°Ð²": 5019,
      "ÑĢÐ¾ÑĪ": 5020,
      "ĠÐ·Ð°Ð²Ð¾ÐµÐ²": 5021,
      "ĠÑĤÐµÐ»Ðµ": 5022,
      "Ð²ÑĪÐ¸Ð¹": 5023,
      "ÑĢÐ¸ÑĦ": 5024,
      "ÐºÐ¾Ð²ÑģÐºÐ¾Ð³Ð¾": 5025,
      "ĠÑĢÐ¾Ð¶Ð´ÐµÐ½Ð¸Ñı": 5026,
      "ÑĥÑģÐ»Ð¾Ð²": 5027,
      "Ð°Ð´Ð°ÐµÑĤ": 5028,
      "ĠÐ¡ÐŁÐ±": 5029,
      "ÑģÐ¸ÑģÑĤ": 5030,
      "ĠÑĥÑĩÐ¸Ð»Ð¸": 5031,
      "Ġ1988": 5032,
      "ĠÐ¿Ð¾Ð·Ð´Ð½ÐµÐµ": 5033,
      "ĠÐ¸ÑģÐ¿Ð¾Ð»ÑĮÐ·Ð¾Ð²Ð°Ð½Ð¸Ðµ": 5034,
      "ĠÐ¼ÐµÑĤÑĢÐ¾Ð²": 5035,
      "Ð¸Ð±Ð¾Ð»ÑĮÑĪ": 5036,
      "ĠÐ·Ð°Ð²Ð¸Ñģ": 5037,
      "Ð¾Ð¼Ð±": 5038,
      "Ð°ÑĢÐ¸Ð¹": 5039,
      "ĠZ": 5040,
      "ĠÐ»Ð°Ð³": 5041,
      "ĠCh": 5042,
      "92": 5043,
      "ÑĩÐµÑģÐºÐ¾Ð¼": 5044,
      "Ġ45": 5045,
      "ĠÐ¿Ð»Ð°Ð²": 5046,
      "Ð¸Ð¼Ð¾ÑģÑĤÐ¸": 5047,
      "ĠÐ°Ð²ÑĤÐ¾Ð¼Ð°ÑĤ": 5048,
      "ĠÐºÐ¾Ð¼Ð¿ÑĮÑİÑĤÐµÑĢ": 5049,
      "Ð¸Ð²ÑĪÐ¸ÐµÑģÑı": 5050,
      "ĠÑĤÑĢÐµÐ±Ð¾Ð²": 5051,
      "Ð»ÐµÑĢÐ°": 5052,
      "ĠÐ¾Ð±ÑĬÐµÐºÑĤÐ¾Ð²": 5053,
      "ĠÐ²ÐµÑĢÑĪ": 5054,
      "Ð¡ÐºÐ¾Ð½ÑĩÐ°Ð»Ð¸ÑģÑĮ": 5055,
      "ik": 5056,
      "ĠÐ´Ð¾Ð»Ð¶Ð½Ð¾ÑģÑĤÑĮ": 5057,
      "ĠÐ²Ð½Ð¸Ð¼Ð°Ð½Ð¸Ðµ": 5058,
      "48": 5059,
      "ÑĩÑĥ": 5060,
      "ĠÐ¾Ð²": 5061,
      "ĠÐĹÐ°Ðº": 5062,
      "Ð¾ÑħÑĢÐ°Ð½": 5063,
      "ĠÐµÐ²ÑĢÐµ": 5064,
      "ĠÐºÐ°Ð¶Ð´ÑĭÐ¹": 5065,
      "ĠÐ¿Ð°ÑĤ": 5066,
      "ĠÐ´ÐµÐ¼Ð¾Ð½": 5067,
      "ĠÐ¡ÐµÐ½": 5068,
      "ĠÐ¢Ð¸Ñħ": 5069,
      "ĠÑĨÐµÐ½ÑĤÑĢÐµ": 5070,
      "ew": 5071,
      "ell": 5072,
      "Ð½Ð°ÑĩÐ°Ð»Ð°": 5073,
      "ĠÐ»Ñĥ": 5074,
      "ĠÐ¿ÑĢÐ¸ÑĩÑĳÐ¼": 5075,
      "ĠÐŃÑĤÐ°": 5076,
      "Ġ1942": 5077,
      "ÐĿÐļ": 5078,
      "ĠÑĥÐ±Ð¸ÑĤ": 5079,
      "ĠÐ´ÐµÑģÑıÑĤ": 5080,
      "ĠÐ¿Ð¸ÑģÑĮÐ¼ÐµÐ½": 5081,
      "Ð¼ÐµÐ¹": 5082,
      "ĠÐ´ÐµÐ¹ÑģÑĤÐ²Ð¸Ð¹": 5083,
      "Ð¿Ð»": 5084,
      "Ð¸Ð´Ñĭ": 5085,
      "ĠÐºÐ¾Ð¼Ð¿Ð¾Ð½": 5086,
      "ĠÐ¸ÑģÑĤÐ¾ÑĢÐ¸Ðº": 5087,
      "Ð¿Ð¸ÑģÐ¸": 5088,
      "ĠÐŀÑĢÐ´ÐµÐ½": 5089,
      "ĠÐ½Ð°Ð³": 5090,
      "%),": 5091,
      "ĠÑħÑĢÐ°": 5092,
      "ĠÑĥÐ´Ð°ÑĢ": 5093,
      "ĠÑģÐµÐ½": 5094,
      "ĠÐ³Ð¸Ð±": 5095,
      "ĠÐĳÐµÐ»Ð¾ÑĢÑĥÑģ": 5096,
      "ĠÐ¿ÑıÑĤÑĮ": 5097,
      "Ð²Ð°Ð½Ð¸Ñı": 5098,
      "ĠÐľÐ¾Ð»": 5099,
      "ĠÑģÐ²ÐµÑĢÑħ": 5100,
      "ĠÑįÐºÑģÐ¿Ð»Ñĥ": 5101,
      "ĠÑģÐ¾Ð·Ð½": 5102,
      "ĠÑĢÐ°Ð·Ð¼ÐµÑī": 5103,
      "ÑİÑīÐ¸ÑħÑģÑı": 5104,
      "ĠÑģÐ»ÐµÐ´Ð¾Ð²": 5105,
      "ÑĢÐ¸ÑĤÐµÐ»ÑĮ": 5106,
      "ÐĹÐ°Ð¿": 5107,
      "Ð¾ÐºÐ¾Ð²": 5108,
      "ĠÑģÑĤÐ¾ÑĢ": 5109,
      "ĠÐ±Ð¾Ñı": 5110,
      "Ð°Ð¼ÐµÑĤ": 5111,
      "ĠÐ²ÑĭÐ²": 5112,
      "ĠÐ·Ð´Ð°Ð½Ð¸Ñı": 5113,
      "Ð»ÑĥÐ³Ð¸": 5114,
      "ĠÐ¿ÑĢÐ¸ÑģÐ²Ð¾": 5115,
      "ĠÐ³Ð¾Ð»Ð¾ÑģÐ¾Ð²": 5116,
      "ĠÑĦÑĥÑĤÐ±Ð¾Ð»Ð¸ÑģÑĤ": 5117,
      "ĠÐ´Ð°Ð½Ð½ÑĭÐµ": 5118,
      "Ð¾Ð»ÑĮÑĦ": 5119,
      "ĠÐ¾ÑĢÐ³Ð°Ð½": 5120,
      "ĠÐ½Ð°Ð¿Ð¸ÑģÐ°Ð»": 5121,
      "ĠÐĶÐµÐ¼": 5122,
      "ĠÐ¸Ð¼ÐµÐ»Ð¸": 5123,
      "ÑģÑĤÑĢÐ¸Ð¹": 5124,
      "ĠÐ¿ÑĢÐ¾Ð¸Ð·Ð¾ÑĪÐ»Ð¾": 5125,
      "Ð³Ð¸Ñı": 5126,
      "ĠÐ¿ÑĢÐµÐ´Ð½Ð°Ð·Ð½Ð°Ñĩ": 5127,
      "ĠÐ²ÑĭÐ´Ð°": 5128,
      "ĠÐ§ÐµÑħ": 5129,
      "ĠÐ¿ÑĢÐµÐ¶Ð´Ðµ": 5130,
      "ĠÐ²Ð¾Ð·Ð´ÑĥÑħÐ°": 5131,
      "ĠÐ¾ÑĤÑģÑĤÐ°Ð²": 5132,
      "ĠÐ½ÐµÐ¾Ð´": 5133,
      "Ð¾ÑĩÐ½ÑĭÐµ": 5134,
      "Ð¸ÑĢÐ¾Ð²Ð°Ð½": 5135,
      "Ð°Ð»ÑĮÐ½ÑĭÐ¼Ð¸": 5136,
      "ĠÐ¿Ð¸ÑĪ": 5137,
      "Ð¼ÑĥÐ½": 5138,
      "Ð½ÑĥÐ»ÑģÑı": 5139,
      "ĠÐ·Ð°ÐºÐ¾Ð½Ñĩ": 5140,
      "ĠÐ¸Ð½Ð¸ÑĨÐ¸": 5141,
      "Ġ90": 5142,
      "ĠÐ¸ÑģÑĤÐ¾ÑĩÐ½Ð¸ÐºÐ°": 5143,
      "ĠÑĥÐºÐ°Ð·ÑĭÐ²Ð°": 5144,
      "ĠÐ¿ÑĢÐ¾ÑģÑĤÑĢÐ°Ð½ÑģÑĤÐ²Ð°": 5145,
      "Ð¾ÑĢÐ´Ð¸Ð½": 5146,
      "ÑįÑĤ": 5147,
      "ÐŁÐ¾Ð´": 5148,
      "ĠÐ¿ÑĢÐ¾ÑıÐ²": 5149,
      "ĠÐ»ÑİÐ´": 5150,
      "ĠÑģÐµÑĢÑĮÑĳÐ·": 5151,
      "ÐŃÐ¡": 5152,
      "ĠÐ¿ÑĢÐµÐ²ÑĭÑĪ": 5153,
      "ĠÐ°Ð²ÑĤÐ¾Ð¼Ð¾Ð±Ð¸Ð»ÑĮ": 5154,
      "ĠÐ¾Ð±Ð»Ð°Ð´": 5155,
      "ĠÐĲÐ»ÐµÐºÑģÐµÐ¹": 5156,
      "ĠÐĿÐ¾Ð²Ð³Ð¾ÑĢÐ¾Ð´": 5157,
      "ĠÐĵÐµÐ¾ÑĢÐ³": 5158,
      "ĠÑģÑĢÐ°Ð·Ñĥ": 5159,
      "ĠÑıÐ·ÑĭÐºÐ°Ñħ": 5160,
      "ĠÐ³ÑĢÐ°Ð²": 5161,
      "ĠÐ¿Ð¾ÑıÐ²Ð¸Ð»Ð¸ÑģÑĮ": 5162,
      "Ð¿Ð¾Ð²": 5163,
      "Ġ;": 5164,
      "ĠÑģÐ¾Ð·Ð´Ð°Ð½": 5165,
      "ĠÐ²Ð²": 5166,
      "Ð³ÑĢÑĥÐ¿Ð¿": 5167,
      "ĠÑģÐ¾Ð»Ð´Ð°ÑĤ": 5168,
      "ĠÑģÐ¾Ð±Ð¸ÑĢÐ°": 5169,
      "ĠÐļÐ°Ð·Ð°Ñħ": 5170,
      "Ð°Ð½ÑĤÑĭ": 5171,
      "Ð°Ð»Ð¸Ñı": 5172,
      "ÑĤÐµÑħ": 5173,
      "ĠÐºÐ°Ñģ": 5174,
      "ĠÐ¼ÑĥÑģÑĥÐ»ÑĮÐ¼Ð°Ð½": 5175,
      "ĠÐ²ÐºÐ»ÑİÑĩÐ°ÐµÑĤ": 5176,
      "ĠÑĢÑĭÐ½": 5177,
      "ĠÑĢÐ°Ð·Ð³": 5178,
      "ĠÐĺÐ·Ð´": 5179,
      "ĠÐ¿Ð¾Ð»Ð¾Ð²Ð¸Ð½Ðµ": 5180,
      "ĠÑĢÐµÐ³ÑĥÐ»ÑıÑĢ": 5181,
      "ĠÐ¼Ð¾Ð´ÐµÐ»ÑĮ": 5182,
      "ĠÑĢÐ°Ð·Ð½Ð¾Ð¾Ð±ÑĢÐ°Ð·": 5183,
      "ĠÑģÐ¾ÑģÐµÐ´": 5184,
      "ĠÑĤÐ¾Ð¹": 5185,
      "ĠÑģÑĤÐ°Ð´": 5186,
      "Ð¼ÐµÐ½Ð°": 5187,
      "Ġ1987": 5188,
      "ĠÐ´ÑĢÐµÐ²Ð½Ðµ": 5189,
      "ĠÐ¿Ð¾ÑģÐ»ÐµÐ´Ð½Ð¸Ðµ": 5190,
      "ĠÐ²ÑĭÐ¿ÑĥÑī": 5191,
      "ĠÐ¡Ð¡Ðł": 5192,
      "ĠÐĴÐ¾Ð¹": 5193,
      "ĠÑĥÑĩÐµÐ½Ð¸": 5194,
      "ĠÐ·Ð°ÑĢÑı": 5195,
      "ÑįÐº": 5196,
      "ÑģÑĤÐ²Ð¾Ð²Ð°Ð»Ð¸": 5197,
      "ÐµÐ¼Ð°": 5198,
      "Ð¾Ð²Ð°Ð½": 5199,
      "ĠÐ¿ÑĢÐ¸Ð¾Ð±": 5200,
      "ĠÐ¿ÑĢÐµÐ¸Ð¼ÑĥÑīÐµÑģÑĤÐ²ÐµÐ½Ð½Ð¾": 5201,
      "ĠÐ²Ð¾Ð·Ð´ÑĥÑĪ": 5202,
      "ÑıÐ½Ð°": 5203,
      "ÐµÐ½Ð½Ð¾ÑģÑĤÑĮ": 5204,
      "ÑİÐ½": 5205,
      "ĠÐłÐ¸Ñĩ": 5206,
      "ĠÐ´Ð¾ÑħÐ¾Ð´": 5207,
      "Ð°Ð½ÑĤÐ¾Ð²": 5208,
      "ĠÑģÑĤÐ¾ÑĢÐ¾Ð½Ñĥ": 5209,
      "ĠÐ¡Ð°ÑĢÐ°": 5210,
      "ĠÐºÐ»Ð¸Ð¼Ð°ÑĤ": 5211,
      "ĠÐ²ÑģÐºÐ¾ÑĢÐµ": 5212,
      "ÑĦÐ¾Ð½": 5213,
      "ĠÐĲÐ½Ð´ÑĢÐµÐ¹": 5214,
      "ĠÑģÐ¾Ð³Ð»Ð°": 5215,
      "ÑĥÐ»Ð°": 5216,
      "ÑīÐ°Ñı": 5217,
      "Ð¾Ð»Ð¾Ð³Ð¸ÑĩÐµÑģÐºÐ¸Ð¹": 5218,
      "ĠÐ³ÑĥÐ±ÐµÑĢÐ½Ð¸Ð¸": 5219,
      "38": 5220,
      "ĠÐ¾Ð±ÑĢÐ°Ð±Ð¾ÑĤ": 5221,
      "ĠÐ¿ÑĢÐ¾ÑĤÑıÐ¶ÐµÐ½Ð¸Ð¸": 5222,
      "ÑĦÑĭ": 5223,
      "ÐµÐ½ÑĮÑİ": 5224,
      "ĠÑĢÐ°ÐºÐµÑĤ": 5225,
      "ÐµÑĢÑĤÐ°": 5226,
      "ÑĨÐ¸ÑģÑĤ": 5227,
      "ĠÐŁÐ¾ÑįÑĤÐ¾Ð¼Ñĥ": 5228,
      "ĠÐ½Ð¸Ð¼Ð¸": 5229,
      "Ġ<": 5230,
      "ÑıÑīÐ¸Ðµ": 5231,
      "Ð»Ð°Ð½Ð´Ð¸Ð¸": 5232,
      "55": 5233,
      "ĠÑħÐ¾ÑĤ": 5234,
      "ĠÐ¾ÐºÐ°Ð·ÑĭÐ²Ð°": 5235,
      "Ð¸Ð´Ð¸": 5236,
      "ĠÐ²ÐµÑĩ": 5237,
      "ĠÐ½Ð¸Ð¶": 5238,
      "ĠÐ®Ð¶Ð½Ð¾Ð¹": 5239,
      "Ð¼Ð¸Ñı": 5240,
      "ĠÑĦÐ¸Ð»Ð¸": 5241,
      "ĠÐµÐ´Ð¸Ð½Ð¸ÑĨ": 5242,
      "ĠÑģÐµÑĢÐ¸Ð¸": 5243,
      "ÐŁÑĢÐ°Ð²": 5244,
      "Ġ*": 5245,
      "ĠÐ¾ÑĤÐ´ÐµÐ»ÑĮÐ½ÑĭÑħ": 5246,
      "Ð»Ð¾Ð´": 5247,
      "ĠÐļÐ¸ÑĢ": 5248,
      "ĠÑĤÐ²ÑĳÑĢ": 5249,
      "ĠÐ²ÑĭÑĪÐµÐ»": 5250,
      "ĠVI": 5251,
      "ĠÐ¿ÑĢÐ¸Ð³": 5252,
      "ÑĤÐ¾Ñĩ": 5253,
      "ĠÐ¿ÑĥÑģÑĤ": 5254,
      "ÐºÐ¸Ð¿": 5255,
      "ĠÐ¼ÐµÐ½ÑĮÑĪÐµ": 5256,
      "ÑģÐ¿Ð¾ÑĢÑĤ": 5257,
      "ÑĤÐ¸ÑĩÐµÑģÐºÐ¾Ð³Ð¾": 5258,
      "Ð½ÑĭÐ½Ðµ": 5259,
      "Ð¾Ð³ÑĢÐ°Ð´": 5260,
      "ĠÐºÐ²Ð°Ð´": 5261,
      "ĠÐ·Ð°Ð½Ð¸Ð¼Ð°ÐµÑĤ": 5262,
      "Ġg": 5263,
      "ĠÐ¿ÑĢÐµÐ¾Ð±ÑĢÐ°Ð·Ð¾Ð²": 5264,
      "ant": 5265,
      "ĠÐ¿Ð¾Ð²ÑĤÐ¾ÑĢ": 5266,
      "ĠÐ¾ÑĤÑĢÑı": 5267,
      "ĠÑģÐ¾Ð²ÐµÑĤÐ°": 5268,
      "ĠÐ¸ÑģÐ¿ÑĭÑĤ": 5269,
      "ĠÐ¿Ð¾ÑģÐ»ÐµÐ´Ð¾Ð²Ð°ÑĤÐµÐ»ÑĮ": 5270,
      "ĠÐ´Ð¾Ð»Ð¶Ð½Ð°": 5271,
      "ÑįÐ»ÑĮ": 5272,
      "ĠÐ¾ÐºÐºÑĥÐ¿": 5273,
      "ĠÐ»Ð¸Ðº": 5274,
      "ĠÐ¿Ð¾ÑģÐµÑī": 5275,
      "Ð¾ÑĢÐ³Ð°Ð½Ð¸": 5276,
      "ĠÐŁÐ°Ð¼ÑıÑĤ": 5277,
      "ĠÐ¿ÑĢÐ¾Ð½": 5278,
      "ÐµÐºÑģÐ¸": 5279,
      "ĠÐ¿ÐµÑģÐ½Ð¸": 5280,
      "ĠÐ¢ÐµÑĢ": 5281,
      "ĠÐ¼Ð¸Ð½ÑĥÑĤ": 5282,
      "ÑĳÐ½Ð½ÑĭÐ¼Ð¸": 5283,
      "ĠĠĠ": 5284,
      "ĠÐºÐ¾Ð»Ð¸ÑĩÐµÑģÑĤÐ²Ð°": 5285,
      "Ð½Ð°Ð´ÑĨ": 5286,
      "ĠÑģÐ°Ð´": 5287,
      "ÐļÐ¾ÑĢ": 5288,
      "ĠÐ²Ð¾Ð¹Ð½Ñĥ": 5289,
      "ĠÐ°ÑĢÑħÐµ": 5290,
      "ob": 5291,
      "ÐµÐ½Ð¾Ð¼": 5292,
      "Ð¾Ð»Ñĭ": 5293,
      "ĠÐ½Ð°Ð¼": 5294,
      "ĠÐ¯Ð½": 5295,
      "Ð°Ð»Ñĥ": 5296,
      "ĠÐŁÑĳÑĤÑĢ": 5297,
      "ĠÑģÐ¾Ð·Ð´Ð°Ð½Ð¸Ðµ": 5298,
      "ĠÐ½Ð°ÑĥÑĩÐ½Ð¾": 5299,
      "ĠÐ²Ð¾Ð¹ÑģÐºÐ°Ð¼Ð¸": 5300,
      "ĠÐ´Ð¸Ñģ": 5301,
      "ĠÐ´Ð»Ð¸ÑĤÐµÐ»ÑĮ": 5302,
      "ĠÑĢÑıÐ´Ð¾Ð¼": 5303,
      "ĠÑįÐ¿Ð¾ÑħÐ¸": 5304,
      "Ð¿ÑĢÐµÐ´": 5305,
      "ÐµÐ¼Ð¾Ð³Ð¾": 5306,
      "ÑİÑīÐ¸ÐµÑģÑı": 5307,
      "ÑĦÐ¸Ð»ÑĮ": 5308,
      "ĠÐŃÐº": 5309,
      "ĠÐ²Ð¾Ð·ÑĢÐ°ÑģÑĤ": 5310,
      "ĠÐ¢Ð¾Ð»": 5311,
      "Ð¾ÐºÑģÐ¸": 5312,
      "ĠÐºÐ½Ð¸Ð³Ðµ": 5313,
      "ĠÐ¿ÑĢÐµÐºÑĢÐ°Ñī": 5314,
      "Ð·Ð°Ð¿Ð°Ð´": 5315,
      "ĠÐ®ÑĢÐ¸Ð¹": 5316,
      "ĠÑĢÑĭÐ±": 5317,
      "ĠÐĳÐ»Ð°": 5318,
      "ĠÐ¸ÑģÑĤÐ¾ÑĢÐ¸Ñı": 5319,
      "ĠÑģÑĥÐ´Ð°": 5320,
      "Ð°ÑĤÑĥ": 5321,
      "ÐµÐ½Ð½": 5322,
      "ĠÐŁÐ¾Ð±": 5323,
      "ĠÐŁÑĢÐ¾": 5324,
      "ĠÐºÐ¾Ð½ÐºÑĢÐµÑĤ": 5325,
      "ĠÐĵÐ°ÑĢ": 5326,
      "ĠÑģÐ¾ÑģÑĤÐ¾ÑıÐ½Ð¸Ðµ": 5327,
      "68": 5328,
      "ĠÐ±ÑĥÑĢ": 5329,
      "ĠÐ´Ð¾Ð»Ð³": 5330,
      "ĠÑģÐ»Ð¾Ð²Ð°Ð¼": 5331,
      "ĠÑģÑĤÐ°Ð½Ð´Ð°ÑĢÑĤ": 5332,
      "ĠÐ·Ð°ÑıÐ²Ð¸Ð»": 5333,
      "ÑĢÐ°Ð¼Ð¸": 5334,
      "Ð¾Ð²ÑĭÐ¼": 5335,
      "Ð¾ÑģÑĤÐµÐ¹": 5336,
      "ÐŁÐ¾Ð»": 5337,
      "ĠÐ½Ð°ÑĩÐ°Ð»Ð¾ÑģÑĮ": 5338,
      "ĠÐ¾Ð±ÑīÐµÐ³Ð¾": 5339,
      "ÑģÐ»Ð°Ð²": 5340,
      "ĠÐ³Ð°ÑĢ": 5341,
      "ĠÐµÐ¶ÐµÐ³Ð¾Ð´": 5342,
      "ĠÑįÐºÐ¾Ð½Ð¾Ð¼Ð¸ÐºÐ¸": 5343,
      "74": 5344,
      "ĠÐ±Ð°ÑģÑģ": 5345,
      "ĠÐ¿ÑĢÐµÐ´ÑģÑĤÐ°Ð²Ð¸ÑĤÐµÐ»ÐµÐ¹": 5346,
      "ĠÐļÑĢÐ¸": 5347,
      "ĠÐ³ÑĢÐ°Ð½": 5348,
      "ĠÑĤÐµÐ¾ÑĢÐ¸Ñı": 5349,
      "ĠÐµÐ¹": 5350,
      "ĠÐ¾Ð·Ð½Ð°ÑĩÐ°ÐµÑĤ": 5351,
      "Ð½Ð°Ð±": 5352,
      "Ġ1968": 5353,
      "ĠÐ»Ð¸ÑĤ": 5354,
      "ĠÐ´ÐµÐ»Ðµ": 5355,
      "Ð¸Ð¹ÑģÐºÐ¸Ð¹": 5356,
      "ĠÐ¿ÑĮ": 5357,
      "ĠÐłÐµ": 5358,
      "ĠÐ°ÐºÑĤÐ¸Ð²Ð½Ð¾": 5359,
      "Ð¾Ð²Ð¾Ð»ÑĮÐ½Ð¾": 5360,
      "ĠÐ¼Ð¸ÐºÑĢÐ¾": 5361,
      "Ð½Ð¾Ð¶": 5362,
      "Ð³Ð¾Ð»ÑĮ": 5363,
      "ĠÐ±ÑĢÐ°ÑĤ": 5364,
      "Ð²Ð°ÑĢÑĤÐ¸": 5365,
      "ĠÐºÐ¾Ð½ÑĤÑĢÐ¾Ð»ÑĮ": 5366,
      "Ð¼Ð¸ÑĢ": 5367,
      "Ð»Ð»Ðµ": 5368,
      "Ð¸ÑĢÐ¾Ð²Ð°Ð½Ð¸Ñı": 5369,
      "ĠÐ¿Ð¾Ð»ÑĥÑĩÐµÐ½Ð¸Ñı": 5370,
      "ĠÑģÐºÐ¾ÑĢÐ¾ÑģÑĤÑĮ": 5371,
      "ĠÑģÑĨÐµÐ½Ð°ÑĢÐ¸ÑģÑĤ": 5372,
      "ÑĭÐ´": 5373,
      "Ð¾Ð½ÐµÑĩ": 5374,
      "Ð»ÐµÐ½Ð½ÑĭÐµ": 5375,
      "Ð°ÑĤÐµÐ»ÑĮÐ½Ð¾Ð¹": 5376,
      "ĠÑģÐ¾Ð¿ÑĢÐ¾ÑĤÐ¸Ð²": 5377,
      "ĠÐ¾ÑĤÑĢÐ°Ñģ": 5378,
      "ĠÐĽÐ°": 5379,
      "Ð»Ð¾ÑĤÑĮ": 5380,
      "ĠÐ³Ð³": 5381,
      "ĠÐ¿Ð¾ÑģÑĳÐ»Ð¾Ðº": 5382,
      "ÐĳÐ¾Ð»ÑĮÑĪ": 5383,
      "ĠÐĿÐ°Ð¸Ð±Ð¾Ð»ÐµÐµ": 5384,
      "Ġ1986": 5385,
      "ĠÐ¼ÐµÑģÑĤÐ¾ÑĢ": 5386,
      "ĠÑģÑĤÐ°Ð½Ð´Ð°ÑĢ": 5387,
      "ĠÐ´Ð¸ÑĢÐµ": 5388,
      "Ð»Ð¾Ð¹": 5389,
      "ĠÐ¿ÑĢÐ¾Ð·": 5390,
      "ĠÐ·Ð´Ð¾ÑĢÐ¾Ð²": 5391,
      "ĠÑĥÐ»": 5392,
      "ĠÑģÐ¾Ð±Ð¾ÑĢ": 5393,
      "ĠÑĤÐµÐ»ÐµÐ²Ð¸Ð´": 5394,
      "ĠÑĥÐ´Ð°Ð»": 5395,
      "ĠÐ¾ÑĤÐ¼ÐµÐ½": 5396,
      "ĠÑĢÐ°Ð·Ð²ÐµÐ´": 5397,
      "ĠÐ¿ÐµÑģÐµÐ½": 5398,
      "Ð¾Ð½Ð°ÑĩÐ°Ð»ÑĮÐ½Ð¾": 5399,
      "ÑĭÐ»": 5400,
      "ÑĨÐºÐ¸Ð¹": 5401,
      "ĠÑģÑĤÑĢÐ¾Ð¸ÑĤÐµÐ»ÑĮÑģÑĤÐ²Ð°": 5402,
      "ĠÑģÐ¾ÑģÑĤÐ°Ð²Ð°": 5403,
      "ĠÑįÐ»ÐµÐ¼ÐµÐ½ÑĤÑĭ": 5404,
      "XV": 5405,
      "ĠÐ²ÑħÐ¾Ð´Ð¸ÑĤ": 5406,
      "Ð½Ð¸Ð¼Ð¸": 5407,
      "ĠÐ¸Ð½Ð´Ð¸Ð²": 5408,
      "ĠÐ¸Ð½Ð¶ÐµÐ½ÐµÑĢ": 5409,
      "Ð¢Ðµ": 5410,
      "ĠÐĴÐ¸Ð½": 5411,
      "Ð¸Ð·Ð°Ð½ÑĤÐ¸Ð¹": 5412,
      "Ġw": 5413,
      "ÑĤÐ¸ÑĩÐµÑģÐºÐ¸Ðµ": 5414,
      "05": 5415,
      "ph": 5416,
      "ĠÐĿÐµÐºÐ¾ÑĤÐ¾ÑĢÑĭÐµ": 5417,
      "ine": 5418,
      "ĠÐ¿ÐµÑĢÐµÐ¸Ð¼ÐµÐ½Ð¾Ð²": 5419,
      "Ð¾ÑħÐ¾Ð·ÑıÐ¹": 5420,
      "ĠÐ¸Ð½ÑĤÐµÑĢÐ²": 5421,
      "04": 5422,
      "ĠÑĦÐ°Ð¼Ð¸": 5423,
      "Ð¾Ð¶Ð´ÐµÐ½Ð¸Ð¸": 5424,
      "ĠÑģÐ¿ÐµÑĨÐ¸Ð°Ð»Ð¸ÑģÑĤ": 5425,
      "ÐºÐ°ÑĢ": 5426,
      "ĠÐ¿Ð¾Ð»ÑĥÑĩÐ¸Ð²": 5427,
      "ĠÐ¿Ð¾ÑĤÐµÐ½": 5428,
      "ĠÐĺÐ²Ð°Ð½Ð¾Ð²Ð¸Ñĩ": 5429,
      "66": 5430,
      "ĠÐ¾ÑģÐ½Ð¾Ð²Ð°Ð½": 5431,
      "ĠÐ¼Ð°Ðµ": 5432,
      "ĠÐ¿Ð°Ð¼ÑıÑĤÐ½Ð¸Ðº": 5433,
      "Ð¼Ð°Ð½Ð°": 5434,
      "ĠÐŁÐ¾Ð¼": 5435,
      "ĠÐ¿Ð¾ÑģÑĢÐµÐ´": 5436,
      "Ġ500": 5437,
      "Ġ1938": 5438,
      "ĠÑĢÐ°Ð·Ð°": 5439,
      "ĠÐºÐ¾Ð½ÑĦÐµÑĢ": 5440,
      "Ð¾ÐºÐ¸": 5441,
      "ĠÐ²ÑĭÑģÐ¾ÑĤ": 5442,
      "ĠÐ¿ÐµÑĢÐµÐ³Ð¾Ð²": 5443,
      "01": 5444,
      "ĠÑģÑĤÐ°Ð±": 5445,
      "Ð¸Ð¼Ð¾ÑģÑĤÑĮ": 5446,
      "ĠÐ·Ð½Ð°Ð¼ÐµÐ½Ð¸ÑĤ": 5447,
      "Ð¸Ð½ÐµÐ½ÑĤ": 5448,
      "Ð¾Ð²Ð°ÑĤÑĮ": 5449,
      "ĠÑħÑĢÐ¾Ð½": 5450,
      "ĠÐ¿ÑĢÐµÐ´Ð¿ÑĢÐ¸ÑıÑĤÐ¸Ð¹": 5451,
      "ĠÐľÐ¾ÑģÐºÐ¾Ð²ÑģÐºÐ¾Ð³Ð¾": 5452,
      "ĠÐ¸Ð½ÑģÑĤÐ¸ÑĤÑĥÑĤÐ°": 5453,
      "ĠÐ¿ÑĢÐ¾Ð¸Ð·Ð²ÐµÐ´ÐµÐ½Ð¸Ð¹": 5454,
      "ĠÐ¿ÑĢÐµÐ´Ð¿": 5455,
      "ĠÑģÑĤÐ¾Ñı": 5456,
      "ÐłÐ°": 5457,
      "ran": 5458,
      "ÑģÑĤÐ°Ð½Ð°": 5459,
      "ĠÐĵÐµÐ½ÐµÑĢÐ°": 5460,
      "ĠÐĳÐ¾ÑĢÐ¸Ñģ": 5461,
      "ÑĢÐ¾ÑģÐ»Ð°Ð²": 5462,
      "Ġ1984": 5463,
      "ĠÑģÐ¾ÑģÑĤÐ¾ÑıÐ½Ð¸Ñı": 5464,
      "ĠÐĺÐ¼Ð¿ÐµÑĢÐ°ÑĤÐ¾ÑĢ": 5465,
      "ĠÐ¸Ð·Ð³": 5466,
      "ĠÐ³ÐµÐ¾Ð³ÑĢÐ°ÑĦ": 5467,
      "ÑĢÐ¸Ð³Ð¸Ð½": 5468,
      "ĠÐłÑĥÑģÐ¸": 5469,
      "ĠÐ¾Ð´Ð½Ñĥ": 5470,
      "ĠÑĤÑĢÐ°Ð´Ð¸ÑĨÐ¸Ð¸": 5471,
      "ĠÑģÐ¼ÐµÑĪ": 5472,
      "Ð°ÑĤÐµÐ»ÑĮÑģÑĤÐ²Ð°": 5473,
      "ĠÐ·Ð°Ð²ÐµÐ´": 5474,
      "Ġ1975": 5475,
      "Ġ1973": 5476,
      "ĠÐ¸Ð½Ð´Ñĥ": 5477,
      "Ġ1979": 5478,
      "Ð°Ð½Ñĥ": 5479,
      "ĠÐ¿ÑĢÐ°Ð²Ð¸Ð»Ð°": 5480,
      "ĠÐŁÑĢÐ°Ð²Ð¸ÑĤÐµÐ»ÑĮ": 5481,
      "Ð¾Ð¸": 5482,
      "ĠÐĴÐĴ": 5483,
      "ĠÑĩÐ°ÑīÐµ": 5484,
      "ĠÐ´ÐµÐºÐ°Ð±ÑĢÐµ": 5485,
      "Ð¿ÐµÑĢ": 5486,
      "ÑĤÐ¸Ð¼": 5487,
      "84": 5488,
      "Ð³Ð°Ð½Ð¸": 5489,
      "ĠÐĲÐ¹": 5490,
      "ÑĢÑıÐ·": 5491,
      "ÐµÐ¸": 5492,
      "ĠÑģÐµÑĢÐ²": 5493,
      "ĠÐ¾ÑĨÐµÐ½Ð¸": 5494,
      "ĠÐ¿ÑĢÐ¾Ð±Ð»ÐµÐ¼Ñĭ": 5495,
      "ĠÐľÐ¸Ð½Ð¸ÑģÑĤÐµÑĢ": 5496,
      "ĠÐ¾Ð±ÑıÐ·Ð°Ð½": 5497,
      "ÑĪÐµÐ¼Ñĥ": 5498,
      "Ð¡Ð°Ð¼": 5499,
      "ĠÑģÐ¿Ð¸ÑģÐ¾Ðº": 5500,
      "ĠÐ¿ÑĢÐ¾Ð´Ð°": 5501,
      "Ġ1985": 5502,
      "ĠÐĶÐ°Ð»ÑĮ": 5503,
      "ĠÑĥÑĩÑĳÐ½ÑĭÐ¹": 5504,
      "ÐµÐ½Ð½ÑĭÐ¼Ð¸": 5505,
      "ĠÐ¿ÑĥÑĤÑĮ": 5506,
      "ĠÐ¿Ð¾ÑĢÑıÐ´ÐºÐ°": 5507,
      "ĠÑĥÐ´Ð°": 5508,
      "ĠÐ¸ÑģÐ¿Ð¾Ð»ÑĮÐ·ÑĥÑİÑĤ": 5509,
      "ĠÑĢÐ°Ð±Ð¾ÑĤÐ°": 5510,
      "ĠÐ²Ð¾ÐµÐ½Ð½Ð¾Ð¹": 5511,
      "ĠÐ¡Ð°Ð»": 5512,
      "ĠÑģÑĥÑħ": 5513,
      "ĠÐ²ÐµÑģÑĮÐ¼Ð°": 5514,
      "ÑĩÐ¸ÐºÐ°": 5515,
      "ÑĨÐ¸Ð¾Ð½Ð½Ð¾": 5516,
      "Ð¸Ð·Ð½ÐµÑģ": 5517,
      "Ð°ÑīÐ¸Ñħ": 5518,
      "ĠÑģÐ¾ÑĩÐµÑĤ": 5519,
      "ĠÐ½ÐµÑģÐ¼Ð¾ÑĤÑĢÑı": 5520,
      "ĠUn": 5521,
      "89": 5522,
      "ĠÐ¸Ð¼ÐµÐ½ÐµÐ¼": 5523,
      "ĠÐ·Ð°Ð¿Ð°Ñģ": 5524,
      "ÑĳÐ²Ð°": 5525,
      "Ð±Ð¸ÑīÐµ": 5526,
      "ÐµÐ½ÑģÐºÐ¾Ð³Ð¾": 5527,
      "ÑĢÐµÐ¶Ð¸ÑģÑģÑĳÑĢ": 5528,
      "ĠÑĦÐµÑģÑĤÐ¸": 5529,
      "Ð»ÐµÐ´ÑģÑĤÐ²Ð¸Ðµ": 5530,
      "ĠÐ¾ÑĢÐ³Ð°Ð½Ð¾Ð²": 5531,
      "Ð»ÑĥÑĩÑĪ": 5532,
      "Ð¢Ðŀ": 5533,
      "ĠÑĢÐ¾ÑģÑģÐ¸Ð¹ÑģÐºÐ°Ñı": 5534,
      "ĠÐ³ÑĢÐ°Ð½Ð¸ÑĨÑĭ": 5535,
      "ÑĩÐ°ÑģÑĤÐ¸": 5536,
      "Ð¾Ð²ÐµÑĢ": 5537,
      "ĠÐ°ÑĦ": 5538,
      "ĠÐĵÐ¾Ñģ": 5539,
      "ĠÑĤÐ°ÐºÐ¾Ð³Ð¾": 5540,
      "ĠÐŃÐ´Ñĥ": 5541,
      "ĠÐºÑĢÐ¸Ð·": 5542,
      "ÐµÐ´Ñĭ": 5543,
      "ĠÐ¸Ð½Ð¾ÑģÑĤÑĢÐ°Ð½Ð½ÑĭÑħ": 5544,
      "ĠÑģÑĢÐ°Ð²Ð½ÐµÐ½Ð¸Ñİ": 5545,
      "ĠÐ¾ÑĤÑĨÐ°": 5546,
      "ĠÐ½ÐµÐ¾Ð±ÑħÐ¾Ð´Ð¸Ð¼Ð¾": 5547,
      "ĠÐĴÐ¸ÐºÑĤÐ¾ÑĢ": 5548,
      "Ð³Ñĸ": 5549,
      "ĠÐ¿Ð¾ÑģÑĤÐµÐ¿ÐµÐ½Ð½Ð¾": 5550,
      "ĠÐ¤ÑĢÐ¸Ð´ÑĢÐ¸Ñħ": 5551,
      "ÑĤÐ°Ð¹": 5552,
      "ĠÐ·Ð°Ð¼ÐµÑģÑĤ": 5553,
      "ĠÐ¼Ð¾Ð½Ð°ÑĢÑħ": 5554,
      "ĠÐ¸ÑĤÐ°Ð»ÑĮÑıÐ½ÑģÐºÐ¸Ð¹": 5555,
      "ÐµÑĤÐ¸Ñı": 5556,
      "ĠÐ·Ð°Ð»Ð¾Ð¶": 5557,
      "03": 5558,
      "ÐµÑĢÑĥÑģ": 5559,
      "ĠÐļÐ¾Ð³Ð´Ð°": 5560,
      "ĠÐ·Ð´Ð°Ð½Ð¸Ðµ": 5561,
      "ĠÐ¿ÑĢÐ¸ÑĢÐ¾Ð´Ñĭ": 5562,
      "87": 5563,
      "ÑĢÐµÐ¼Ñı": 5564,
      "ÑĦÐ¸ÐºÐ°ÑĨÐ¸Ñı": 5565,
      "ĠÐŁÐ¾ÑģÐ»ÐµÐ´": 5566,
      "ĠÑģÐµÐ¼ÑĮÐ¸": 5567,
      "Ð¼Ð°Ð¹": 5568,
      "ĠÐ¿ÑĢÐµÐ´ÑģÑĤÐ°Ð²Ð¸ÑĤÐµÐ»ÑĮ": 5569,
      "ĠÑģÐ²ÑıÐ·Ð°Ð½Ð¾": 5570,
      "ĠÑģÐ¾Ð´ÐµÑĢÐ¶Ð¸ÑĤ": 5571,
      "ĠÐ»Ð¸Ð½ÐµÐ¹": 5572,
      "ĠÐ³Ð¾Ð²Ð¾ÑĢÐ¸ÑĤ": 5573,
      "ĠÐ·Ð½Ð°ÐºÐ¾Ð¼": 5574,
      "ĠÐ½ÐµÐ¸Ð·Ð²ÐµÑģÑĤ": 5575,
      "ĠÐ°Ð±ÑģÐ¾Ð»ÑİÑĤ": 5576,
      "ÑģÑĤÐ²Ð¾Ð²Ð°ÑĤÑĮ": 5577,
      "ĠÐºÐ¾Ð»ÑĮ": 5578,
      "ÑĩÐµÑģÐºÑĥÑİ": 5579,
      "Ġ300": 5580,
      "Ð¸Ð³Ñĥ": 5581,
      "ĠÑģÑĥÑĤ": 5582,
      "ÑįÐ»ÐµÐºÑĤ": 5583,
      "Ð½ÐµÐ¿": 5584,
      "ĠÐ¶ÑĥÑĢÐ½Ð°Ð»Ð¸ÑģÑĤ": 5585,
      "ĠÐļÐ¾ÑģÑĤ": 5586,
      "Ġ1967": 5587,
      "Ð°Ð²Ð¸": 5588,
      "ĠÑĤÐµÐ¾ÑĢÐ¸": 5589,
      "Ġ1937": 5590,
      "ĠÐĲÐ»Ð¸": 5591,
      "ĠÐĽÐ¸Ð½": 5592,
      "ĠÐ¸Ð·Ð²ÐµÑģÑĤÐ½Ð¾": 5593,
      "ÐłÐ¾Ð´Ð¸Ð»Ð¸ÑģÑĮ": 5594,
      "io": 5595,
      "art": 5596,
      "Ð²Ð¾Ð²": 5597,
      "Ð¼Ð¸ÑĢÐ°": 5598,
      "ĠÑĥÐ¿Ð¾Ð¼Ð¸Ð½": 5599,
      "Ð¿ÑĢÐµÑģ": 5600,
      "Ġ1961": 5601,
      "ĠÐĺÑģÑĤÐ¾ÑĢÐ¸Ñı": 5602,
      "ÑİÑīÐ¸Ð¼Ð¸": 5603,
      "ĠÐŁÐµÑĤÐµÑĢÐ±ÑĥÑĢÐ³": 5604,
      "ĠÑįÐ½ÑĨÐ¸ÐºÐ»Ð¾Ð¿ÐµÐ´": 5605,
      "%)": 5606,
      "ĠÑģÐµÑģÑĤ": 5607,
      "ĠÑģÐ»Ð°Ð±": 5608,
      "ĠÐ¨Ð²Ðµ": 5609,
      "ĠÑĦÑĥÐ½ÐºÑĨÐ¸Ð¾Ð½": 5610,
      "ĠÐ¿ÑĢÐ¾Ð²Ð¾Ð·Ð³Ð»Ð°ÑĪ": 5611,
      "ÐµÐ³Ð¾": 5612,
      "ĠÐ¸Ð¼ÐµÑĤÑĮ": 5613,
      "ĠÐ¾ÑģÑĤÐ°Ð½Ð¾Ð²": 5614,
      "ĠÐ±ÑĥÐ´ÑĥÑĤ": 5615,
      "ĠÑĥÑĢÐ¾Ð²Ð½Ðµ": 5616,
      "Ð°ÑĤÐ°Ð»ÑĮ": 5617,
      "ĠÐ¾ÑĤÐ¼ÐµÑĤ": 5618,
      "ĠÐ¾ÑģÐ½Ð¾Ð²Ð½Ð¾Ð¹": 5619,
      "ord": 5620,
      "Ġ1964": 5621,
      "ĠÐ¸Ð½ÑĤÐµÐ»": 5622,
      "ĠÐ³ÑĢÑĥÐ·": 5623,
      "ĠÑĢÐµÑĦÐ¾ÑĢ": 5624,
      "ÐºÐ»Ð°": 5625,
      "ÑĨÐ¸Ð¾Ð½Ð½Ð°Ñı": 5626,
      "ÑĬÑĳÐ¼": 5627,
      "ĠÐ¿Ð¾Ð¼Ð¾Ð³": 5628,
      "ĠÑıÐ½Ð²Ð°ÑĢÐµ": 5629,
      "ĠÐ±ÑĥÐ¼Ð°": 5630,
      "ĠÐ¿Ð¾Ð»ÑĥÑĩÐ¸ÑĤÑĮ": 5631,
      "ĠÑĩÐ»ÐµÐ½Ñĭ": 5632,
      "ĠÐ´Ð°Ð»ÑĮÐ½ÐµÐ¹ÑĪÐµÐ¼": 5633,
      "ĠÐ¿Ð°ÑĤÑĢÐ¸Ð°ÑĢÑħ": 5634,
      "Ð½ÐµÐ¼Ñĥ": 5635,
      "ÑĢÐ¾Ð¿Ð¾Ð»Ð¸ÑĤ": 5636,
      "ĠÐ¼ÐµÐ½Ñı": 5637,
      "ĠÐ¿ÑĢÐ¾ÑĦÐµÑģÑģÐ¾ÑĢ": 5638,
      "ĠÑģÐ¾Ð²ÐµÑĤÑģÐºÐ¾Ð¹": 5639,
      "Ġ1962": 5640,
      "Ġ1965": 5641,
      "ĠÑģÐ¾Ð»Ð½Ðµ": 5642,
      "Ð¸Ð´ÐµÑĢÐ»Ð°Ð½Ð´": 5643,
      "ge": 5644,
      "ĠÐ¥Ð°ÑĢ": 5645,
      "Ð´ÐµÐ»ÑĮ": 5646,
      "ĠÐ²Ð¸Ð·": 5647,
      "Ð£Ð¼ÐµÑĢ": 5648,
      "ĠÑıÐ·ÑĭÐºÐ¸": 5649,
      "ĠÐ¼ÐµÑģÑıÑĨÐµÐ²": 5650,
      "ĠÑħÐ°ÑĢÐ°ÐºÑĤÐµÑĢÐ¸Ð·": 5651,
      ".;": 5652,
      "ÑĤÐ¸ÑĩÐµÑģÐºÐ°Ñı": 5653,
      "Ð¶Ð´ÐµÐ½Ð¸Ñı": 5654,
      "ÐļÐ°Ðº": 5655,
      "Ð¸ÑĤÐµÐ»ÑĮÐ½Ð°Ñı": 5656,
      "ĠÑİÐ³Ðµ": 5657,
      "ĠâĪĴ": 5658,
      "Ð¸ÑĤÐ°ÑĢ": 5659,
      "ĠÐ¾Ð±Ñĭ": 5660,
      "ĠÑģÐ¾Ð²ÑĢÐµÐ¼ÐµÐ½Ð½Ð¾Ð³Ð¾": 5661,
      "if": 5662,
      "ÐµÐ½Ð´Ð°": 5663,
      "ĠÐĳÑĢÐ¸ÑĤ": 5664,
      "Ġ1983": 5665,
      "ĠÐ½ÐµÐ¿ÑĢÐµ": 5666,
      "Ð°ÑĢÐ¸Ð½": 5667,
      "Ð¤ÑĢÐ°Ð½": 5668,
      "ĠÑģÐºÐ»Ð¾Ð½": 5669,
      "ĠÐĲÐ²Ð³Ñĥ": 5670,
      "67": 5671,
      "ĠÐĿÐ¾Ð±ÐµÐ»ÐµÐ²": 5672,
      "ĠÑħÐ¾Ð·ÑıÐ¹ÑģÑĤÐ²Ð°": 5673,
      "Ð°ÑĤÐµÐ»ÑĮÐ½ÑĭÐ¹": 5674,
      "ĠÐłÑĭ": 5675,
      "ÐĲÐ´": 5676,
      "Ð³Ð¸Ð·": 5677,
      "ĠÐ±ÐµÑģÐº": 5678,
      "ÑįÑĦ": 5679,
      "ÑĤÐ¸ÑĩÐµÑģÐºÐ¸Ð¹": 5680,
      "Ġ1982": 5681,
      "ĠÐ¿ÐµÐ²Ð¸ÑĨÐ°": 5682,
      "Ð¸Ð½Ð°Ñħ": 5683,
      "ĠÐ¸Ð³ÑĢ": 5684,
      "ĠÐ½ÐµÐ³": 5685,
      "ĠÐºÑĢÐ¸ÑģÑĤÐ°Ð»": 5686,
      "ĠÑģÐ°Ð½": 5687,
      "ĠÐ±ÐµÐ´": 5688,
      "ĠÐ¾ÑĤÐ½Ð¾ÑĪÐµÐ½Ð¸Ð¹": 5689,
      "ĠÐ¾Ð¶": 5690,
      "ĠÐ¡Ð¾Ð»Ð½": 5691,
      "ĠÐĵÐ°Ð¹": 5692,
      "ĠÑģÐ¿Ð¾ÑĢÑĤÐ°": 5693,
      "ĠÐºÐ¾ÑĢÐ¾Ð»": 5694,
      "ĠÐ¿Ð°ÑĢÐ°Ð¼ÐµÑĤ": 5695,
      "ĠÑģÐ°Ð¼Ð¾Ð¼": 5696,
      "Ġ1978": 5697,
      "ÑīÐ¸Ð¹": 5698,
      "ĠÐ¢ÑĢÐ¸": 5699,
      "ĠÐ±ÑĢÐ°ÑĤÑĮ": 5700,
      "ĠÐĴÐµÐ½Ð³": 5701,
      "ĠÐĹÐ´ÐµÑģÑĮ": 5702,
      "Ð³Ð°Ð½": 5703,
      "ĠÐºÐ°Ð´": 5704,
      "ĠÐ¸Ð·Ð¼ÐµÐ½Ð¸": 5705,
      "ĠÐŁÐµÑĢÐ²ÑĭÐ¹": 5706,
      "Ð¾ÑĩÐ½Ð¾Ð¹": 5707,
      "ĠÐĽÐµÐ½Ð¸Ð½Ð³ÑĢÐ°Ð´": 5708,
      "93": 5709,
      "Ð·Ð´": 5710,
      "Ð´Ð¸Ð¹": 5711,
      "ĠÐ·Ð°ÑģÐµÐ´": 5712,
      "ĠÑģÐ²ÑıÐ·ÑĮ": 5713,
      "Ġ1963": 5714,
      "ĠÐ·Ð°Ð¿Ð¸ÑģÐ¸": 5715,
      "ĠÐ¼Ð¾Ð´Ñĥ": 5716,
      "ĠÐ¿Ð¾Ð»Ð¸ÑĤÐ¸Ðº": 5717,
      "Ð½ÐµÐ½Ð¸Ðµ": 5718,
      "ĠÐ¿ÑĢÐµÐ·Ð¸Ð´ÐµÐ½ÑĤÐ¾Ð¼": 5719,
      "ĠÑģÐ»ÑĥÐ¶Ð±Ñĭ": 5720,
      "ĠÑĩÐ°ÑģÑĤÐµÐ¹": 5721,
      "ĠÐ¿Ð¸ÑģÐ°ÑĤÐµÐ»Ñı": 5722,
      "ĠÐ²Ð¾ÐµÐ½Ð½Ð¾Ð³Ð¾": 5723,
      "ĠÐ¿ÑĢÐµÐ´Ð¿ÑĢÐ¸ÑıÑĤÐ¸Ñı": 5724,
      "ĠÐ´Ð¾Ð²Ð¾Ð»ÑĮÐ½Ð¾": 5725,
      "ÐµÑħÐ°Ð»": 5726,
      "Ð°ÑĢÑģÐºÐ¸Ð¹": 5727,
      "ĠÑĢÐ°ÑģÑģÐºÐ°": 5728,
      "ÑĢÐ°ÑĤÐ½Ð¾": 5729,
      "ĠÑĢÐ°ÑģÐ¿Ð¾Ð»Ð¾Ð¶ÐµÐ½Ñĭ": 5730,
      "ĠÐ³Ð°Ð·Ð°": 5731,
      "ĠÐºÐ¾Ð¼Ð°Ð½Ð´Ñĭ": 5732,
      "ĠÐ¿Ð¾ÑģÐµÑĤ": 5733,
      "Ġ1977": 5734,
      "ĠÐ¿Ð¾Ð»Ð¸ÑĤÐ¸ÐºÐ¸": 5735,
      "ÐµÐ²Ð¸ÑĩÐ°": 5736,
      "Ð¾ÑĢÑĤÑĥÐ³": 5737,
      "ĠÑĢÐµÐºÐ¾Ð¼": 5738,
      "Ð»ÑĮÐ½Ð¾Ð³Ð¾": 5739,
      "ĠÐ¿Ð¾Ð»Ð½Ð¾Ð¼Ð¾Ñĩ": 5740,
      "ÐºÐ¾ÑģÑĤÐ¸": 5741,
      "ĠÐ¼Ð°Ð»Ð¾": 5742,
      "Ð¾Ð»Ð¾Ð³Ð¸ÑĩÐµÑģÐºÐ¾Ð¹": 5743,
      "ĠÐ°Ð²ÑĤÐ¾Ð±ÑĥÑģ": 5744,
      "ĠÐĴÐ°ÑģÐ¸Ð»Ð¸Ð¹": 5745,
      "47": 5746,
      "ĠÐ¿ÑĢÐ¸Ð²ÐµÐ´": 5747,
      "ÐµÐºÐ¾Ð¼": 5748,
      "ĠÑģÐ¾ÑģÑĤÐ¾ÑıÐ½Ð¸Ð¸": 5749,
      "ĠÐ¿Ð¾ÑģÐ»ÐµÐ´Ð½Ð¸Ð¹": 5750,
      "ĠÑĥÐ»ÑĥÑĩÑĪ": 5751,
      "ĠÑģÑĩÐ¸ÑĤÐ°Ð»": 5752,
      "ĠÐ¡Ð¾ÑİÐ·": 5753,
      "ĠÐ´Ð¾ÑĩÑĮ": 5754,
      "ÑģÑĤÐ¸Ð¼": 5755,
      "ĠÐºÐ¾Ð½ÑĨÐµÐ½ÑĤÑĢÐ°": 5756,
      "ĠÐ¾ÑĢÐ¸": 5757,
      "ĠÐ¿ÑĢÐ¾ÑĤÐ¸Ð²Ð¾ÑĢÐµ": 5758,
      "ĠÐ½ÐµÐ¹ÑĤ": 5759,
      "ĠÐĽÐµÐ½Ð¸Ð½Ð°": 5760,
      "ÑĢÑĥÑĩ": 5761,
      "Ġ1976": 5762,
      "ĠÐĶÑĢÑĥÐ³": 5763,
      "ÐĿÐµ": 5764,
      "ĠÐĿÐ¸ÐºÐ¾Ð»Ð°Ñı": 5765,
      "Ð·Ñı": 5766,
      "Ġ1946": 5767,
      "ĠÑĤÑĢÐ°ÐºÑĤ": 5768,
      "ĠÐºÐ¾ÑĢÐ¿ÑĥÑģ": 5769,
      "ĠÑĦÐ°Ð±ÑĢÐ¸": 5770,
      "ĠÑħÐ¾Ð»Ð¾Ð´": 5771,
      "ĠÐ£Ð¸Ð»ÑĮ": 5772,
      "ÑĪÐµÐ¹ÑģÑı": 5773,
      "Ð²Ð¸Ð»Ð°ÑģÑĮ": 5774,
      "ĠÐºÐ°ÑĦÐµÐ´": 5775,
      "Ð°Ð»Ð¸Ð·Ð¼": 5776,
      "ĠÑĥÑģÑĤÑĥÐ¿": 5777,
      "ÑĳÐ½Ð½Ð¾ÑģÑĤÑĮ": 5778,
      "ĠÐ²ÑĭÑģÐ¾ÐºÐ¾Ð¹": 5779,
      "ÐĻÐ¾ÑĢ": 5780,
      "Ð±Ð¾Ð¹": 5781,
      "ĠÐºÐ¾ÑģÐ¼Ð¾Ð½Ð°Ð²": 5782,
      "ÐµÑĢÑĥÑģÐ°Ð»": 5783,
      "Ð¸ÑĤÐ¸": 5784,
      "Ð»Ð¸ÑĪ": 5785,
      "ĠÐ±Ð°Ð·Ðµ": 5786,
      "ĠÑģÐ¾ÑģÑĤÐ°Ð²Ð»ÑıÑİÑĤ": 5787,
      "ÑĢÐ°ÑģÑĤ": 5788,
      "ÐµÐ»Ð»": 5789,
      "Ð»ÑİÐ´": 5790,
      "ĠÐ²ÐµÑīÐµÑģÑĤÐ²": 5791,
      "ĠÐ´ÑĢÑĥÐ³Ð°": 5792,
      "Ġ1974": 5793,
      "ĠÑģÐµÐ²ÐµÑĢÐµ": 5794,
      "02": 5795,
      "ĠÑģÑĤÑĢÐ¾Ðº": 5796,
      "ĠÐ´Ð²Ð¾ÑĢÑıÐ½": 5797,
      "Ð¾ÑģÑĤÐ¾ÐºÐ°": 5798,
      "ÐµÐ²ÑģÐºÐ¾Ð³Ð¾": 5799,
      "ĠÑĢÐ°Ð±Ð¾ÑĩÐ¸Ñħ": 5800,
      "ĠÐ¿ÑĢÐµÐ´ÑĥÑģ": 5801,
      "Ð¼ÐµÐ½Ð½Ð¾": 5802,
      "ÐµÐ½ÑģÐºÐ¾Ð¹": 5803,
      "ĠÐ¼Ð°ÑĢÑĤÐµ": 5804,
      "ÑĩÐ¸ÐºÐ¾Ð²": 5805,
      "Ð¾ÑĢÐ´Ð¶": 5806,
      "ĠÐ±ÐµÑģ": 5807,
      "Ð»Ð¸Ð½Ñĭ": 5808,
      "Ð¾Ð±Ð»Ð°": 5809,
      "ĠÑģÑĥÑīÐµÑģÑĤÐ²ÑĥÑİÑĤ": 5810,
      "ĠÐºÐ¾Ð¼Ð¼ÑĥÐ½Ð¸": 5811,
      "ĠÐºÐ»Ð°Ð´Ð±Ð¸ÑīÐµ": 5812,
      "82": 5813,
      "ÑĢÐ¾Ð³Ð¾": 5814,
      "ĠÐ³Ð»Ð°Ñģ": 5815,
      "ÑĤÐ¸Ð²Ð°": 5816,
      "ĠÐ°Ð²Ð³ÑĥÑģÑĤÐµ": 5817,
      "ĠÑģÐ¾ÑĤÑĢÑĥÐ´Ð½Ð¸ÑĩÐµ": 5818,
      "ĠÐ¤Ð¸Ð½Ð»ÑıÐ½Ð´": 5819,
      "ĠÐ²Ð¸Ð´Ñĭ": 5820,
      "ĠÐĿÐ¸": 5821,
      "Ġ1981": 5822,
      "ÑįÑĢ": 5823,
      "ĠÐŁÐ¾ÑģÑĤ": 5824,
      "91": 5825,
      "ĠÐ¸Ð¼ÐµÐµÑĤÑģÑı": 5826,
      "ĠÐ¡Ð²ÑıÑĤÐ¾Ð³Ð¾": 5827,
      "ĠÐĵÑĢÐ¸Ð³Ð¾": 5828,
      "ĠÐ¡ÐµÐ²": 5829,
      "Ð°ÑĤÐµÐ»ÑĮÐ½Ð¾Ð³Ð¾": 5830,
      "Ð¸Ð·Ð°ÑĨÐ¸Ð¸": 5831,
      "ĠÐ¤Ð¾ÑĢ": 5832,
      "ĠÐ¨ÑĤ": 5833,
      "ĠÑģÐµÐ½ÑĤÑıÐ±ÑĢÐµ": 5834,
      "ÑģÐ¸Ð½": 5835,
      "ĠÐ¿ÑĢÐ¾ÑħÐ¾Ð´Ð¸ÑĤ": 5836,
      "Ġ1972": 5837,
      "ĠÑĤÐ²ÑĳÑĢÐ´": 5838,
      "ĠÑģÐ°Ð¼ÑĭÐ¹": 5839,
      "ĠÐ¾ÐºÑĢÐ°": 5840,
      "ĠÐ·ÐµÐ¼Ð»Ñı": 5841,
      "ĠÐ¿ÑĢÐ¸Ð²ÐµÐ»Ð¾": 5842,
      "Ð²Ð°Ñı": 5843,
      "ÐµÑĢÐ¿": 5844,
      "ĠÐ¬": 5845,
      "ĠÐ½Ð°ÑĩÐ°Ð»Ð°ÑģÑĮ": 5846,
      "ev": 5847,
      "ÐµÐ½Ð¸Ð½": 5848,
      "ens": 5849,
      "ĠÐ·Ð°Ð²Ð¸ÑģÐ¸ÑĤ": 5850,
      "ĠÐ¿ÑĢÐµÐ¿Ð¾Ð´Ð°Ð²": 5851,
      "eg": 5852,
      "ÐµÑĢÐ°Ð¿": 5853,
      "ĠÑģÐ½Ð¸Ð¶": 5854,
      "ĠÐ½Ð°Ð·Ð°Ð´": 5855,
      "Ð¿Ð°ÑĤ": 5856,
      "ÑģÑĤÐ¸ÑĩÐµÑģÐºÐ¾Ð¹": 5857,
      "ĠÐĶÐ¼Ð¸ÑĤÑĢÐ¸Ð¹": 5858,
      "ÐĳÐ¸Ð¾Ð³ÑĢÐ°ÑĦÐ¸Ñı": 5859,
      "Ð°ÑĤÐµÐ¼": 5860,
      "ĠÐ¿ÑĢÐ¸Ð¼ÐµÐ½ÐµÐ½Ð¸Ñı": 5861,
      "ĠÐºÐ²": 5862,
      "ĠÐ¾Ð±ÑģÐ»ÑĥÐ¶": 5863,
      "ĠÐ·Ð²ÑĳÐ·Ð´": 5864,
      "ĠÑĥÐ¿ÑĢÐ°Ð²Ð»ÐµÐ½Ð¸Ðµ": 5865,
      "ĠÑĥÑģÐ¸Ð»": 5866,
      "ĠÐ¸Ð´ÐµÐ¸": 5867,
      "ĠÑģÑĤÐµÐº": 5868,
      "ĠÐ¼Ð¸Ð»Ð»Ð¸Ð¾Ð½Ð¾Ð²": 5869,
      "ĠÑĦÐ»Ð¾ÑĤÐ°": 5870,
      "Ġ1971": 5871,
      "ĠÑĤÐµÑĢÑĢÐ¸ÑĤÐ¾ÑĢÐ¸Ñİ": 5872,
      "ĠÐ¾ÑĢÐ³Ð°Ð½Ð¸Ð·": 5873,
      "ĠÑģÐ¾Ð¼": 5874,
      "ÑĥÐ¿ÑĢÐ°Ð²": 5875,
      "Ð³ÐµÐ½": 5876,
      "Ð³Ð¾Ð»": 5877,
      "Ġ1922": 5878,
      "ĠÐºÐ»Ñİ": 5879,
      "ÑĨÐ¾Ð¼": 5880,
      "ĠÑĨÐ°ÑĢÑĮ": 5881,
      "54": 5882,
      "Ð¾Ð²ÑģÐºÐ¸Ð¹": 5883,
      "Ð¶ÐµÐ¹": 5884,
      "Ð»Ð°Ð¹": 5885,
      "Ġ1969": 5886,
      "ĠÑĤÐµÐ»ÐµÑĦ": 5887,
      "77": 5888,
      "ĠÐľÐ¸Ð»": 5889,
      "ĠÐ³Ð¾Ð¼": 5890,
      "ĠÐĶÐ°Ð²": 5891,
      "ĠÑģÐ½Ð¾Ð²Ð°": 5892,
      "ÑģÐºÐ¾ÑħÐ¾Ð·ÑıÐ¹": 5893,
      "ĠÐ¿ÑĢÐ¾Ð³ÑĢÐ°Ð¼Ð¼Ð¸ÑĢÐ¾Ð²": 5894,
      "ĠÐ¾ÐºÑĤÑıÐ±ÑĢÐµ": 5895,
      "83": 5896,
      "ĠÐ¡Ð¾ÑĨÐ¸": 5897,
      "Ġ1957": 5898,
      "Ð°ÑģÑĤÑĮ": 5899,
      "ĠÐ¿Ð»ÐµÐ½": 5900,
      "ĠÑĤÑĥÑĢÐµ": 5901,
      "Ġ1966": 5902,
      "Ð¾ÑĤÐ²": 5903,
      "ĠÐ²ÑĤÐ¾ÑĢÐ¾Ð³Ð¾": 5904,
      "ĠÐ¸ÑģÐ¿Ð¾Ð»ÑĮÐ·Ñĥ": 5905,
      "ÑĢÐµÑģÑģ": 5906,
      "ĠÑģÐ¿Ð°Ñģ": 5907,
      "ity": 5908,
      "ĠÑģÐ¾Ð±ÑĭÑĤÐ¸Ð¹": 5909,
      "ĠÐ½ÐµÐ¿Ð¾ÑģÑĢÐµÐ´ÑģÑĤÐ²ÐµÐ½Ð½Ð¾": 5910,
      "Ð¸ÑĨÐ¸Ñı": 5911,
      "Ġ1000": 5912,
      "ĠÐ¸ÑģÐ¿Ð¾Ð»Ð½Ð¸ÑĤÐµÐ»ÑĮ": 5913,
      "ĠÐ¾ÑĢÐ³Ð°Ð½Ð¸Ð·Ð°ÑĨÐ¸Ð¹": 5914,
      "Ð°Ð¹Ð½": 5915,
      "Ġ1958": 5916,
      "ĠÑĦÐ¸Ð»ÑĮÐ¼Ð°": 5917,
      "ĠÑģÐ²Ð¾Ð¸Ð¼Ð¸": 5918,
      "ĠÐ»Ð¸ÑĤÐ¾Ð²": 5919,
      "ĠÐ³Ð¸Ð¿Ð¾ÑĤ": 5920,
      "ĠÐ¾ÑĢÑĥÐ¶Ð¸Ñı": 5921,
      "Ð°Ð¼Ð¼": 5922,
      "ĠÐ±Ð¾ÑĢÑĮÐ±Ñĭ": 5923,
      "ÑĥÐ¼Ð°Ð½": 5924,
      "ĠÑĦÐ°ÐºÑĤÐ¸ÑĩÐµÑģÐºÐ¸": 5925,
      "ĠÐ¿ÑĢÐµÐ²ÑĢÐ°Ñī": 5926,
      "Ð»Ð°Ð¼Ð¸": 5927,
      "ĠÐ¡Ñĥ": 5928,
      "ĠÐļÐ¸ÑĤ": 5929,
      "ĠÑĢÐ°Ð¹Ð¾Ð½Ð¾Ð²": 5930,
      "all": 5931,
      "ĠÑģÐµÐ³Ð¾Ð´Ð½Ñı": 5932,
      "ĠÑģÑĭÐ³ÑĢÐ°": 5933,
      "ĠÐ¿Ð°ÑĢÐ°Ð»Ð»": 5934,
      "ĠÐŁÐ°Ð²ÐµÐ»": 5935,
      "ĠÐºÐ¾Ð»ÐµÐ±": 5936,
      "ĠÐ·Ð°ÑīÐ¸ÑĤÑĭ": 5937,
      "ĠAn": 5938,
      "ĠÐºÐ½Ð¸Ð³Ð°": 5939,
      "ÐºÐ¸Ð¿Ð°Ð¶": 5940,
      "ÐµÐ¼Ð¾ÑĢÐ¸": 5941,
      "ĠÐŁÐ¾Ð¿": 5942,
      "Ð²ÑıÐ·": 5943,
      "ĠÐ¾ÑģÐ½Ð¾Ð²Ð½ÑĭÐµ": 5944,
      "Ð´ÐµÑĢ": 5945,
      "ÑĸÑģ": 5946,
      "ĠÐ´Ð¾ÑģÑĤÐ¸Ð³Ð°": 5947,
      "ĠÐ¿Ð¾Ð»Ð°Ð³": 5948,
      "ĠÑģÑĢÐµÐ´Ð½ÐµÐ²ÐµÐº": 5949,
      "ĠÐ¿ÑĢÐµÐ´ÑģÐµÐ´Ð°ÑĤÐµÐ»ÑĮ": 5950,
      "72": 5951,
      "ĠÐ¾ÑĢÐ¸Ð³Ð¸Ð½": 5952,
      "ĠÐĴÑģÐµÐ¼": 5953,
      "ĠÐĴÐ»Ð°Ð´Ð¸Ð¼Ð¸ÑĢÐ°": 5954,
      "ĠÐľÑĥÑħ": 5955,
      "ĠÐ·Ð°Ð²Ð¾Ð´Ð°": 5956,
      "ĠÑĤÑĢÐµÑĥÐ³Ð¾Ð»ÑĮ": 5957,
      "Ġh": 5958,
      "ÐµÐ½Ð½ÑĥÑİ": 5959,
      "Ð°Ð²Ð¾Ð´": 5960,
      "ĠÐ¼ÐµÑĤÐ°Ð»Ð»": 5961,
      "ĠÐ¿Ð¾ÑģÑĤÐ¾ÑıÐ½Ð½Ð¾": 5962,
      "ĠÐĹÐ°Ð¿Ð°Ð´Ð½Ð¾Ð¹": 5963,
      "ex": 5964,
      "ĠÐ½Ð°ÑģÑĤ": 5965,
      "ÑıÑīÐ¸Ð¹": 5966,
      "ĠÑĩÐ»ÐµÐ½Ð¾Ð¼": 5967,
      "ĠÑģÐ°Ð¹ÑĤÐµ": 5968,
      "ĠÐ¡Ð»Ð¾Ð²": 5969,
      "Ð»Ð°Ñħ": 5970,
      "ĠÐºÐ¾Ð¼Ð¿Ð»ÐµÐº": 5971,
      "Ð¼Ð¾ÑĤÑĢ": 5972,
      "ĠÐŁÐ°ÑĢÐ¸Ð¶": 5973,
      "ĠÐºÐ¾Ð¾ÑĢÐ´Ð¸Ð½": 5974,
      "eb": 5975,
      "Ġ1936": 5976,
      "ĠÐ±Ð¾Ð¶Ðµ": 5977,
      "ĠÑĤÑĢ": 5978,
      "ĠÑģÐ¾ÑģÑĤÐ°Ð²Ð¸Ð»": 5979,
      "ĠÑģÑĢÐµÐ´Ñĭ": 5980,
      "ĠÐ³Ð¾Ð½": 5981,
      "Ġ1929": 5982,
      "ĠÑĥÑĤÐ²ÐµÑĢÐ¶": 5983,
      "ĠÑĢÑĥÐº": 5984,
      "Ð¾ÑģÑĤÐ¾Ñı": 5985,
      "ÑĥÑİÑīÐµÐ¹": 5986,
      "ian": 5987,
      "ĠÐĿÐ°Ð·": 5988,
      "ĠÐĺÑĢ": 5989,
      "ĠÐ¸Ð·Ð²ÐµÑģÑĤÐ½ÑĭÐ¹": 5990,
      "ĠÐ»ÑİÐ±Ð¾Ð¹": 5991,
      "ĠÐ½ÐµÐ·Ð°Ð²Ð¸ÑģÐ¸Ð¼Ð¾ÑģÑĤÑĮ": 5992,
      "ÐºÐ¾Ð³": 5993,
      "ĠÐ¢Ð°Ð¼": 5994,
      "Ð°Ð»Ð¸Ð·Ð¼Ð°": 5995,
      "ĠÐ¾Ð¿ÑĢÐµÐ´ÐµÐ»ÐµÐ½Ð¸Ñı": 5996,
      "ĠÐļÐ¾ÑĢÐ¾Ð»ÐµÐ²": 5997,
      "Ð°Ð²Ð¸Ð»": 5998,
      "ĠÐºÐ¾ÑĢÐ°Ð±Ð»Ñı": 5999,
      "ĠÐ¿ÑĢÐ¸Ð»Ð¾Ð¶": 6000,
      "ĠÐ¿ÑĢÐµÐ´Ð»Ð¾Ð¶Ð¸Ð»": 6001,
      "ĠÐ½Ð¸ÐºÐ¾Ð³Ð´Ð°": 6002,
      "ĠÑģÑĤÐ¸ÑħÐ¾ÑĤÐ²Ð¾ÑĢ": 6003,
      "ĠÐĳÐ°Ð±": 6004,
      "ÑĥÑīÐµÑģÑĤÐ²ÑĥÐµÑĤ": 6005,
      "ĠÑĢÐ¾Ð´Ð¸Ð»ÑģÑı": 6006,
      "ĠÐ²Ð¾Ð·Ð½Ð¸ÐºÐ½Ð¾Ð²": 6007,
      "ĠÐ²Ð¿Ð»Ð¾ÑĤÑĮ": 6008,
      "ĠÐ²Ð¾Ð·ÑĢÐ°ÑģÑĤÐµ": 6009,
      "ÐµÐ²ÑĭÑħ": 6010,
      "ÑĪÐµÐ³Ð¾ÑģÑı": 6011,
      "ĠÐ·Ð°Ð¼ÐµÐ½": 6012,
      "ĠÐ´Ð¾Ð»Ð¶Ð½Ð¾ÑģÑĤÐ¸": 6013,
      "ÑıÐ»Ð°": 6014,
      "ĠÐ½Ð°ÑħÐ¾Ð´Ð¸Ð»ÑģÑı": 6015,
      "ÑģÑĤÐ¸Ð½": 6016,
      "ÑĤÑĥÑĢÑĥ": 6017,
      "ĠÐ±Ð¾Ð»ÑĮÑĪÑĥÑİ": 6018,
      "ĠÐºÐ°Ð¼Ð¿": 6019,
      "ÑĢÐµÐ»": 6020,
      "Ð¡Ðļ": 6021,
      "ĠÐĿÐµÑģÐ¼Ð¾ÑĤÑĢÑı": 6022,
      "ĠÑģÐ¼ÐµÑĢÑĤÑĮ": 6023,
      "Ð¸ÑĤÐµ": 6024,
      "Ġ1956": 6025,
      "Ġ1921": 6026,
      "ĠÐ°Ð½Ð°Ð»Ð¾Ð³Ð¸Ñĩ": 6027,
      "ĠÑĦÐ¸ÑĢ": 6028,
      "ĠÐ·Ð°ÐºÑĢÐµÐ¿": 6029,
      "ÑĢÐ¾Ð³ÑĢÐ°Ð¼": 6030,
      "ĠÐ´Ð¶": 6031,
      "Ð¾ÑĤÐ¾Ð¿": 6032,
      "ĠÐºÐ¾Ð»Ð»ÐµÐºÑĤÐ¸Ð²": 6033,
      "pp": 6034,
      "ÐĶÐł": 6035,
      "ĠÑĸÐ¿": 6036,
      "ĠÐļÐ°Ð»Ð¸Ð½": 6037,
      "Ġ1934": 6038,
      "ĠÐºÑĢÐ¾Ð²Ð¸": 6039,
      "ĠÐºÐ»Ð¸Ð½": 6040,
      "Ð½Ð¸Ð»": 6041,
      "ĠÐľÑĥ": 6042,
      "Ð±Ð¾Ð²": 6043,
      "63": 6044,
      "Ð¾ÐºÐ¾Ð¹": 6045,
      "ĠÐ²ÑĢÐµÐ¼ÐµÐ½ÐµÐ¼": 6046,
      "ĠÐ°Ð¿ÑĢÐµÐ»Ðµ": 6047,
      "ĠÐ²ÑĢÐµÐ¼ÑĳÐ½": 6048,
      "ĠÐľÐ°ÑĢÐ¸Ñı": 6049,
      "ĠÐķÐ²ÑĢÐ¾Ð¿ÐµÐ¹": 6050,
      "71": 6051,
      "ĠÐ²ÐµÐºÐ¾Ð²": 6052,
      "ĠÐĲÐ¼ÐµÑĢÐ¸ÐºÐ¸": 6053,
      "ÐºÐ°Ðº": 6054,
      "Ð³Ð¾ÑĢÐ¸ÑĤ": 6055,
      "ĠÐ¿ÐµÑĢÐµÑģÐµ": 6056,
      "ÑĢÐ¸Ð¼": 6057,
      "ĠÐ¿ÑĢÐ¾Ð»": 6058,
      "42": 6059,
      "ÐĶÐ¶": 6060,
      "ÑĢÐµÑĩ": 6061,
      "ĠÐ¿ÑĥÐ±Ð»Ð¸ÐºÐ°": 6062,
      "ĠÐĺÐ½Ð´Ð¸Ð¸": 6063,
      "ĠÐ¡ÑĥÐ´": 6064,
      "ÑĭÐ²Ð°ÑĤÑĮ": 6065,
      "ĠÐ¸ÑģÐºÑĥÑģÑģÑĤÐ²": 6066,
      "ĠÐ´ÐµÐ»Ð¾": 6067,
      "62": 6068,
      "ÑĢÐµÐ·Ð²": 6069,
      "ĠÑįÐ»ÐµÐºÑĤÑĢÐ¾": 6070,
      "ĠÐºÐ°Ð¶Ð´Ð¾Ð³Ð¾": 6071,
      "ĠÑĤÑĢÐµÐ½": 6072,
      "ÐµÑħÐ½Ð¸ÑĩÐµ": 6073,
      "ĠÑĢÐµÐºÐµ": 6074,
      "ĠÑįÐºÑģÐ¿Ð»ÑĥÐ°ÑĤÐ°": 6075,
      "ÑĢÐ¸Ð¶": 6076,
      "Ð°ÑĤÐ¾ÑĢÐ¾Ð²": 6077,
      "ÑĦÐµ": 6078,
      "ĠÐĳÐ°Ð¹": 6079,
      "ĠÐĳÐµÑĢÐ»Ð¸Ð½": 6080,
      "ĠÐºÐ¸Ð»Ð¾Ð¼ÐµÑĤ": 6081,
      "ĠÑĢÐµÐºÐ°": 6082,
      "ĠÐ¾ÑģÑĤÑĢÐ¾Ð²Ðµ": 6083,
      "Ð°Ð½ÐºÐ°": 6084,
      "ĠÑĦÐ¸Ð³": 6085,
      "ĠÑĤÐµÑħÐ½Ð¸ÐºÐ¸": 6086,
      "ĠÐºÐ¸Ð½Ð¾ÑĢÐµÐ¶Ð¸ÑģÑģÑĳÑĢ": 6087,
      "ĠÐ¿ÑĢÐ¾Ð¶Ð¸Ð²": 6088,
      "Ð¸Ð½ÑģÐºÐ¸Ðµ": 6089,
      "ĠÐŀÑĦÐ¸ÑĨÐ¸Ð°Ð»ÑĮ": 6090,
      "ĠÐŀÐŀÐŀ": 6091,
      "ĠÐĴÐµÐ»Ð¸ÐºÐ¾Ð³Ð¾": 6092,
      "Ð½Ð¸ÐºÐ°Ð¼": 6093,
      "ĠÐ²Ð¾Ð»Ð½Ñĭ": 6094,
      "ÑĢÐµÐ³Ð¸ÑģÑĤ": 6095,
      "ĠÐ½Ð°ÑĨÐ¸Ð¾Ð½": 6096,
      "ĠÐ±Ð¾Ð»ÑĮÑĪÐ¸Ñħ": 6097,
      "ĠÑĦÐ¸Ð»": 6098,
      "ÑĢÑĭÐ²Ð°": 6099,
      "ĠÐ¿Ð¾Ð»Ð¸ÑĤÐ¸ÑĩÐµÑģÐºÐ¾Ð¹": 6100,
      "ĠÑģÑİÐ¶": 6101,
      "Ð°Ð²ÑĪÐ°Ñı": 6102,
      "ĠÑĨÐ²ÐµÑĤÐ°": 6103,
      "Ð»Ð¸Ð¼": 6104,
      "ĠÐĴÐµÐ½": 6105,
      "ĠÐ¾Ð¿Ð¿Ð¾Ð·": 6106,
      "ĠÑģÐ°Ð¹ÑĤ": 6107,
      "ĠÐ¿ÑĢÐ¾ÑıÐ²Ð»Ñı": 6108,
      "Ð°Ð·Ñĭ": 6109,
      "ĠÐ¾ÑĤÐµÑĨ": 6110,
      "ÐŁÑĢÐ¾": 6111,
      "Ġ%": 6112,
      "ÑĥÐ·Ð½Ðµ": 6113,
      "ĠÐ¿Ð¾Ð½ÑıÑĤÐ¸Ðµ": 6114,
      "ĠÑģÐºÐ¾ÑĢÐ¾ÑģÑĤÐ¸": 6115,
      "Ð¾Ð²Ð°Ð½Ð¸ÐµÐ¼": 6116,
      "39": 6117,
      "ĠÑĦÐ°Ð½ÑĤÐ°": 6118,
      "ĠÐ¿Ð¾Ð»Ð¸ÑĤÐ¸ÑĩÐµÑģÐºÐ¸Ð¹": 6119,
      "ĠÐŁÑĥÑĤ": 6120,
      "ĠÐ¿ÐµÑĢÐ²Ð¾Ð¼": 6121,
      "ĠÐ¸Ð·Ð²ÐµÑģÑĤÐ½ÑĭÑħ": 6122,
      "ĠÐ»Ð°Ð±": 6123,
      "ĠÐ±Ð¸Ð·Ð½ÐµÑģ": 6124,
      "ĠÑĥÐ¿ÑĢÐ°Ð·Ð´": 6125,
      "ĠÐ½Ð°ÑĥÑĩÐ½ÑĭÑħ": 6126,
      "ĠÑĤÑĢÐ°Ð²": 6127,
      "Ð¼Ð¸Ð½Ð¸ÑģÑĤÑĢÐ°ÑĤÐ¸Ð²": 6128,
      "ĠÑĤÐµÐ¼Ð¿ÐµÑĢÐ°ÑĤÑĥÑĢÑĭ": 6129,
      "Ð°Ð½ÑģÐºÐ¸Ðµ": 6130,
      "ĠÐļÐ¸ÑĤÐ°Ð¹": 6131,
      "ĠÐ³ÐµÐ¾Ð¼ÐµÑĤ": 6132,
      "ĠÐ±ÑİÐ´Ð¶": 6133,
      "ĠÐºÐ¾Ð½ÑĨÑĥ": 6134,
      "Ð»ÑĥÐ³": 6135,
      "ĠÐ±Ð¾Ð»ÑĮÑĪÐµÐ¹": 6136,
      "ĠÐ²ÐµÑĢÐ½ÑĥÐ»ÑģÑı": 6137,
      "ÑģÑĤÐ²ÐµÐ½Ð½Ð¾Ð¼": 6138,
      "ĠÑĩÐµÑĤÐ²ÑĳÑĢ": 6139,
      "ĠÐ¿Ð»Ð°Ð½Ð¸ÑĢÐ¾Ð²": 6140,
      "ĠÑģÐ¿ÑĥÑģÑĤ": 6141,
      "ĠÐ¼Ð°ÑģÑģ": 6142,
      "ĠÐ²Ð²Ð¾Ð´": 6143,
      "ĠÐ¢Ñĥ": 6144,
      "ĠÐ³Ð¾ÑĢÐ¾Ð´Ð¾Ð¼": 6145,
      "ĠÑįÐ¼": 6146,
      "ÑĥÑİÑīÐµÐµ": 6147,
      "ÑģÑĤÐ²ÐµÐ½Ð½ÑĥÑİ": 6148,
      "ĠÐ¤ÐµÑĢ": 6149,
      "ĠÐĿÐ°Ð¿Ð¾Ð»Ðµ": 6150,
      "ĠÐ¿ÑĢÐ¾ÑĨÐµÑģÑģÐµ": 6151,
      "ĠÑĢÐµÐ±": 6152,
      "ÐµÐºÐ¾": 6153,
      "ĠÑģÐ¾Ð¾Ð±ÑīÐµ": 6154,
      "ĠÐ¾ÑĢÐ³Ð°Ð½Ð¸Ð·Ð°ÑĨÐ¸Ñı": 6155,
      "ÑĢÐ¾Ð¼ÑĭÑĪÐ»ÐµÐ½": 6156,
      "ĠÐ±Ð¸Ð±Ð»Ð¸Ð¾ÑĤÐµÐºÐ°": 6157,
      "ÑĪÑĤÐ°Ð±": 6158,
      "ĠÐ¿ÑĢÐµÐ´ÑģÑĤÐ°Ð²Ð»ÐµÐ½Ð¸Ñı": 6159,
      "ĠÐ·Ð²Ð°Ð½Ð¸Ðµ": 6160,
      "ĠÐ·Ð°ÑģÐ»ÑĥÐ¶": 6161,
      "Ð»ÑıÑĨÐ¸Ð¸": 6162,
      "Ð¿Ð¸ÑģÐ¾Ðº": 6163,
      "Ð¾ÑĩÐ½ÑĭÐ¹": 6164,
      "ĠÑģÐ¾Ð²Ð¿": 6165,
      "ĠÐ¼Ð¾ÑĤÐ¸Ð²": 6166,
      "ĠÐºÐ¾Ð¶": 6167,
      "Ð²Ð¸Ð³Ð°": 6168,
      "ĠÐ¸ÑģÑĤÐ¾ÑĢÐ¸Ñİ": 6169,
      "ĠÐ¦ÐµÐ·": 6170,
      "ÑĢÐ¾Ð²Ð°Ð½Ð½ÑĭÑħ": 6171,
      "ĠÐ¿Ð¾ÑģÐ»": 6172,
      "ĠÑĤÐµÐ°ÑĤÑĢÐ°Ð»ÑĮ": 6173,
      "ok": 6174,
      "ĠÑģÐ½Ðµ": 6175,
      "ÑħÐ°Ð½": 6176,
      "ĠÑģÐ¾Ð²ÐµÑĤÑģÐºÐ¸Ñħ": 6177,
      "ĠÐ³Ð¾ÑģÑĥÐ´Ð°ÑĢÑģÑĤÐ²ÐµÐ½Ð½ÑĭÑħ": 6178,
      "81": 6179,
      "ĠÐ²ÑĭÐ±Ð¾ÑĢÑĭ": 6180,
      "Ð¢Ð°ÐºÐ¶Ðµ": 6181,
      "ĠÑĨÐµÐ¿": 6182,
      "ĠÑĥÑģÑĤÐ°Ð½Ð°Ð²": 6183,
      "ĠÐ½Ð¾ÑıÐ±ÑĢÐµ": 6184,
      "ÐµÑĤÑĥ": 6185,
      "ÐµÐ¼Ð±": 6186,
      "Ð»ÑıÑĤÑĮ": 6187,
      "ĠÐŁÐ¾ÑĢÑĤÑĥÐ³": 6188,
      "end": 6189,
      "ĠÐŁÐ°": 6190,
      "ĠÑģÑĥÑīÐµÑģÑĤÐ²Ð¾Ð²Ð°Ð½Ð¸Ñı": 6191,
      "ĠÐ»ÐµÐ³ÐºÐ¾": 6192,
      "Ġk": 6193,
      "ĠÐ»ÐµÐ´": 6194,
      "Ð»ÑĮÐ½ÑĭÐ¹": 6195,
      "Ð°Ð´ÑĮ": 6196,
      "ÑĭÑĩÐ°Ð¹": 6197,
      "ÑĢÐµÐ·Ð²ÑĭÑĩÐ°Ð¹": 6198,
      "ÑĢÑĥÑİÑĤ": 6199,
      "ÐºÐ¾ÑģÑĤÑĮ": 6200,
      "ĠÐ¸Ð·Ð´ÐµÐ»": 6201,
      "Ð½Ð¸ÐºÑĥ": 6202,
      "ÑģÐºÐ¾ÑĢ": 6203,
      "ĠÐ´Ð½Ð¸": 6204,
      "Ð½Ð°ÐºÐ¾Ð¼": 6205,
      "Ġ1932": 6206,
      "ĠÑģÐµÐ¼ÑĮÐµ": 6207,
      "Ð°ÑĨÐ¸Ñİ": 6208,
      "ÐµÑĢÐ°Ñħ": 6209,
      "ĠÐ¼ÐµÑģÑĤÐ½Ð¾Ð³Ð¾": 6210,
      "ĠÐ´ÑĢÐ°Ð¼Ð°ÑĤÑĥÑĢÐ³": 6211,
      "ĠÐ¿ÑĢÐ¸Ð¼ÐµÐ½ÐµÐ½Ð¸Ðµ": 6212,
      "ĠÐºÐ¸ÑģÐ»": 6213,
      "ĠÐ¿ÐµÑĢÐµÐ²Ð¾Ð·": 6214,
      "ÑĢÐµÑĤÐ°": 6215,
      "ĠÐ½Ð°Ð¿Ð°Ð´": 6216,
      "ĠÐ³Ð¾ÑĢÐ¾Ð´Ð°Ñħ": 6217,
      "ĠÐ¿ÑĢÑıÐ¼Ð¾": 6218,
      "Ð¸Ð½Ð°Ð¼": 6219,
      "Ġ1959": 6220,
      "ÑĤÐµÑĢÑĢÐ¸ÑĤÐ¾ÑĢÐ¸": 6221,
      "ĠÐ¾Ð±ÑĬÑıÑģÐ½Ñı": 6222,
      "Ð±ÐµÐ»": 6223,
      "ĠÐŁÐ¾Ð²": 6224,
      "ĠÑĢÐ°ÑģÑħÐ¾Ð´": 6225,
      "ĠÐľÑĥÐ·ÐµÐ¹": 6226,
      "ĠÐ³Ð²Ð°ÑĢÐ´": 6227,
      "Ð»ÑıÑİÑĤ": 6228,
      "06": 6229,
      "Ð»ÐµÐ½Ð½ÑĭÐ¹": 6230,
      "ĠÐ¾Ð¿ÑĭÑĤ": 6231,
      "ĠÐ²ÐµÑĢÑģÐ¸Ñı": 6232,
      "ĠÐºÐ°ÐºÐ¾Ð¹": 6233,
      "Ð¾Ð»Ð¾Ð³Ð¸ÑĩÐµÑģÐºÐ¾Ð³Ð¾": 6234,
      "ĠÐŁÐ°Ð¼ÑıÑĤÐ½Ð¸Ðº": 6235,
      "Ð±ÑĥÐ´": 6236,
      "ĠÐ³Ð¾ÑĢÐ¸": 6237,
      "ĠÐ¸ÑİÐ»Ðµ": 6238,
      "ĠÑģÐµÐ»": 6239,
      "ĠÑĥÐ´Ð¾Ð²": 6240,
      "ĠÐŁÐµÑĢÐ²Ð¾Ð¹": 6241,
      "Ð½Ð¸Ð²ÐµÑĢÑģÐ¸ÑĤ": 6242,
      "ÑģÑĤÑĢÑĥÐºÑĤ": 6243,
      "Ð¿Ñĭ": 6244,
      "ĠÐ¼Ð°ÑģÑģÑĭ": 6245,
      "ĠÐŀÐĲÐŀ": 6246,
      "Ð°Ð²ÑĪÐµÐ³Ð¾": 6247,
      "Ġ1925": 6248,
      "XX": 6249,
      "ÑģÑĥÐ½": 6250,
      "Ð°ÑĤÑĢ": 6251,
      "ĠÐ¿Ð¾ÐºÐ¾Ð»": 6252,
      "ÑĩÐµÐ³Ð¾": 6253,
      "ĠÐ¢ÑĢÐ¾": 6254,
      "Ð¾Ð¾Ð±ÑĢÐ°Ð·": 6255,
      "ĠÐĲÐ²ÑģÑĤÑĢÐ°": 6256,
      "Ð½Ð¾Ð¼Ð¾ÑĢ": 6257,
      "ĠÐ¿ÐµÑĢÐµÐ´Ð°ÑĩÐ¸": 6258,
      "ĠÑģÐµÑĢÐ¸": 6259,
      "ÐĵÐ¾ÑĢÐ¾Ð´Ð°": 6260,
      "ĠÐ¿ÑĢÐµÐ´ÐµÐ»Ð°Ñħ": 6261,
      "ĠÐĴÑģÐµÐ¼Ð¸ÑĢ": 6262,
      "ĠÑģÑĢÐµÐ´Ð½ÐµÐ¼": 6263,
      "ĠÑģÐµÐ»ÑĮÑģÐºÐ¾ÑħÐ¾Ð·ÑıÐ¹": 6264,
      "Ð¾Ð³Ð°": 6265,
      "ĠÐ±Ð»Ð¸Ð¶": 6266,
      "ÐºÐ¾Ð²Ð¾Ð¹": 6267,
      "Ð·ÑĭÐ²Ð°ÑİÑĤ": 6268,
      "ĠÑĥÐ´Ð¾Ð±": 6269,
      "Ð²Ð°ÑĤÑĭ": 6270,
      "Ð²Ð°Ð¹": 6271,
      "Ð¾ÑĤÐ¸Ð¿": 6272,
      "Ð°ÑĤÐµÐ»ÑĮÐ½Ð¾Ðµ": 6273,
      "Ġ1923": 6274,
      "ĠÑĥÑģÑĤÑĢÐ¾Ð¹ÑģÑĤÐ²Ð°": 6275,
      "ĠÐĺÐµÑĢÑĥÑģÐ°Ð»": 6276,
      "Ð³ÑĢÐ°ÑĦ": 6277,
      "Ġ1935": 6278,
      "Ð¸ÑĢÑĥÐµÑĤÑģÑı": 6279,
      "ĠÐ¶ÐµÐ»ÐµÐ·Ð½Ð¾Ð¹": 6280,
      "ĠÑĢÐµÐ¶Ð¸ÑģÑģ": 6281,
      "ĠÑĤÐ¸ÑĤÑĥÐ»": 6282,
      "ÑģÐµÑĢÐ²": 6283,
      "Ð²Ð¾Ð»ÑĮ": 6284,
      "ĠÐ´ÑĢÑĥ": 6285,
      "ĠÐ´Ð¾Ð¼Ðµ": 6286,
      "ĠÑģÐ´": 6287,
      "ĠÑģÐ¾Ð·Ð´Ð°Ð½Ð¸Ð¸": 6288,
      "ĠÑĩÐ°ÑģÑĤÐ¸ÑĨ": 6289,
      "ĠÐ´Ð°ÑĳÑĤ": 6290,
      "ĠÑĦÑĥÐ½ÐºÑĨÐ¸Ð¹": 6291,
      "ĠÐºÐ¾Ð½ÑĦÐ»Ð¸ÐºÑĤ": 6292,
      "ĠÑĤÐ°Ð±Ð»Ð¸": 6293,
      "ÐºÐ°Ð·Ð°": 6294,
      "ÐĹÐ¾Ð»Ð¾ÑĤ": 6295,
      "ĠÐ±ÑĭÑģÑĤ": 6296,
      "ĠÐ¼Ð°ÑĤÐµÑĢÐ¸Ð°Ð»Ð¾Ð²": 6297,
      "ĠÑģÑħÐ¾Ð´": 6298,
      "Ð¾Ð³Ð¸": 6299,
      "ĠÐ»Ð¸ÑĨÐ°": 6300,
      "ĠÐ¾Ð±ÑĬÐµÐºÑĤÐ°": 6301,
      "ĠÐĶÐ¶Ð¾ÑĢÐ´Ð¶": 6302,
      "Ġ1924": 6303,
      "ĠÑģÑĥÐ´ÐµÐ±": 6304,
      "ĠÐ°ÑĢÑĤÐ¸Ð»Ð»Ðµ": 6305,
      "ĠÐ¿Ð¾Ð·Ð¸ÑĨÐ¸Ð¸": 6306,
      "ĠÐ¿ÑĢÐµÐ´ÑĪÐµ": 6307,
      "ĠÐ¿Ð¾Ð´ÑĢÐ°Ð·Ð´ÐµÐ»": 6308,
      "ÐµÑĢÑģ": 6309,
      "ĠÐ¾ÑģÑĤÑĢÐ¾Ð²Ð¾Ð²": 6310,
      "ĠÐ¢Ð°Ð¹": 6311,
      "ĠÑħÐ°Ð½": 6312,
      "ĠÐ´Ð¾Ð»Ð¶Ð½Ð¾": 6313,
      "ĠÑĢÐ¾ÑģÑģÐ¸Ð¹ÑģÐºÐ¸Ñħ": 6314,
      "Ġ32": 6315,
      "ĠÐ´Ð¸ÑĢÐµÐºÑĤÐ¾ÑĢ": 6316,
      "ĠÐºÑĥÐ±": 6317,
      "Ð´Ð°Ð¼Ð¸": 6318,
      "ĠÐ»Ð¸Ð½Ð¸Ñı": 6319,
      "ĠÐºÐ¸ÑĢ": 6320,
      "ĠÑĤÐµÑĢÑĢÐ¸ÑĤÐ¾ÑĢÐ¸Ñı": 6321,
      "Ġ1926": 6322,
      "ÑģÐµÐ²Ð´": 6323,
      "ĠÐ¾Ð±ÑĥÑģÐ»Ð¾Ð²": 6324,
      "Ð£Ð¼ÐµÑĢÑĪÐ¸Ðµ": 6325,
      "ĠÑģÐ½Ð°ÑĩÐ°Ð»Ð°": 6326,
      "ÑĢÐ°Ð½ÑģÐ¿Ð¾ÑĢÑĤ": 6327,
      "ÑİÑīÐ¸Ð¹ÑģÑı": 6328,
      "ĠÐĲÐĿ": 6329,
      "Ð½ÐµÐ¹ÑĪÐ¸Ñħ": 6330,
      "ĠÐ¾Ð±Ð¸ÑĤ": 6331,
      "Ð´Ð°Ñħ": 6332,
      "ĠÐ¢Ð¾ÑĢ": 6333,
      "ÑĥÑĩÐ¸": 6334,
      "ĠÑģÐ¸Ð½ÑĤÐµÐ·": 6335,
      "ĠÑģÐµÑĢÐ´": 6336,
      "ÑģÐ°Ð¼": 6337,
      "ĠÐŃÐ»ÑĮ": 6338,
      "ĠÐ¾Ð±ÑīÐµÑģÑĤÐ²Ð¾": 6339,
      "ÑįÑĦÑĦÐ¸ÑĨÐ¸": 6340,
      "Ð»Ð¾Ð¿": 6341,
      "ĠÐ¿Ð¸Ð»": 6342,
      "ĠÐºÐ°Ð²Ð°Ð»": 6343,
      "ĠÐ±Ð°Ð½Ðº": 6344,
      "ĠÐ°Ð²ÑĤÐ¾ÑĢÐ°": 6345,
      "ĠÐ¿ÑĢÐµÐ´ÑģÑĤÐ°Ð²Ð¸ÑĤÐµÐ»Ð¸": 6346,
      "ĠÐ¯ÑĢÐ¾ÑģÐ»Ð°Ð²": 6347,
      "ĠÐļÑĢÐ°": 6348,
      "ĠÐľÐµÑĤ": 6349,
      "ĠÐŀÑģÐ¾Ð±": 6350,
      "ĠÐ²Ð´Ð¾Ð»ÑĮ": 6351,
      "08": 6352,
      "ÐµÐ¼Ð°Ñı": 6353,
      "ÑĩÐµÑģÐºÐ¸Ð¼Ð¸": 6354,
      "ĠÐĳÑĥÑĢ": 6355,
      "Ġ$": 6356,
      "ĠÐ½Ð°Ð¸Ð¼": 6357,
      "ĠÐ½ÐµÐ¼Ñĥ": 6358,
      "Ð½Ð¾Ð²Ð¸Ð´": 6359,
      "ĠÐºÐ¾Ð¼Ð¼ÐµÑĢ": 6360,
      "Ġ1928": 6361,
      "ĠÑĤÐ°": 6362,
      "ĠÐĶÐµÑĤ": 6363,
      "Ð°ÐµÐ¼ÑĭÑħ": 6364,
      "ect": 6365,
      "41": 6366,
      "ĠÐµÐ³Ð¸Ð¿": 6367,
      "ĠÐ²Ð¾Ð¾Ð±ÑīÐµ": 6368,
      "ĠÐ±ÑĥÐ´ÑĥÑī": 6369,
      "ĠÐ±ÐµÐ»Ð¾ÑĢÑĥÑģ": 6370,
      "ÑĪÐ¸Ð½": 6371,
      "ÑīÐ¸ÐºÐ¾Ð²": 6372,
      "ĠÐ½ÐµÐ½": 6373,
      "ĠÑģÐ¼ÐµÑĢÑĤ": 6374,
      "ĠÐłÐ¸Ð¼ÑģÐºÐ¾Ð¹": 6375,
      "Ð·Ð¸Ñı": 6376,
      "ĠÐļÐ¸ÑĤÐ°": 6377,
      "Ð»ÐµÑĤÐ¸Ñı": 6378,
      "ĠÐĲÐºÐ°Ð´ÐµÐ¼Ð¸Ð¸": 6379,
      "69": 6380,
      "ĠÐ´Ð¸Ðº": 6381,
      "ÑĳÑģÑĤ": 6382,
      "ĠÐ±ÑĥÐºÐ²": 6383,
      "ĠÑĩÐ°ÑģÑĤÐ¸ÑĩÐ½Ð¾": 6384,
      "ĠÐ°ÑĢÐ³": 6385,
      "Ð»Ð¸Ðº": 6386,
      "Ð°Ð¼ÐµÑĢÐ¸": 6387,
      "Ð°ÑĢÐ°Ð±": 6388,
      "ĠÐ´ÐµÐ¹ÑģÑĤÐ²ÑĥÐµÑĤ": 6389,
      "ak": 6390,
      "ĠÐ¿Ð¸": 6391,
      "ĠÐ²Ð¾Ð´Ð°": 6392,
      "ĠÐ´Ð¸Ð°Ð³": 6393,
      "Ð°ÑĢÐµÐ¹": 6394,
      "Ġ1914": 6395,
      "ĠÐ³ÑĢÑĥÐ·Ð¾Ð²": 6396,
      "ÑīÐ¸Ðµ": 6397,
      "Ġ1948": 6398,
      "ĠÐ¾ÑĤÐ½Ð¾ÑĪÐµÐ½Ð¸Ðµ": 6399,
      "ĠÐ¿Ð°ÑģÑģÐ°Ð¶Ð¸ÑĢ": 6400,
      "ÐµÐ·Ð´Ðµ": 6401,
      "ĠÐ½ÐµÐ¿ÑĢÐµÑĢÑĭÐ²": 6402,
      "ĠÐ²ÑĢÐ°Ñī": 6403,
      "ĠÐ½ÐµÐ·Ð°Ð²Ð¸ÑģÐ¸Ð¼Ð¾ÑģÑĤÐ¸": 6404,
      "ÑĩÐ½Ð¾Ðµ": 6405,
      "Ð°ÑĢÐ´Ð¸": 6406,
      "Ð¸ÑĤÐµÐ»ÑĮÐ½ÑĭÐ¼": 6407,
      "ĠÐ½Ð¾Ð²Ð¾Ðµ": 6408,
      "ĠÐ¿Ð¾Ð¼Ð¾ÑīÑĮ": 6409,
      "ĠÐ¦ÐµÑĢÐºÐ¾Ð²": 6410,
      "ÐµÑĢÐ¾ÑģÑģÐ¸Ð¹": 6411,
      "ÐµÐ½ÑĤÐ¾Ð¼": 6412,
      "Ð°Ð»Ð¸Ð·Ð°ÑĨÐ¸Ð¸": 6413,
      "ĠÐ¼Ð°ÑĪÐ¸Ð½": 6414,
      "ĠÐ¸Ð½Ð¸ÑĨÐ¸Ð°ÑĤÐ¸Ð²": 6415,
      "Î±": 6416,
      "ĠÐ¾Ð±ÐµÑģÐ¿ÐµÑĩÐµÐ½Ð¸Ñı": 6417,
      "Ð¼Ð¾Ð¹": 6418,
      "Ð±Ð½": 6419,
      "ĠÐĿÐ°ÑĢ": 6420,
      "ĠÐ±Ð¾Ð»ÑĮÑĪÐ°Ñı": 6421,
      "ĠÐļÑĢÐ°ÑģÐ½Ð¾": 6422,
      "ĠÐĿÐµÐ¼": 6423,
      "ĠÐ¾ÑģÐ¾Ð±ÐµÐ½Ð½Ð¾ÑģÑĤÐ¸": 6424,
      "ĠÐ´Ð°Ð»ÐµÐµ": 6425,
      "ĠÐ¿Ð¾Ð»ÑĥÐ¾ÑģÑĤ": 6426,
      "61": 6427,
      "ĠÑİÑĢÐ¸Ð´": 6428,
      "ĠÐ·Ð°ÑīÐ¸Ñī": 6429,
      "ÑĥÐ²Ð°ÑĪ": 6430,
      "ĠÐłÐĲÐĿ": 6431,
      "09": 6432,
      "ĠÑĤÐ°ÐºÐ¾Ðµ": 6433,
      "ÑĮÐ¼Ð¸": 6434,
      "ÑİÑģÐµÑĢ": 6435,
      "ĠÐļÐ°ÑĤ": 6436,
      "ĠÐļÐ¾ÑĢÐµ": 6437,
      "ĠÑģÑĤÐ°ÑĤÐ¸": 6438,
      "ĠÐ²Ð¾ÑģÑĤÐ¾Ðº": 6439,
      "Ð¾ÑģÑĭ": 6440,
      "ĠÐ¿ÑĢÐµÑģÑĤÐ¾Ð»": 6441,
      "ĠÐ¸Ð½Ð´Ð¸Ð²Ð¸Ð´Ñĥ": 6442,
      "ĠÑįÐ²Ð¾Ð»Ñİ": 6443,
      "ang": 6444,
      "ĠÑĥÐ²Ð¸Ð´": 6445,
      "ĠÐ¾ÑĤÐ²": 6446,
      "ĠÐ¾Ð¿Ñĭ": 6447,
      "ĠÐ¸ÑĤÐ¾Ð³Ðµ": 6448,
      "ĠÐ¸ÑģÐ¿Ð¾Ð»Ð½Ñı": 6449,
      "Ð¾Ð½Ð¸": 6450,
      "ĠÐ¾ÑĤÐ¿": 6451,
      "ĠÐ¿ÑĥÐ½ÐºÑĤÑĭ": 6452,
      "ĠÑĤÐ°Ð»": 6453,
      "ĠÐ¿Ð¾ÑģÑĤÑĢÐ¾ÐµÐ½": 6454,
      "ÑģÐµÐ¹": 6455,
      "ĠÐ¡Ð°Ð²": 6456,
      "ĠÐ¡Ð¸Ð±": 6457,
      "ĠÐ¢Ð°": 6458,
      "ĠÐ¿ÑĢÐµÐ¾Ð±ÑĢÐ°Ð·": 6459,
      "ĠÐ¼ÐµÐ´Ð°Ð»ÑĮ": 6460,
      "ĠÐ¼Ð¾": 6461,
      "Ð¸Ð½ÑģÐºÐ¾Ð¼": 6462,
      "ĠÐ²Ð¾ÑģÑģÑĤÐ°Ð½Ð¸Ðµ": 6463,
      "ĠÐ¿ÑĢÐ¾ÑĤÐ¸Ð²Ð¾Ð¿Ð¾Ð»Ð¾Ð¶": 6464,
      "ĠÐ¿Ð¾Ð»Ð¸ÑĤÐ¸ÑĩÐµÑģÐºÐ¸Ñħ": 6465,
      "ĠÐ½Ð°ÑĩÐ¸Ð½Ð°ÐµÑĤÑģÑı": 6466,
      ".-": 6467,
      "ĠÐ¼Ð½Ð¾Ð¶ÐµÑģÑĤÐ²Ð°": 6468,
      "ÐŁÐ¾ÑĩÑĳÑĤ": 6469,
      "ĠÐľÐ¾ÑģÐºÐ²Ñĥ": 6470,
      "ĠÑģÑĤÑĢÐµÐ»": 6471,
      "ÑĢÐ°Ð±Ð°ÑĤÑĭÐ²Ð°": 6472,
      "ĠÐ²Ð¾ÑģÐ¿Ð¸ÑĤ": 6473,
      "Ð¾ÑħÐ¾Ð´": 6474,
      "ĠÑĤÑĥÑĢÐ¸": 6475,
      "ÑģÑĤÐ¸ÑĩÐµÑģÐºÐ¸Ñħ": 6476,
      "ĠÑĤÐ¸Ð¿Ð¾Ð²": 6477,
      "ÑįÐºÐ¾Ð½Ð¾Ð¼": 6478,
      "ĠXII": 6479,
      "ĠÐ½ÐµÑĢÐ²": 6480,
      "ĠÑĦÐµÐ²ÑĢÐ°Ð»Ðµ": 6481,
      "ĠÐĵÑĢÑĥÐ·Ð¸Ð¸": 6482,
      "ĠÐĲÐ½Ð°ÑĤÐ¾Ð»": 6483,
      "ĠCom": 6484,
      "ÐĿÐ°ÑģÐµÐ»ÐµÐ½Ð¸Ðµ": 6485,
      "ÑħÐ¾Ð¶Ð´ÐµÐ½Ð¸Ðµ": 6486,
      "ĠÑĤÐµÑĢÑĢÐ¾": 6487,
      "ĠÐ±ÐµÑģÐºÐ¾Ð½ÐµÑĩ": 6488,
      "ĠÐ²Ð½ÐµÑģ": 6489,
      "ÐŃÐºÐ¾Ð½Ð¾Ð¼": 6490,
      "ĠÐ»ÑĳÑĤ": 6491,
      "Ð¾ÑģÐºÐ¾Ð»ÑĮÐºÑĥ": 6492,
      "Ð½ÑĥÐ²": 6493,
      "ĠÐĲÐ·ÐµÑĢÐ±Ð°Ð¹Ð´Ð¶": 6494,
      "ÐŁÐµÑĢÐµ": 6495,
      "ĠÐ¿Ð¾Ð´Ð¿": 6496,
      "Ð¼Ð°Ðº": 6497,
      "Ð°Ð³Ð½Ð¸ÑĤ": 6498,
      "ĠÐºÑĢÑĥÐ¿Ð½ÑĭÐµ": 6499,
      "07": 6500,
      "43": 6501,
      "Ð»Ð¸Ð¼Ð°ÑĤ": 6502,
      "ĠÐ·Ð°ÑģÑĤÐ°Ð²": 6503,
      "ĠÑĢÐ°Ð²ÐµÐ½": 6504,
      "ĠÐ¾Ð±ÑĢÐ°ÑĤÐ¸": 6505,
      "ĠÐ½Ð°ÑĩÐ¸Ð½Ð°Ñı": 6506,
      "Ð¾Ð¿Ð¾Ð»": 6507,
      "ĠÐ¸ÑģÑĩÐµ": 6508,
      "ĠÐ¿Ð¾ÐµÐ·Ð´": 6509,
      "ĠÐĸÐ°Ð½": 6510,
      "ĠÐ¸ÑģÐºÐ»ÑİÑĩÐµÐ½Ð¸ÐµÐ¼": 6511,
      "ÑħÑĥ": 6512,
      "ĠÐ³Ð»Ð°Ð²Ð°": 6513,
      "Ð¼ÐµÑģÑĤÐµ": 6514,
      "Ð°Ð³ÑĢÐ°": 6515,
      "ĠÑģÐ¿Ð¸": 6516,
      "ĠÑģÑĩÐ¸ÑĤÐ°ÑİÑĤ": 6517,
      "ĠÑģÐ¿ÑĥÑģÑĤÑı": 6518,
      "ÑıÑĩ": 6519,
      "Ð°Ð»Ð¸Ð·Ð¸ÑĢÐ¾Ð²": 6520,
      "ĊĠĊĠĊ": 6521,
      "ĠÐļÐ½Ð¸": 6522,
      "ĠÐ·Ð°ÑĢÐµÐ³Ð¸ÑģÑĤ": 6523,
      "ĠÐºÐ¾Ð¼Ð°Ð½Ð´Ð°": 6524,
      "ÐµÐ»ÑıÑħ": 6525,
      "ÑĤÐ¾Ðµ": 6526,
      "Ð²ÐµÑĢÑģ": 6527,
      "ĠÑĢÐµÐ»Ð¸Ð³Ð¸Ð¸": 6528,
      "ÐĵÐ¾ÑģÑĥÐ´Ð°ÑĢ": 6529,
      "ĠÑĥÑģÑĤÐ¾Ð¹ÑĩÐ¸Ð²": 6530,
      "ĠÐ²ÑģÑĤÑĢÐµÑĩÐ°ÑİÑĤÑģÑı": 6531,
      "ĠÐ¥Ð¾Ð»": 6532,
      "Ġ1947": 6533,
      "ĠÐ¸ÑģÑĤÐ¾ÑĩÐ½Ð¸ÐºÐ¾Ð²": 6534,
      "ĠÑĤÐµÐ¿ÐµÑĢÑĮ": 6535,
      "ĠÑģÑĤÐ¾ÑĢÐ¾Ð½Ðµ": 6536,
      "ĠÐĿÐ¾Ð²Ð¾Ñģ": 6537,
      "Ð´ÐµÐ½ÑĤÐ¸": 6538,
      "ĠÑĤÑĢÐ°Ð½ÑģÐ¿Ð¾ÑĢÑĤÐ°": 6539,
      "ĠÐ°ÑģÐ¿": 6540,
      "ĠÐŀÐ»Ð¸Ð¼Ð¿Ð¸Ð¹": 6541,
      "ĠXIII": 6542,
      "ĠÐ´Ð¾Ð¿Ð¾Ð»Ð½": 6543,
      "ĠÐ¿ÑĢÐ¸Ð·Ð²": 6544,
      "Ð¾Ð¶Ð´Ð°": 6545,
      "Ð³ÑĢÐ°Ð½": 6546,
      "ĠÑĢÐ°ÑģÐ¿ÑĢÐ¾ÑģÑĤÑĢÐ°Ð½ÐµÐ½Ð¸Ðµ": 6547,
      "ĠÐ¡ÐµÐ²ÐµÑĢÐ¾": 6548,
      "Ð½Ð°Ð²": 6549,
      "ĠÐ°Ð²ÑģÑĤÑĢÐ¸Ð¹": 6550,
      "ĠÐ¾Ð±Ð¾ÑĢÐ¾Ð½": 6551,
      "ÐĳÐµÐ»": 6552,
      "ĠÑģÑĥÐ´ÑĮ": 6553,
      "ĠÐºÐ¾Ð»Ð»ÐµÐ´": 6554,
      "ĠÑĢÐµÐ³Ð¸Ð¾Ð½Ð°": 6555,
      "ĠÑģÐ²ÐµÐ´ÐµÐ½Ð¸Ñı": 6556,
      "ÑĢÐ¸Ð·": 6557,
      "ĠÑĢÐ°ÑģÑĤÐµÐ½Ð¸Ð¹": 6558,
      "ÐļÐŁ": 6559,
      "ĠÑģÐ¾Ð·Ð´Ð°": 6560,
      "ÑģÑĤÑĢÐ¸Ð¸": 6561,
      "Ð±Ð»Ð¸Ð·": 6562,
      "ĠÐºÐ¾ÑģÑĤ": 6563,
      "ĠÐ£Ð·": 6564,
      "ill": 6565,
      "ĠÐ£Ñĩ": 6566,
      "Ġ1949": 6567,
      "ĠÐľÐ°ÑĢÑĤ": 6568,
      "ĠÐ¸ÑİÐ½Ðµ": 6569,
      "ĠÐŁÑĥÑĪ": 6570,
      "OS": 6571,
      "ĠÐ¸Ð¼Ð¸": 6572,
      "ĠÑĢÐµÑĩÐ¸": 6573,
      "Ð¾Ð²Ð¾": 6574,
      "ĠVII": 6575,
      "ĠÐ¼ÑĥÐ·ÑĭÐºÐ¸": 6576,
      "ĠÐ²ÑħÐ¾Ð´ÑıÑĤ": 6577,
      "56": 6578,
      "ĠÑĤÐ¾Ð¶Ðµ": 6579,
      "ĠÐŁÐ°ÑĢÐ¸Ð¶Ðµ": 6580,
      "ĠÑģÑĤÑĢÑĥÐºÑĤÑĥÑĢ": 6581,
      "ÑĢÐ¸Ñģ": 6582,
      "ĠÐºÐ¾Ð¼Ð±Ð¸Ð½": 6583,
      "ĠÑģÐ²Ð¾ÐµÐ¼Ñĥ": 6584,
      "ÑĪÑĤÐ°": 6585,
      "ĠÐ¸Ð·Ð¾Ð±ÑĢÐ°Ð¶ÐµÐ½Ð¸Ñı": 6586,
      "ĠÑģÐ¾ÑĢ": 6587,
      "ĠÐ¿ÑĢÐ¸ÑĳÐ¼": 6588,
      "ĠÐ¶ÐµÐ½Ð°": 6589,
      "ĠÐ¾Ð¿ÑĢÐµÐ´ÐµÐ»ÑıÐµÑĤÑģÑı": 6590,
      "our": 6591,
      "ĠÑģÐ¸Ñħ": 6592,
      "ĠÐ²Ð¾ÐµÐ²": 6593,
      "ĠÐ²ÑĢÐµÐ¼ÐµÐ½Ð°": 6594,
      "Ð°Ð¼ÐµÑĢÐ¸ÐºÐ°Ð½": 6595,
      "Ð´Ð¾Ðº": 6596,
      "Ð¾Ð²Ð¾Ðµ": 6597,
      "ÐłÐ¾ÑģÑģÐ¸": 6598,
      "ĠÑĤÑĢÑĥÐ´Ð¾Ð²": 6599,
      "ÐºÐµÑģÑĤ": 6600,
      "ÐµÐ½Ñģ": 6601,
      "Ð¾ÑģÑĦ": 6602,
      "ĠÐ·Ð°Ð¸Ð¼": 6603,
      "Ð¸Ð¹ÑģÐºÐ¾Ð³Ð¾": 6604,
      "ĠÑģÐ¾Ð·Ð´Ð°Ð½Ð°": 6605,
      "ĠÐºÑĢÑĥÐ¿Ð½ÐµÐ¹ÑĪÐ¸Ñħ": 6606,
      "ĠÐ¿Ð¾Ð»Ð¾Ð¶ÐµÐ½Ð¸Ñı": 6607,
      "ĠÐ°Ð²Ð¸Ð°ÑĨÐ¸Ð¾Ð½": 6608,
      "ĠÐĵÑĢÐµÑĨÐ¸Ð¸": 6609,
      "ĠÑĢÐ°Ð·Ð³ÑĢÐ¾Ð¼": 6610,
      "Ð°Ð»ÑĮÐ½Ð¾ÑģÑĤÐ¸": 6611,
      "ĠÐ´ÐµÐ»Ð°": 6612,
      "ĠÐ¿ÑĢÐ¾Ð²Ð¸Ð½ÑĨÐ¸Ð¸": 6613,
      "ĠÐ¡Ð¸": 6614,
      "Ð«": 6615,
      "ÑģÑĤÐ¾ÑıÑĤÐµÐ»ÑĮ": 6616,
      "ĠÐ²Ð½ÑĥÑĤÑĢÐµÐ½Ð½Ð¸Ñħ": 6617,
      "ĠÐ¸Ð½ÑĤÐµÑĢÐ¿ÑĢÐµ": 6618,
      "ĠÐ²ÑĭÐ±Ð¾ÑĢÐ¾Ð²": 6619,
      "73": 6620,
      "ĠÐ¿Ð¾Ð²ÐµÐ´": 6621,
      "Ð°Ð½Ð½": 6622,
      "ĠÐ»Ð¾Ðº": 6623,
      "ĠÐ²Ð¾ÑĪÐ»Ð¸": 6624,
      "Ġ1933": 6625,
      "ĠÐ¿Ð¾Ð½ÑıÑĤÐ¸Ñı": 6626,
      "Ð´ÑĨ": 6627,
      "Ð³ÐµÑĢ": 6628,
      "Ġ2023": 6629,
      "ĠÐ¾ÑĤÐ½Ð¾ÑĪÐµÐ½Ð¸Ñİ": 6630,
      "ĠÐ´ÐµÑĢÐµÐ²ÑıÐ½": 6631,
      "ĠÐ¿Ð¾ÑģÐµÐ»ÐµÐ½Ð¸Ñı": 6632,
      "ĠÐ¿ÑĢÐ¸Ð¼ÐµÐ½ÑıÐµÑĤÑģÑı": 6633,
      "ĠÐ¸Ð·Ð¼ÐµÑĢÐµÐ½Ð¸Ñı": 6634,
      "ÐµÑĢÐµÐ¹": 6635,
      "ĠÐ¿ÑĢÐµÐ´ÑĭÐ´": 6636,
      "ĠÐ±ÐµÑĢÐµÐ³": 6637,
      "ĠÑĩÐµÑĤÐ²ÐµÑĢ": 6638,
      "ĠÐĴÐ¸Ð»ÑĮÐ³ÐµÐ»ÑĮ": 6639,
      "ĠÐŁÐ»": 6640,
      "ĠÐĽÐ°Ð²": 6641,
      "ĠÐĹÐ°ÑĤÐµÐ¼": 6642,
      "ĠÐ²ÑĭÑĤ": 6643,
      "ĠÑĢÐ°Ð¹Ð¾Ð½Ñĭ": 6644,
      "ĠÐ±Ð¾Ð»ÑĮÑĪÐ¸Ð½ÑģÑĤÐ²Ðµ": 6645,
      "ĠÐ¿ÐµÐ²ÐµÑĨ": 6646,
      "ÑĸÐ¿": 6647,
      "ĠÐ¾ÑģÐ½Ð¾Ð²Ð°Ð½Ð¸Ñı": 6648,
      "ĠXIV": 6649,
      "ĠÐ¿ÑĢÐ¾Ð´ÑĥÐºÑĤ": 6650,
      "ĠÐ³ÑĢÐ¸": 6651,
      "ĠÐ²Ð°ÑĢÐ¸Ð°Ð½ÑĤ": 6652,
      "ÑĢÐ°Ð½Ñĭ": 6653,
      "Ð³Ð¸Ð½": 6654,
      "ĠÑĢÐ°Ð·Ð½ÑĭÐµ": 6655,
      "Ð³Ð¸Ñİ": 6656,
      "ÐµÑĢÐ½Ð¸": 6657,
      "ĠÐ¾Ð±Ðµ": 6658,
      "ĠÐ´Ð¾ÑĩÐµ": 6659,
      "ĠÑģÑĥÑīÐµÑģÑĤÐ²Ð¾Ð²Ð°Ð½Ð¸Ðµ": 6660,
      "ĠÑģÐ¼ÑĭÑģÐ»Ðµ": 6661,
      "ĠÐ½ÐµÑĥÐ´Ð°": 6662,
      "ĠÐŀÐ¿": 6663,
      "ĠÐ²Ð»Ð¸ÑıÐ½Ð¸ÐµÐ¼": 6664,
      "ĠÐ©": 6665,
      "Ġ1954": 6666,
      "ĠÐ¼ÐµÐ¶Ð´ÑĥÐ½Ð°ÑĢÐ¾Ð´Ð½ÑĭÑħ": 6667,
      "ÐµÐ»Ð¸Ñı": 6668,
      "Ã¤": 6669,
      "ÐºÑĥÑİ": 6670,
      "ĠÐ±Ð¾Ð¼Ð±": 6671,
      "ĠÑģÑĩÐ¸ÑĤÐ°ÑĤÑĮ": 6672,
      "ĠÐŁÑĢÑĥÑģ": 6673,
      "Ð¡Ð¢": 6674,
      "Ġ1953": 6675,
      "ĠÐ¿ÑĢÐ¸Ð¼ÐµÐ½Ñı": 6676,
      "ÑĤÐ¸Ð½Ð³": 6677,
      "ÑĨÐ¾": 6678,
      "ĠÐ±Ð¾Ð»ÑĮÑĪÐ¸Ð¼": 6679,
      "ÑĥÐ½Ð´Ð°Ð¼ÐµÐ½ÑĤ": 6680,
      "ĠÐ¾Ð´Ð½Ð¾Ð¸Ð¼": 6681,
      "ĠÑıÐ·ÑĭÐºÐ¾Ð¼": 6682,
      "ĠÐ¸Ð½ÑĤÐµÐ½": 6683,
      "ĠÐ¿Ð¾Ð´Ð´ÐµÑĢÐ¶ÐºÑĥ": 6684,
      "Ð¹ÑĤÐ¸": 6685,
      "Ð¾Ð±Ð¸Ð»ÑĮ": 6686,
      "ĠÐŀÐ»ÑĮ": 6687,
      "ĠÐĽÐµÐ¹": 6688,
      "ÑĢÑıÑģ": 6689,
      "ĠÐŃÑģÑĤÐ¾Ð½": 6690,
      "ĠÑĢÑĥÑģÑģÐºÐ¸Ðµ": 6691,
      "ĠÐĴÐ¾ÑģÑĤÐ¾ÑĩÐ½Ð¾Ð¹": 6692,
      "Ġ000": 6693,
      "ĠÐ³Ð»Ð°Ð³": 6694,
      "ÑģÐ¿Ð¾ÑģÐ¾Ð±": 6695,
      "ĠÑĥÐ»Ð¸ÑĨÐµ": 6696,
      "ĠÐĵÐ¾ÑģÑĥÐ´Ð°ÑĢÑģÑĤÐ²ÐµÐ½Ð½Ð¾Ð¹": 6697,
      "ĠÐ¾Ð±ÑĬÑıÐ²Ð¸Ð»": 6698,
      "ĠÐ´Ð²Ð¾Ð¹": 6699,
      "ĠÐĺÐ¾Ñģ": 6700,
      "ĠPr": 6701,
      "ĠÐ¿Ð»Ð¾ÑģÐº": 6702,
      "up": 6703,
      "ÑĩÐµÐ½ÐºÐ¾": 6704,
      "ÐķÑģÐ»Ð¸": 6705,
      "ĠÐ²ÑģÑĤÑĢÐµÑĩÐ°ÐµÑĤÑģÑı": 6706,
      "ĠÑģÑĤÐ°Ð½ÑĨÐ¸Ñı": 6707,
      "ĠÐ½ÐµÐ¾Ð±ÑħÐ¾Ð´Ð¸Ð¼Ð¾ÑģÑĤÐ¸": 6708,
      "ĠÐºÐ°Ð»ÐµÐ½Ð´": 6709,
      "ĠÐŁÐ¾ÑĤ": 6710,
      "ĠÑĢÐµÐºÐ¾Ð½": 6711,
      "Ð»Ð¸Ð·Ð°Ð²": 6712,
      "Ã¼": 6713,
      "ĠÐ¼Ð¸Ñģ": 6714,
      "ĠÐĳÐ°ÑĪ": 6715,
      "ĠÐ±Ð¾Ð»ÑĮÑĪÐ¸Ð½ÑģÑĤÐ²Ð°": 6716,
      "ĠÐ´Ð¸Ð½Ð°Ð¼Ð¸": 6717,
      "ÐµÐ¼Ñĭ": 6718,
      "ĠÐ´Ð¸ÑĦÑĦ": 6719,
      "ĠÐ±ÑĢÐ¸ÑĤÐ°Ð½ÑģÐºÐ¸Ð¹": 6720,
      "ÑĢÐ¾Ð½Ð°": 6721,
      "Ð»Ð¸Ñİ": 6722,
      "ĠÐĶÐ°": 6723,
      "Ð¡Ð¾Ð²ÑĢÐµÐ¼ÐµÐ½": 6724,
      "ÐºÑĢÐ°ÑĤÐ½ÑĭÐ¹": 6725,
      "ĠÑģÐµÑĤÑĮ": 6726,
      "ĠÐ¶Ð¸Ð»Ð¸": 6727,
      "ĠÐłÐ°Ñģ": 6728,
      "Ð»ÑĮÑı": 6729,
      "ĠÐĳÑĥÐ´": 6730,
      "ĠÐ¼ÐµÑģÑĤÐ½ÑĭÑħ": 6731,
      "ĠÐ±Ð¾Ð³Ð¾ÑģÐ»Ð¾Ð²": 6732,
      "ĠÐ¸Ð¼ÐµÐ½": 6733,
      "ĠÑģÐ´ÐµÐ»Ð°ÑĤÑĮ": 6734,
      "ĠÐľÐ¸ÑħÐ°Ð¸Ð»Ð°": 6735,
      "ĠÑĢÐµÐ°ÐºÑĨÐ¸Ð¸": 6736,
      "ĠÐ¼ÐµÑĩ": 6737,
      "ĠÐĲÑĢÐ¼ÐµÐ½Ð¸Ð¸": 6738,
      "ĠÐ³Ð»Ð°Ð²Ð½ÑĭÐ¹": 6739,
      "ĠÑĢÐ°Ð¹Ð¾Ð½Ð°Ñħ": 6740,
      "ĠÐ²Ð¾ÑģÑģÑĤÐ°Ð½Ð¸Ñı": 6741,
      "ĠÐ¿ÑĢÐ¾ÑĨÐµÑģÑģÐ°": 6742,
      "ĠÐ¢Ñİ": 6743,
      "Ð¸ÑĩÐµÐ³Ð¾": 6744,
      "Ð¾ÑıÐ·Ñĭ": 6745,
      "ĠÑģÐµÑĢÐµÐ´Ð¸Ð½Ñĭ": 6746,
      "ĠÐ¿Ð¸ÑĪÐµÑĤ": 6747,
      "ĠÐľÐ½Ð¾Ð³Ð¸Ðµ": 6748,
      "ĠÐĺÑħ": 6749,
      "ĠÐ·Ð°Ð½ÑıÐ»": 6750,
      "Ð¿ÐµÑĢÐ²": 6751,
      "ĠÐ´Ð¸Ð·": 6752,
      "ĠÐ¾ÑĤÑģÑĤÑĥÐ¿": 6753,
      "ĠÐĶÐ°Ð»": 6754,
      "Ð°Ð¿Ð°Ð·": 6755,
      "ĠÑĢÐ°ÑģÐ¿ÑĢÐµÐ´ÐµÐ»": 6756,
      "ĠÐ³Ð¾Ð»Ð¾Ñģ": 6757,
      "Ð¾ÑĤÐ¾Ñĩ": 6758,
      "ĠÑįÐ»ÐµÐºÑĤÑĢÐ¾Ð¼": 6759,
      "ĠÐ¼ÐµÑĤÐ¾Ð´Ñĭ": 6760,
      "ĠÐ¿Ð¾ÑĢÑĥÑĩ": 6761,
      "ows": 6762,
      "ÑĥÐ°": 6763,
      "ÑĮÐµÑĤ": 6764,
      "ĠÐ½Ð¾Ñĩ": 6765,
      "ĠÐ¿ÑĢÐ¾ÑģÐ¿": 6766,
      "ĠÐŁÐ¾Ð·": 6767,
      "ĠÑıÐ²Ð»ÐµÐ½Ð¸Ñı": 6768,
      "ĠÐŁÐ°Ð¿": 6769,
      "Ð°ÑĤÐµÐ»ÑıÐ¼Ð¸": 6770,
      "ĠÐ¿Ð¾Ð¸ÑģÐº": 6771,
      "ĠÐ¢Ð°ÑĢ": 6772,
      "49": 6773,
      "Ð¸ÑĤÐ¸Ð²": 6774,
      "ĠÑģÐ¾Ð¾ÑĤÐ²ÐµÑĤÑģÑĤÐ²ÑĥÐµÑĤ": 6775,
      "Ġ1905": 6776,
      "ĠÐŁÑĢÐµÐ·Ð¸Ð´Ð¸": 6777,
      "ĠÐĳÐ¾Ð»ÑĮÑĪÐ¾Ð¹": 6778,
      "ĠÐºÐ°ÑĤÐ°ÑģÑĤÑĢÐ¾": 6779,
      "ĠÐľÐ¾": 6780,
      "ĠÐ¿Ð¾Ð»Ð¾Ð²Ð¸Ð½Ñĭ": 6781,
      "ĠÑĤÐµÑħÐ½Ð¾Ð»Ð¾Ð³": 6782,
      "ĠÐ½ÐµÐ´Ð¾ÑģÑĤÐ°ÑĤÐ¾Ñĩ": 6783,
      "ĠÐ¿Ð°Ð½": 6784,
      "ĠÑģÐµÐ»Ð¾": 6785,
      "ÐµÐ²Ð¾": 6786,
      "ĠÑĪÐµÑģÑĤÐ¸": 6787,
      "ÑİÑīÑĥÑİ": 6788,
      "ÐĺÑģÑĤÐ¾ÑĢÐ¸": 6789,
      "ĠÐ¾ÐºÐ¾Ð½ÑĩÐ°Ð½Ð¸Ñı": 6790,
      "Ð°ÑĳÑĤÑģÑı": 6791,
      "ĠÐ½Ð°ÑĤÑĥÑĢÐ°": 6792,
      "|-": 6793,
      "ĠÐŁÐ»Ð°ÑĤ": 6794,
      "ÐľÐĺ": 6795,
      "ĠÐ´ÑĢÑĥÐ³Ð¾Ð¼": 6796,
      "ÑĢÐ¸Ñİ": 6797,
      "ĠÐ¾ÑģÐ½Ð¾Ð²Ð°ÑĤÐµÐ»ÑĮ": 6798,
      "Ð¸Ð½ÑģÐºÐ¾Ðµ": 6799,
      "ĠÑĦÐ¸Ð³Ñĥ": 6800,
      "ÐµÑģÐ½Ð¾Ð¹": 6801,
      "ĠÑĪÐµÑģÑĤÑĮ": 6802,
      "ĠÐ´ÐµÑıÑĤ": 6803,
      "ĠÐ¾ÑĢÐ±Ð¸ÑĤ": 6804,
      "53": 6805,
      "ÑĢÐ°Ñĩ": 6806,
      "ĠÐ¸Ð´ÐµÐ½ÑĤÐ¸": 6807,
      "ĠÐ·Ð°ÐºÐ»Ñİ": 6808,
      "ÐķÐ²": 6809,
      "Ġ1927": 6810,
      "ĠÐ¿ÑĢÐ¾Ð²ÐµÐ´ÐµÐ½Ð¸Ñı": 6811,
      "=\"": 6812,
      "ÑĥÐ³Ð°": 6813,
      "ĠÑĦÐ°Ð¹": 6814,
      "ÑĤÐµÐ³ÑĢÐ°": 6815,
      "ĠÐľÐ¾ÑģÐºÐ¾Ð²ÑģÐºÐ¾Ð¹": 6816,
      "ĠÐĿÐ¾Ð±ÐµÐ»ÐµÐ²ÑģÐºÐ¾Ð¹": 6817,
      "ÑįÐ¼": 6818,
      "ĠÑĩÑĢÐµÐ·Ð²ÑĭÑĩÐ°Ð¹": 6819,
      "ĠÐ¢Ð¾Ð³Ð´Ð°": 6820,
      "ĠÐ²ÑģÐ»ÐµÐ´ÑģÑĤÐ²Ð¸Ðµ": 6821,
      "ĠÑĩÐ¸ÑģÐ»ÐµÐ½Ð½Ð¾ÑģÑĤÑĮ": 6822,
      "79": 6823,
      "ĠÑĥÐ³ÑĢÐ¾Ð·": 6824,
      "ĠÐ¼ÐµÑĤÐ°": 6825,
      "Ð°ÐºÑĤÐ¸Ð²": 6826,
      "Ð¾ÑĩÐºÐ¸": 6827,
      "Ð»ÑĳÐ½": 6828,
      "ÑĤÐµÑĢÐ½Ð°ÑĤÐ¸Ð²": 6829,
      "ÑĢÐ°Ð¸Ð»ÑĮ": 6830,
      "ĠÐ¿Ð¾Ð»ÐºÐ¾Ð²": 6831,
      "ĠÐ´Ð¸ÑģÑĤ": 6832,
      "ĠÐļÐ¸ÑĢÐ¸": 6833,
      "ĠÐĶÑį": 6834,
      "Ð¾ÐºÑĥÐ¿": 6835,
      "ĠÐºÐ°Ð¶Ð´Ð¾Ð¹": 6836,
      "ĠÐºÑĢÐµÐ¿Ð¾ÑģÑĤÐ¸": 6837,
      "ĠÐºÑĥÐ»ÑĮÑĤÑĥÑĢÐµ": 6838,
      "ĠÐ¾Ð±ÑĥÑĩÐµÐ½Ð¸Ñı": 6839,
      "Ð²ÐµÐºÐµ": 6840,
      "ÑĢÐ°Ð½Ðµ": 6841,
      "ĠÑĤÑĭÑģÑıÑĩÐ¸": 6842,
      "ĠÐĹÐ²": 6843,
      "ĠÐ´Ð¸ÑĢÐ¸Ð¶": 6844,
      "Ð»Ð¾ÑĢÐ¸": 6845,
      "Ð°Ð²Ð°": 6846,
      "ÐĿÐł": 6847,
      "ĠÐ¿ÑĢÐ°Ð²Ð¸Ð»ÑĮ": 6848,
      "ÑĤÐ¾Ð¹": 6849,
      "ĠÐ²ÑĭÐ¿ÑĥÑģÐºÐ°": 6850,
      "58": 6851,
      "ĠÑįÐ¿Ð¾ÑħÑĥ": 6852,
      "ĊĊĠ": 6853,
      "ĠÐļÐ¾Ñģ": 6854,
      "ĠÑģÐ¾ÑĢÐµÐ²": 6855,
      "ÑĢÐ°Ð³Ð¼ÐµÐ½ÑĤ": 6856,
      "52": 6857,
      "ĠÐ¿ÐµÑĢÐµÐ¿Ð¸ÑģÐ¸": 6858,
      "ĠÐ¾ÑģÐ½Ð¾Ð²Ð°Ð½Ð¸Ð¸": 6859,
      "ĠÑıÐ²Ð»ÑıÐ»ÑģÑı": 6860,
      "ĠÐ¿Ð¾Ð·Ð²Ð¾Ð»Ñı": 6861,
      "ĠÐ¿Ð¾Ð¿ÑĥÐ»Ñı": 6862,
      "ÑĤÑĭÐ¹": 6863,
      "ÑĢÐ°Ð²Ð¾": 6864,
      "ĠÐ¿Ð¾ÑıÐ²Ð¸Ð»Ð°ÑģÑĮ": 6865,
      "ÑĤÐ°Ð¶": 6866,
      "ĠÐ¼Ð¾Ð·Ð³Ð°": 6867,
      "ĠÐ±Ð¾ÑĢÑĮÐ±Ðµ": 6868,
      "ĠÐĵÑĢÐ°Ð¶Ð´Ð°Ð½": 6869,
      "ĠÐ¡ÑĤÐµÐ¿": 6870,
      "ĠÑģÐ»ÑĥÑĩÐ°ÐµÐ²": 6871,
      "ĠÐ²Ð¾ÐºÐ·": 6872,
      "ĠÐ»ÑİÐ±Ð¾Ð²": 6873,
      "ĠÐľÐ°ÐºÐµÐ´Ð¾Ð½": 6874,
      "ÐŀÑģÐ½Ð¾Ð²Ð½ÑĭÐµ": 6875,
      "ĠÐĴÐ»Ð°Ð´": 6876,
      "ĠÐĵÐµÑĢÐ°": 6877,
      "ĠÐ¿Ð¾ÐºÑĢÐ¾Ð²": 6878,
      "ĠÐ½Ð°Ð±Ð¾ÑĢ": 6879,
      "ĠÑĦÑĥÐ½ÐºÑĨÐ¸Ñı": 6880,
      "ĠÐ£ÐºÑĢÐ°Ð¸Ð½Ðµ": 6881,
      "ĠÑĦÑĥÑĤÐ±Ð¾Ð»ÑĮ": 6882,
      "che": 6883,
      "Ð¿Ð°ÑĢ": 6884,
      "ort": 6885,
      "ĠÑĤÑĢÐ°Ð¼": 6886,
      "ĠÑĤÐ¾ÑĢÐ³Ð¾Ð²Ð»Ð¸": 6887,
      "ÑĤÐ½": 6888,
      "ĠÐ½Ð°Ð¸Ð±Ð¾Ð»ÑĮÑĪ": 6889,
      "ÑĢÑĥÐ±": 6890,
      "ÐļÐ¾Ð»": 6891,
      "ĠÐ¾Ð´ÐµÑĢÐ¶": 6892,
      "ÑĤÐ¸Ð»": 6893,
      "ÐµÐºÐ°Ð½": 6894,
      "ĠÐ¼Ð¾Ð¼ÐµÐ½ÑĤÐ°": 6895,
      "Ð¿ÐµÑĢÐµ": 6896,
      "Ð²Ð¾Ð·": 6897,
      "ĠÐĶÐ°Ð½Ð¸": 6898,
      "ÐµÐ·Ð¶": 6899,
      "ber": 6900,
      "ÐµÐ½Ð´Ñĥ": 6901,
      "ÑĪÐµÐ´": 6902,
      "ÑĥÐ¼Ð±": 6903,
      "ĠÐ¥Ð¾ÑĢ": 6904,
      "ĠÑģÐ¾Ð·ÑĭÐ²Ð°": 6905,
      "ĠÐ¶ÑĥÑĢÐ½Ð°Ð»Ð°": 6906,
      "ĠÑģÐ¼ÐµÐ½": 6907,
      "ĠÐºÑĥÐ»ÑĮÑĤÑĥÑĢÐ°": 6908,
      "ĠÐ¸Ð·Ð²ÐµÑģÑĤÐµÐ½": 6909,
      "Ð°ÑĢÐ½ÑĭÑħ": 6910,
      "ÑģÐ¸ÑĢÐ¾Ð²Ð°Ð½": 6911,
      "ÐŁÐ°Ð¼": 6912,
      "ĠÑħÐ¾Ðº": 6913,
      "ĠÐ¾ÑģÑĤÐ°ÑĳÑĤÑģÑı": 6914,
      "ÑĤÐµÑĤ": 6915,
      "ĠâĢĵ": 6916,
      "Ð±Ñİ": 6917,
      "ÑĭÑĪÐµ": 6918,
      "Ð¶Ð´ÐµÐ½Ð¸Ðµ": 6919,
      "ĠÐ¼ÐµÑĤÐ¾Ð´Ð°": 6920,
      "ĠÐ´Ð¾Ð¼Ð°ÑĪ": 6921,
      "ĠÑįÑĦÑĦÐµÐºÑĤ": 6922,
      "ĠÐ¡Ð¾ÑĦ": 6923,
      "ÐĽÑİ": 6924,
      "ĠÑĢÐ°Ð±Ð¾ÑĤÐ°ÐµÑĤ": 6925,
      "ĠÐ¿Ð°ÑĢÐº": 6926,
      "ĠÑĦÐ¾ÑĢÐ¼Ð°ÑĤ": 6927,
      "ĠÐ¾Ð·ÐµÑĢÐ°": 6928,
      "ÑħÐ°Ð·": 6929,
      "ÐĶÑĢÑĥÐ³": 6930,
      "ĠÐ²ÑĭÑĪÐ»Ð°": 6931,
      "ÑħÐ¾": 6932,
      "ÑĢÑıÐ´Ñĥ": 6933,
      "ĠÐ»Ð¸Ð½Ð³": 6934,
      "Ð¾ÑģÐµ": 6935,
      "ĠÐĶÑİ": 6936,
      "Ð¼ÑĭÑĪ": 6937,
      "ĠÐ¿ÑĢÐ¾Ð²ÐµÑĢ": 6938,
      "ÐŃÐº": 6939,
      "ĠÐ¾Ð±Ð»Ð°Ð´Ð°ÐµÑĤ": 6940,
      "Â³": 6941,
      "ÑĩÑĳÑĤÐ°": 6942,
      "ĠÐłÐ°ÑģÐ¿": 6943,
      "Ġ1955": 6944,
      "ÐĲÐ»": 6945,
      "ĠÑģÑĤÑĢÑĥÐºÑĤÑĥÑĢÑĭ": 6946,
      "ĠÐ¥Ð¾ÑĤÑı": 6947,
      "ĠÑģÐºÐ»Ð°Ð´": 6948,
      "ĠÐļÑĥ": 6949,
      "Ð¸Ð·Ð¸ÑĢÐ¾Ð²": 6950,
      "ĠÑĢÐ°Ð±Ð¾ÑĤÐ°ÑĤÑĮ": 6951,
      "ÑĦÐ¾ÑĢÐ¼Ð°ÑĤ": 6952,
      "ĠÑģÐ¾Ð²ÐµÑĤÑģÐºÐ°Ñı": 6953,
      "Ð§Ð»ÐµÐ½Ñĭ": 6954,
      "ĠÐ²Ð¾Ð»Ð½": 6955,
      "ÑģÑĤÐ²ÐµÐ½Ð½Ð¾ÑģÑĤÐ¸": 6956,
      "ros": 6957,
      "ÑĤÐµÑĢÐµ": 6958,
      "ĠÐ¡Ð²ÐµÑĤ": 6959,
      "ĠÐ¶ÐµÑģÑĤ": 6960,
      "Ð¢ÐµÑĢ": 6961,
      "Ð¾Ð³ÑĢÐ°Ð½Ð¸Ñĩ": 6962,
      "ÑĢÐµÐ·Ð¸Ð´ÐµÐ½ÑĤ": 6963,
      "ĠÐ´ÐµÐ½ÐµÐ¶": 6964,
      "ĠÐ±Ð¾": 6965,
      "ÑĥÐ»ÑĮÑĤÑĥÑĢÐ°": 6966,
      "ĠÐ°ÐºÐ°Ð´ÐµÐ¼Ð¸Ðº": 6967,
      "ĠÐ¾ÐºÑĢÐµÑģÑĤ": 6968,
      "ĠÐŀÐ±ÑĬ": 6969,
      "ĠÐ°Ð»Ð³Ð¾ÑĢÐ¸ÑĤ": 6970,
      "ĠÑĤÐ²Ð¾ÑĢÑĩÐµÑģÑĤÐ²Ð°": 6971,
      "ĠÐĲÐ½ÑĤ": 6972,
      "ĠÐ¿Ð¾ÑĢÐ°Ð¶ÐµÐ½Ð¸Ðµ": 6973,
      "Ð°ÑĤÐ¾ÑĢÑĭ": 6974,
      "ĠÐ¿Ð¾ÑģÐ°Ð´": 6975,
      "ĠÐ¸ÑģÑģÐ»ÐµÐ´Ð¾Ð²Ð°ÑĤÐµÐ»ÑĮ": 6976,
      "ĠÐļÐ°ÑģÐ¿": 6977,
      "ÑĩÑĳÑĢ": 6978,
      "ĠÐ¸Ð¼ÐµÑİÑĤÑģÑı": 6979,
      "ĠÐ£Ð¸Ð»ÑĮÑıÐ¼": 6980,
      "ĠÑģÐ¾Ð·Ð´Ð°Ð»": 6981,
      "ĠÑĤÐ¸": 6982,
      "Ð»Ð°Ð²ÑıÐ½": 6983,
      "ÑĥÑīÐ¸Ðµ": 6984,
      "ip": 6985,
      "Ð°ÑİÑīÐ°Ñı": 6986,
      "ĠÐ¿Ð¾ÑıÐ²Ð¸Ð»ÑģÑı": 6987,
      "ĠÐ¾Ð±Ð¾Ð·Ð½Ð°": 6988,
      "ĠÑģÐ¾Ð²Ð¼ÐµÑģÑĤÐ½Ð¾": 6989,
      "ÑĢÐ¸ÑģÑĤÐ°": 6990,
      "ĠÐĿÐ°Ð´": 6991,
      "Ð¾ÑħÑĢÐ°Ð½Ð¸": 6992,
      "ĠÐĺÐ²Ð°Ð½Ð°": 6993,
      "ĠÐ³Ð¾ÑģÐ¿Ð¾Ð´": 6994,
      "ĠÐ¿Ð¾Ð»Ð¸ÑĤÐ¸ÐºÐ°": 6995,
      "ass": 6996,
      "ÐŀÐ±ÑĢÐ°Ð·": 6997,
      "Ð³ÑĢÐµÑģÑģ": 6998,
      "ne": 6999,
      "ĠÐ½Ð¸ÑĩÐµÐ³Ð¾": 7000,
      "ÑģÐ¾Ð²ÐµÑĤ": 7001,
      "ĠÑģÐ¾ÑģÑĤÐ¾ÑıÐ»ÑģÑı": 7002,
      "ĠÐ¿Ð¾Ð´Ð´ÐµÑĢÐ¶Ð¸Ð²": 7003,
      "ĠÑģÐ¾ÑĢÐµÐ²Ð½Ð¾Ð²": 7004,
      "ÑĩÐ¸Ð½Ñĭ": 7005,
      "ĠÐ¾ÐºÐ¾Ð½ÑĩÐ°ÑĤÐµÐ»ÑĮÐ½Ð¾": 7006,
      "ĠÐ¼ÐµÑĢÐ¾Ð¿ÑĢÐ¸": 7007,
      "Ð°ÑĤÐµÐ»ÑĮÐ½Ð°Ñı": 7008,
      "ĠÑĤÐµÑħÐ½Ð¾Ð»Ð¾Ð³Ð¸Ð¸": 7009,
      "The": 7010,
      "ĠÑĢÐµÐºÐ¾ÑĢ": 7011,
      "Ð¸Ð½Ð¾ÑģÑĤÑĢÐ¾": 7012,
      "2000": 7013,
      "ĠÐ½Ð°Ð»Ð¸ÑĩÐ¸Ðµ": 7014,
      "ĠÐ¿ÑĢÐµÐ´Ð¿Ð¾Ñĩ": 7015,
      "ĠÐ¡Ð¾ÑĨÐ¸Ð°Ð»Ð¸ÑģÑĤÐ¸ÑĩÐµ": 7016,
      "ĠÐĿÐ°Ñģ": 7017,
      "ĠÑµ": 7018,
      "ĠÐ»Ð¾Ð¶": 7019,
      "Ð½Ð°ÑĩÐ°Ð»ÑĮÐ½Ð¾": 7020,
      "ĠÐºÐ¾ÑĢÐ¾Ð»ÑĳÐ¼": 7021,
      "ĠÐ±ÐµÑĢ": 7022,
      "ÐµÑĢÐ¸Ð½": 7023,
      "ĠÑģÐ¾ÑİÐ·Ð°": 7024,
      "ĠÐ¤ÑĳÐ´Ð¾ÑĢÐ¾Ð²": 7025,
      "ĠÐ±ÐµÑģÑģ": 7026,
      "ĠÐ¼Ð°ÑĢÐº": 7027,
      "ĠÐ´Ð°Ð½Ð½Ð¾Ð³Ð¾": 7028,
      "ĠÐ¿Ð¸ÑģÑĮÐ¼Ð¾": 7029,
      "ÐĴÑģÐµ": 7030,
      "ĠÐ¼Ð³": 7031,
      "ĠÑģÐ²ÑĭÑĪÐµ": 7032,
      "ĠÑģÐ¿Ð¾ÑĢÑĤ": 7033,
      "ĠÐºÐ°Ð½Ð°Ð»": 7034,
      "Ð¾ÑģÑĤÐ°Ð½": 7035,
      "ĠÐ±Ð¸ÑĤÐ²Ðµ": 7036,
      "ÐľÐµÑĤ": 7037,
      "ĠÐ·Ð°ÐºÐ¾Ð½Ð°": 7038,
      "ĠÐľÐ°ÐºÑģÐ¸Ð¼": 7039,
      "ÐłÐ¾ÑģÑģÐ¸Ñı": 7040,
      "ÐºÐ°Ð½Ð¸": 7041,
      "ĠÐĳÐµÐ½": 7042,
      "ĠÐ¸ÑģÐ¿Ð¾Ð»ÑĮÐ·Ð¾Ð²Ð°Ð½Ð¸ÐµÐ¼": 7043,
      "ĠÐ¿ÑĢÐ¾Ð´ÑĥÐºÑĨÐ¸Ð¸": 7044,
      "Ð¾Ð¾ÑĤ": 7045,
      "ÑĢÐ¾Ð²Ð¾Ð¹": 7046,
      "ÑīÐ¸Ñħ": 7047,
      "ĠÐļÐ°Ð²ÐºÐ°Ð·": 7048,
      "ĠÐľÐ°Ñħ": 7049,
      "ĠĊĠĊĠĊĠĊĠĊĠĊĠĊĠĊ": 7050,
      "ĠÐ¿ÑĮÐµÑģ": 7051,
      "ÐºÐ¾Ñģ": 7052,
      "XIX": 7053,
      "Ð²Ð¾ÑģÑĤÐ¾Ñĩ": 7054,
      "ĠÐĳÐ¾ÑĢ": 7055,
      "ĠÐ¿Ð°ÑĨÐ¸": 7056,
      "ĠÐ·Ð¾Ð½Ñĭ": 7057,
      "ĠÑĦÐ¸Ð·Ð¸Ðº": 7058,
      "ĠÐ¿Ð°Ðº": 7059,
      "Ð°ÑĤÐºÐ¸": 7060,
      "ĠÐºÐ¾Ð¼Ð°Ð½Ð´Ð¾Ð²Ð°Ð½Ð¸ÐµÐ¼": 7061,
      "ĠÐ¾ÑĤÑģÑĥÑĤÑģÑĤÐ²Ð¸Ðµ": 7062,
      "Ð½Ð°Ð¼Ð¸": 7063,
      "ÑīÐµÐ³Ð¾ÑģÑı": 7064,
      "ĠÐ°Ð´Ð¼Ð¸Ð½Ð¸ÑģÑĤÑĢÐ°ÑĨÐ¸Ð¸": 7065,
      "Ð±Ð¾Ð½": 7066,
      "ĠÐľÐµÐ½": 7067,
      "ÐºÐ¾Ð²ÑĭÑħ": 7068,
      "Ð½Ð¾ÑģÑĤÑıÑħ": 7069,
      "ĠÑģÑĤÐ°ÑĤÑĮÐ¸": 7070,
      "ĠÐ½ÐµÑĦÑĤÐ¸": 7071,
      "46": 7072,
      "Ð°ÑĤÑĥÑĢ": 7073,
      "ĠÐ»ÐµÐ¹": 7074,
      "ĠÐ¿Ð¸ÑģÑĮÐ¼Ð°": 7075,
      "ĠÐ¼ÑĥÐ¶ÑĩÐ¸Ð½": 7076,
      "Ð·Ñĥ": 7077,
      "ÐĴÐĶ": 7078,
      "ĠÐłÐµÑģÐ¿ÑĥÐ±Ð»Ð¸ÐºÐ°": 7079,
      "ĠÐ¼ÑĥÐ·ÐµÑı": 7080,
      "Ġ^": 7081,
      "ĠÐ¿ÑĢÐµÐ¶": 7082,
      "ĠÐ³ÑĢÐ°Ð¼": 7083,
      "ĠÑģÐ¾ÐµÐ´Ð¸Ð½ÐµÐ½Ð¸Ñı": 7084,
      "ĠÐ²ÑĢÐ°Ñĩ": 7085,
      "ĠÐĿÐ¸ÐºÐ¾Ð»Ð°ÐµÐ²Ð¸Ñĩ": 7086,
      "ÑĤÐ¸Ð½": 7087,
      "ĠÐľÐ°": 7088,
      "ĠÑĪÐ°Ð³": 7089,
      "ĠÑĦÐ¸Ð·Ð¸ÐºÐ¸": 7090,
      "ĠÐŁÑĢÐ°Ð²Ð¾ÑģÐ»Ð°Ð²": 7091,
      "ÑĦÐ¸Ð½": 7092,
      "ÑĢÐ¾Ð²Ð°Ð½Ð¸Ñı": 7093,
      "ĠÑįÐºÑģÐ¿ÐµÐ´Ð¸": 7094,
      "ĠÐ§ÑĳÑĢ": 7095,
      "ĠÐºÑĢÐ°Ð¹Ð½Ðµ": 7096,
      "ÑĨÐµÑĤ": 7097,
      "ĠÐ¿Ð¾ÑĢÑĤÑĥ": 7098,
      "ĠÐŁÐ¾Ð»ÑĮÑĪÐ¸": 7099,
      "ĠÐ¡ÐµÑĢ": 7100,
      "ĠÐ§ÐµÑĢÐµÐ·": 7101,
      "ĠÑģÑĤÑĢÐ°ÑĤÐµÐ³": 7102,
      "ĠÐ½Ð°Ð¿ÑĢÐ°Ð²Ð»ÐµÐ½": 7103,
      "Ð°Ð²ÑĢÐ¸": 7104,
      "ĠÑģÑĤÑĢÑĥÐºÑĤÑĥÑĢÐ°": 7105,
      "ĠÐ¿ÑĢÐ¸ÑħÐ¾Ð´Ð¸ÑĤÑģÑı": 7106,
      "âĪĴ": 7107,
      "ĠÐĲÐ¿": 7108,
      "ĠÐ³Ð¾ÑĢÑĭ": 7109,
      "ĠÑĦÐ¾ÑĢÐ¼Ð¸": 7110,
      "ĠÐ½Ð°ÑĥÑĩÐ½Ð¾Ð¹": 7111,
      "ĠÑĥÐ½Ð¸Ð²ÐµÑĢÑģÐ¸ÑĤÐµÑĤÐµ": 7112,
      "Ð±Ð°Ð»": 7113,
      "ĠÐłÐ°Ð´": 7114,
      "ĠAl": 7115,
      "ĠÑģÐ¾Ð´ÐµÑĢÐ¶Ð°Ð½Ð¸Ðµ": 7116,
      "ÐŁÐ¾ÑĩÑĳÑĤÐ½ÑĭÐµ": 7117,
      "ĠÐ²Ð¾ÑģÑĮ": 7118,
      "ĠÐłÐµÐ¹": 7119,
      "ĠÐ¸Ð½ÑĤÐµÐ½ÑģÐ¸Ð²": 7120,
      "ĠÑĥÑĢÐ¾Ð¶": 7121,
      "ĠÐ¨Ð°ÑĢ": 7122,
      "ĠÑĥÑĩÐ°ÑģÑĤÐ½Ð¸Ðº": 7123,
      "ÑĥÐ´Ð¾Ð²": 7124,
      "ĠÐļÐ°ÑĢÐ»Ð°": 7125,
      "ĠÐ¿Ð¾Ð»ÑĮÐ·Ñĥ": 7126,
      "ÑĳÐ½Ð½Ð¾Ð¼": 7127,
      "ĠÐ³Ð»Ð°Ð²Ð½ÑĭÑħ": 7128,
      "Ð´ÐµÑĢÐ¶Ð¸Ð²": 7129,
      "ĠÑģÐ°Ð¼Ð¾ÑĥÐ¿ÑĢÐ°Ð²": 7130,
      "ĠÐ»Ð°Ð±Ð¾ÑĢÐ°": 7131,
      "Ð³ÐµÐ±": 7132,
      "ĠÑĢÐµÐ¿": 7133,
      "Ð½Ð¸ÑĤÑĮ": 7134,
      "ĠÐ³Ð¾": 7135,
      "Ð°ÐºÐ¾Ð²Ð°": 7136,
      "ĠÐ¾Ð±ÑĬÐµÐºÑĤ": 7137,
      "ĠÐĿÐĲ": 7138,
      "ĠÐ²Ð¾ÐµÐ½Ð½ÑĭÐµ": 7139,
      "ĠÑģÐ²ÑıÑīÐµÐ½": 7140,
      "Ð¿Ð°ÑĢÑħ": 7141,
      "ĠÐ´ÑĢÑĥÐ¶": 7142,
      "ĠÐ¶ÐµÐ½Ð¸": 7143,
      "ĠIX": 7144,
      "ĠÐ¸Ð·ÑĥÑĩÐµÐ½Ð¸Ñı": 7145,
      "Ð°Ð½ÑĤÐ¸": 7146,
      "Ð»ÐµÐ½Ð½Ð¾": 7147,
      "ĠÐ¿Ð¾Ð³Ð¸Ð±Ð»Ð¸": 7148,
      "ux": 7149,
      "ĠÐ´ÐµÑĢÐµ": 7150,
      "ĠÐ°Ñģ": 7151,
      "ĠÐ±Ð¾Ð»ÑĮÑĪÐ¸Ðµ": 7152,
      "ĠÑģÐµÐ¼ÑĮ": 7153,
      "ĠÑĤÑĢÐµÐ±Ð¾Ð²Ð°Ð½Ð¸Ñı": 7154,
      "ĠÐºÐ°ÑĤÐµÐ³Ð¾ÑĢÐ¸Ð¸": 7155,
      "ĠÐ°ÑĢÑħÐ¸ÑĤÐµÐºÑĤÑĥÑĢÑĭ": 7156,
      "ÑĢÐ¾Ð²Ð¾Ð»ÑĮ": 7157,
      "ĠVIII": 7158,
      "ÑĤÑı": 7159,
      "ĠÑģÐ»ÐµÐ´ÑĥÑİÑīÐ¸Ð¹": 7160,
      "ĠÐ¿Ð¾Ð±ÐµÐ´Ñĥ": 7161,
      "ĠÐļÐ¾": 7162,
      "Ġ1931": 7163,
      "ĠÐ¾ÑģÑĥÑīÐµÑģÑĤÐ²Ð»ÑıÐµÑĤÑģÑı": 7164,
      "ĠÐ±Ð¾Ð»ÐµÐ·Ð½Ð¸": 7165,
      "ÑģÑĤÐ²ÑĥÑİÑĤ": 7166,
      "ung": 7167,
      "ĠÐķÐ²Ð³ÐµÐ½Ð¸Ð¹": 7168,
      "ĠÐ»Ð¾ÑĪ": 7169,
      "ĠÐ¿ÑĤÐ¸ÑĨ": 7170,
      "ĠÐ¿ÑĢÐ¾Ð³ÑĢÐ°Ð¼Ð¼Ð°": 7171,
      "ĠÐŁÐ°Ð²Ð»Ð¾Ð²": 7172,
      "ĠÐ¡Ð¼Ð¾Ð»": 7173,
      "ÐµÐ½ÑĨÐ¸Ñı": 7174,
      "ÑĨÐ¸Ð½": 7175,
      "Ð»ÑıÐ»": 7176,
      "ĠÐ¿ÑĢÐ¾Ð²ÑĳÐ»": 7177,
      "Ð°ÑĢÐµÐ²": 7178,
      "ĠÐ¿ÑĢÐ¸ÑģÑĤÑĥÐ¿": 7179,
      "ĠÐ¿ÑĢÐ¾ÑĤÐ¸Ð²Ð½Ð¸ÐºÐ°": 7180,
      "ĠÐ°Ð¿Ð¾ÑģÑĤ": 7181,
      "ĠÐ´Ð°Ð½Ð½Ð¾Ð¹": 7182,
      "ĠÐ½Ð°ÑĨÐ¸Ð¾Ð½Ð°Ð»ÑĮÐ½Ð¾Ð³Ð¾": 7183,
      "ĠÐĵÐ¾Ð½": 7184,
      "ĠÐ¥Ð°Ð¹": 7185,
      "ĠÐ°ÑĢÐ¼Ð¸Ñİ": 7186,
      "ĠÐ¼Ð°ÑĤÐµÑĢÐ¸Ð°Ð»": 7187,
      "ĠÐĺÐ¼ÐµÐ½Ð½Ð¾": 7188,
      "ĠÑĩÐ¸ÑģÐ»ÐµÐ½Ð½Ð¾ÑģÑĤÐ¸": 7189,
      "ÑģÑĤÑĮÑı": 7190,
      "ep": 7191,
      "Ð¾Ð±Ð½Ð¾Ð²": 7192,
      "ĠÐĸÑĥÐºÐ¾Ð²": 7193,
      "ĠÐ²ÐµÑĢÐ¾ÑıÑĤÐ½Ð¾": 7194,
      "Ð¾Ð³Ð¾ÑĢ": 7195,
      "ĠÐ»Ð¸Ð´ÐµÑĢ": 7196,
      "ÐµÑģÐ»Ð¸": 7197,
      "ĠÑįÑĤÐ½Ð¸ÑĩÐµ": 7198,
      "ĠÐ¨Ð²ÐµÐ¹ÑĨ": 7199,
      "ĠÐ¶Ð¸Ð·Ð½": 7200,
      "ĠÐ¸Ð·Ð²ÐµÑģÑĤÐ½Ñĭ": 7201,
      "ĠÐºÐ¾Ð½ÑĤÐ¸Ð½ÐµÐ½ÑĤ": 7202,
      "ĠÐ½Ð°Ð¿ÑĢÐ°Ð²Ð»ÐµÐ½Ð¸Ð¸": 7203,
      "ÑĦÐ¸Ð·": 7204,
      "ĠÐ¿ÑĢÐµÐ±Ñĭ": 7205,
      "ĠÐ³Ð¾ÑģÑĤ": 7206,
      "ĠÐ¿ÑĢÐµÐ´ÑģÑĤÐ°Ð²Ð»ÐµÐ½Ñĭ": 7207,
      "ĠÑģÑĩÐ¸ÑĤÐ°ÐµÑĤ": 7208,
      "ÐłÐ¾Ð´Ð¸Ð²ÑĪÐ¸ÐµÑģÑı": 7209,
      "ÑĩÐ½ÑĭÐ¼": 7210,
      "Ð¾ÑħÐ¾ÑĢÐ¾Ð½": 7211,
      "ĠWind": 7212,
      "ÐĴÑĭÐ¿ÑĥÑģÐº": 7213,
      "ĠÐ°ÑģÑģÐ¾ÑĨÐ¸": 7214,
      "ÑİÐ´Ð°": 7215,
      "ĠÐ³Ð°Ð·ÐµÑĤÑĭ": 7216,
      "ĠÐ¿ÑĢÐ¾ÑģÑĤÑĢÐ°Ð½ÑģÑĤÐ²Ð¾": 7217,
      "ĠÑĨÐµÐ½": 7218,
      "ĠÐ²Ð·ÑıÑĤ": 7219,
      "ĠÐĳÐ¾Ð»Ð³": 7220,
      "ĠÐĿÐ¾ÑĢÐ²Ðµ": 7221,
      "ÑĥÐ¼Ðµ": 7222,
      "ÐºÐ°Ð´": 7223,
      "ĠÐ¾ÑĤÐ´ÑĭÑħ": 7224,
      "ĠÐ¾Ð±Ð¾Ð·Ð½Ð°ÑĩÐµÐ½Ð¸Ñı": 7225,
      "ĠÑģÐ¾Ð±ÑĢÐ°Ð½Ð¸Ðµ": 7226,
      "ĠÐ¿ÐµÑĤ": 7227,
      "ĠÐºÑĥÑĢÑģ": 7228,
      "ĠÐºÐ°ÑĢÑĮ": 7229,
      "ÑĢÑĥÐ½": 7230,
      "Ġ1900": 7231,
      "ĠÑĢÐµÐ»ÑĮ": 7232,
      "ĠÐ±Ð¾Ð»ÑĮÑĪÐµÐ²": 7233,
      "ĠÐ¦Ð·": 7234,
      "ÐµÐ½Ð³ÐµÑĢ": 7235,
      "ĠÑĤÐµÐ¿Ð»Ð¾Ð²": 7236,
      "Ð½Ð¾ÑĪÐµÐ½Ð¸Ðµ": 7237,
      "ĠÑĢÐµÐ±ÑĳÐ½": 7238,
      "ĠÐ¼Ð°Ð¹": 7239,
      "ĠÐĳÑĢÑİ": 7240,
      "ĠÐ¿Ð¾ÑģÑĤÑĢÐ¾Ð¹": 7241,
      "ĠÐ»ÐµÑĤÐ¾Ð¼": 7242,
      "ĠÐ´Ð¾ÑģÑĤÐ°Ð²": 7243,
      "ĠÐĴÐ¾ÑĢ": 7244,
      "ĠÑģÑĤÐ¸Ð»Ðµ": 7245,
      "ÑģÑĤÐ²ÐµÐ½Ð½ÑĭÐ¼Ð¸": 7246,
      "ĠÑģÑĦÐµÑĢÐµ": 7247,
      "ĠÐ½ÐµÐ¾Ð´Ð½Ð¾Ðº": 7248,
      "ĠÐ´Ð¾Ð·": 7249,
      "ĠÐŁÐ¾Ð»Ð¸ÑĤ": 7250,
      "ĠÐ±Ð¸Ð±Ð»Ð¸Ð¾ÑĤÐµÐº": 7251,
      "ÐµÑĩÐµ": 7252,
      "ĠÐ¿ÑĢÐ¾Ð¼ÐµÐ¶": 7253,
      "ĠÐºÐ¾ÑģÐ¼Ð¾Ñģ": 7254,
      "ĠÐ¿ÑĢÐµÐ´ÑģÑĤÐ°Ð²Ð»ÑıÑİÑĤ": 7255,
      "ĠÐ³ÐµÑĢÐ¾": 7256,
      "ĠÐ°ÑĤÐ¼Ð¾ÑģÑĦ": 7257,
      "Ð¾ÑĩÐºÐ°": 7258,
      "ĠÐĹÐ¾Ð»Ð¾ÑĤ": 7259,
      "Ð½Ð¸ÐºÐ¾Ð²Ð°": 7260,
      "ĠÑĥÑĩÑĳÐ½ÑĭÑħ": 7261,
      "ĠÐ»ÐµÐºÐ°ÑĢ": 7262,
      "ou": 7263,
      "ÑģÐºÐ°Ð·ÑĭÐ²": 7264,
      "ĠÐŁÐµÑĢÐ²Ð°Ñı": 7265,
      "ĠÐ²Ð·Ð°Ð¸Ð¼Ð¾Ð´ÐµÐ¹ÑģÑĤÐ²Ð¸Ñı": 7266,
      "ÑĢÐ¾ÑĨÐµÑģÑģ": 7267,
      "ÐµÐ»Ð°Ð½Ð´": 7268,
      "Ð°Ð¼Ð¿": 7269,
      "ĠÑĢÐµÐ·ÐºÐ¾": 7270,
      "ĠÐ¿ÐµÑģÐ½Ñı": 7271,
      "ĠÐ¡Ð¸ÑĢÐ¸": 7272,
      "ĠÑĪÐ¸ÑĢÐ¸": 7273,
      "ĠÐ¿Ð»Ð¾Ð´": 7274,
      "ĠÐ¿ÑĢÐ¸ÑĢÐ¾Ð´Ðµ": 7275,
      "ĠÐ¿ÐµÑħ": 7276,
      "ÑĩÐ°Ð»ÑĮ": 7277,
      "ĠÑĦÐ¸Ðº": 7278,
      "Ð¾Ð¿ÐµÑĢÐ°": 7279,
      "ĠÐŀÐ´Ð¸Ð½": 7280,
      "ĠÐ¿ÑĢÐµÐ´ÑģÑĤÐ°Ð²Ð»ÐµÐ½": 7281,
      "ĠÐ¿Ð¾ÑįÑĤÐ°": 7282,
      "1945": 7283,
      "ĠÐ¿Ñĭ": 7284,
      "ĠÑģÑĭÐ½Ð¾Ð²": 7285,
      "ĠÐ¾Ð´Ð¸Ð½Ð°ÐºÐ¾Ð²": 7286,
      "ĠÐºÐ¾Ð½ÑģÐµÑĢÐ²": 7287,
      "ĠÐ´ÑĢÑĥÐ·": 7288,
      "ĠÐ¼Ð°ÑĤÑĮ": 7289,
      "ĠÐ¿Ð¾Ð»ÐµÐ·": 7290,
      "ĠÐ¼ÑĥÑĩÐµÐ½Ð¸": 7291,
      "ÑĦÐµÐ»ÑĮ": 7292,
      "ĠÐ½Ð°Ð·Ð²Ð°Ð½": 7293,
      "ÑıÑīÐµÐ¹": 7294,
      "ĠÐ²Ð¾Ð¿ÑĢÐ¾ÑģÑĭ": 7295,
      "ĠÑĤÐµÐºÑģÑĤÐ°": 7296,
      "ĠÑģÑĥÐ¿ÑĢÑĥÐ³": 7297,
      "Ð³Ð°Ð»ÑĮ": 7298,
      "ĠÐ½Ð°Ð´Ðµ": 7299,
      "ĠÐķÐ»Ð¸Ð·Ð°Ð²": 7300,
      "ĠÐ¡ÑĤÐ°Ð»Ð¸Ð½": 7301,
      "ĠÑĤÐµÐ»Ð¾": 7302,
      "Ð½Ð¾ÑĪÐµÐ½Ð¸Ñı": 7303,
      "ĠÑĦÑĢÐ¾Ð½ÑĤÐ°": 7304,
      "ÐºÐ¸ÑĢ": 7305,
      "ĠÑħÑĢÐ¾Ð¼": 7306,
      "ĠÐºÐ»ÑĥÐ±Ð°": 7307,
      "ĠÐ¿Ð¾Ð´Ð²Ð¾Ð´": 7308,
      "ĠÑģÑĢÐµÐ´Ðµ": 7309,
      "ĠÐ¯Ðº": 7310,
      "ĠÐ¸Ð·Ð´Ð°Ð½Ð¸Ñı": 7311,
      "ĠÐ¸ÑģÐ»Ð°Ð¼": 7312,
      "ĠÐºÐ¾ÑįÑĦÑĦÐ¸ÑĨÐ¸": 7313,
      "ÐĺÑģÐ¿": 7314,
      "ÑıÐ½ÑĥÑĤ": 7315,
      "ĠÐ»Ð¸ÑĤÐµÑĢÐ°ÑĤÑĥÑĢÐ°": 7316,
      "ĠÐ³Ð¾ÑĢÐ¸Ð·": 7317,
      "59": 7318,
      "Ð»ÐµÐ´Ð¾Ð²Ð°ÑĤÐµÐ»ÑĮ": 7319,
      "ĠÑģÐ²Ð¾Ð±Ð¾Ð´Ñĭ": 7320,
      "ĠÐĳÐ¾Ð¶": 7321,
      "ĠÐ¾Ð»Ð¸Ð¼Ð¿Ð¸Ð¹ÑģÐºÐ¸Ð¹": 7322,
      "ÑħÑĥÐ´": 7323,
      "ĠÑĦÑĥÐ½Ð´Ð°Ð¼ÐµÐ½ÑĤ": 7324,
      "Ð½ÐµÐ¹ÑĪÐ¸Ðµ": 7325,
      "ĠÑĨÐµÐ½ÑĤÑĢÐ°Ð»ÑĮÐ½Ð¾Ð¹": 7326,
      "ĠÐ¸Ð´ÑĳÑĤ": 7327,
      "ĠÐ²Ð¾ÑģÐº": 7328,
      "ĠÐ¿ÑĢÐ¾Ð´ÑİÑģÐµÑĢ": 7329,
      "ÑįÐ½ÐµÑĢÐ³": 7330,
      "ies": 7331,
      "Ð³Ð´Ðµ": 7332,
      "Ð¤Ð¾ÑĢ": 7333,
      "ĠÑĥÑĩÐ°ÑģÑĤÐ½Ð¸ÐºÐ¾Ð²": 7334,
      "ive": 7335,
      "ĠÐ±ÑĭÐ²ÑĪÐ¸Ð¹": 7336,
      "ĠÐĲÐ»ÐµÐºÑģÐ°Ð½Ð´ÑĢÐ¾Ð²Ð¸Ñĩ": 7337,
      "iz": 7338,
      "ÑĢÐ°Ð´Ð¸": 7339,
      "ĠÐ±ÑĭÐ²ÑĪÐµÐ³Ð¾": 7340,
      "ĠÐ¾ÑģÐ½Ð¾Ð²Ð½ÑĭÐ¼": 7341,
      "ÐŁÐµÑĤÐµÑĢÐ±ÑĥÑĢÐ³Ðµ": 7342,
      "ĠÐ¸Ð»Ð»Ñİ": 7343,
      "ĠÐļÐ¸ÑĤÐ°Ñı": 7344,
      "ÐłÐµ": 7345,
      "ĠÐ¸Ð·Ð´Ð°Ð½Ð¸Ðµ": 7346,
      "ĠÑģÐ²Ð¾Ð¹ÑģÑĤÐ²": 7347,
      "Ð°ÑĤÐ¾ÑĢÐ¾Ð¼": 7348,
      "Ð½Ð°ÑĤ": 7349,
      "Ð¾Ð²Ð°Ð»Ð¸": 7350,
      "ĠÐ¸ÑģÑĤÐ¸Ð½": 7351,
      "ĠÐĴÐ¾ÑĢÐ¾Ð½": 7352,
      "ĠÐ½Ð°ÑĨÐ¸Ð¾Ð½Ð°Ð»ÑĮÐ½Ð¾Ð¹": 7353,
      "ĠÑĢÐµÐ°Ð»Ð¸Ð·Ð°ÑĨÐ¸Ð¸": 7354,
      "ĠÐ¾ÑĤÐ»Ð¸ÑĩÐ°ÐµÑĤÑģÑı": 7355,
      "ĠÐłÐ¾Ð±ÐµÑĢÑĤ": 7356,
      "ĠÐ¡Ð°ÑĢÐ°ÑĤÐ¾Ð²": 7357,
      "ĠÐ¾ÑĤÑĢÑıÐ´": 7358,
      "Ġ1912": 7359,
      "ĠÑįÐ²": 7360,
      "ĠÐĲÑĢÐ¸ÑģÑĤ": 7361,
      "ĠAr": 7362,
      "ĠÑĤÐ¾ÑĢÐ¶Ðµ": 7363,
      "ĠÐ¿ÐµÑĢÐµÐ½Ð¾Ñģ": 7364,
      "ĠÐ¿ÑĢÐµÐ¿Ð¾Ð´Ð¾Ð±": 7365,
      "ĠÐ¦ÐµÑĢÐºÐ¾Ð²ÑĮ": 7366,
      "ĠÐºÐ°Ð»ÑĮ": 7367,
      "Ġ400": 7368,
      "ĠÐ³ÐµÐ½ÐµÑĢÐ°Ð»Ð°": 7369,
      "ĠÑįÐ¿Ð¸Ð·": 7370,
      "ĠÑģÐµÑĢÐµÐ±ÑĢÑı": 7371,
      "Î¿": 7372,
      "ÐµÐ´Ð¸Ð¸": 7373,
      "ĠÐ¼ÐµÑģÑĤÐ°Ñħ": 7374,
      "ont": 7375,
      "ĠEn": 7376,
      "ĠÑĥÐ¿ÑĢÐ°Ð·Ð´Ð½": 7377,
      "ĠÐ¿Ð¾ÐºÐ¸Ð½": 7378,
      "ĠÐ¸ÑģÐºÐ»ÑİÑĩÐ¸ÑĤÐµÐ»ÑĮÐ½Ð¾": 7379,
      "Ð°Ð´Ð¸Ð¾": 7380,
      "ĠÐĽÐ°ÑĤÐ²": 7381,
      "ĠÑįÐºÐ¸Ð¿Ð°Ð¶": 7382,
      "57": 7383,
      "Ð¸Ð¼Ð¾Ð¹": 7384,
      "ĠÐŀÑĤÐºÑĢÑĭ": 7385,
      "ĠÐ´ÑĢÐµÐ²Ð½Ð¸Ñħ": 7386,
      "ĠÐļÑĢÐ°ÑģÐ½Ð¾Ð¹": 7387,
      "ÑĨÐºÐ¾Ð³Ð¾": 7388,
      "ĠÑģÐ¾Ð±Ð¾ÑĢÐ°": 7389,
      "ĠÐ¸Ð¼Ð¿ÐµÑĢÐ¸Ñı": 7390,
      "ĠÐ¿ÑĢÐ¾Ð³ÑĢÐ°Ð¼Ð¼Ð¸ÑĢÐ¾Ð²Ð°Ð½Ð¸Ñı": 7391,
      "Ð»Ð¾Ð³Ð¾": 7392,
      "ĠÐ¼Ð½ÐµÐ½Ð¸Ðµ": 7393,
      "ĠÐ»ÐµÐ³Ð¸": 7394,
      "ÑĢÐµÐ»Ð¸": 7395,
      "ĠÐ½Ð°ÐºÐ°Ð·": 7396,
      "ÐļÑĢÐ°Ñģ": 7397,
      "Ð½Ð¸ÑĨÐµ": 7398,
      "ÑģÐºÑĥ": 7399,
      "ĠÐ¿ÑĢÐ¸Ð½Ð°Ð´Ð»ÐµÐ¶Ð¸ÑĤ": 7400,
      "ÑĢÑĥÑİÑĤÑģÑı": 7401,
      "Ð¸ÐºÐ°Ð¼Ð¸": 7402,
      "ĠÑĢÐ¾ÑģÑģÐ¸Ð¹ÑģÐºÐ¾Ð¹": 7403,
      "ĠÐĺÐ·ÑĢÐ°Ð¸Ð»Ñı": 7404,
      "ĠÐ¿ÑģÐµÐ²Ð´": 7405,
      "ĠÐ£Ð½Ð¸Ð²ÐµÑĢÑģÐ¸ÑĤ": 7406,
      "ĠÐĶÐ¶ÐµÐ¹Ð¼": 7407,
      "Ð¾Ð»Ð¾Ð³Ð¸ÑĩÐµÑģÐºÐ°Ñı": 7408,
      "ĠÐĺÐ½ÑģÑĤÐ¸ÑĤÑĥÑĤ": 7409,
      "||": 7410,
      "Ð¡ÐµÐ¼": 7411,
      "ÑģÑĤÐ²ÐµÐ½Ð½Ð¾ÑģÑĤÑĮ": 7412,
      "ich": 7413,
      "ĠÐ¾ÑĤÐ´ÐµÐ»ÑĮÐ½ÑĭÐµ": 7414,
      "ĠÐ·Ð°Ð¸Ð¼ÑģÑĤÐ²Ð¾Ð²": 7415,
      "ica": 7416,
      "ĠÑĦÐ¸Ð»ÑĮÐ¼Ðµ": 7417,
      "ĠÐ²ÑģÑĤÑĢÐµÑĩ": 7418,
      "ĠÐ¡Ð°Ðº": 7419,
      "ĠÐ¾ÐºÐ¸Ñģ": 7420,
      "ĠÐŁÐµÑĤÑĢ": 7421,
      "Ð¼Ð¸Ð¸": 7422,
      "ĠÐľÐ°Ñģ": 7423,
      "ĠÐ³Ð°Ð·ÐµÑĤÐ°": 7424,
      "ĠÐłÑĥÑģÑģÐºÐ¾Ð¹": 7425,
      "ĠÑģÐµÐ¹ÑĩÐ°Ñģ": 7426,
      "ĠÐ¿Ð°ÑĢÐ°Ð»Ð»ÐµÐ»ÑĮ": 7427,
      "Ð¾ÐºÐ¾Ð»Ð¾": 7428,
      "ĠÑĨÐ¸ÐºÐ»": 7429,
      "Ð»Ð¾ÑīÐ°Ð´ÑĮ": 7430,
      "Ð²Ð°ÑİÑĤÑģÑı": 7431,
      "Ð¸ÐµÐ¿Ð¸ÑģÐºÐ¾Ð¿": 7432,
      "Ð¸ÑĢÐ¾Ð²Ð°Ð½Ð¸Ðµ": 7433,
      "Ð½Ð°ÑĢÑı": 7434,
      "ÐµÐ»ÑĮÐ·Ñı": 7435,
      "ÑĢÐ°Ð·Ð¸Ð»Ð¸": 7436,
      "ĠÐĺÐ¾Ð°Ð½Ð½Ð°": 7437,
      "ĠÐºÑĢÐµÐ¼": 7438,
      "ÐľÐµÐ¶Ð´": 7439,
      "ÐĺÐļ": 7440,
      "ĠÐ¿Ð¾ÑĩÑĳÑĤ": 7441,
      "Ð°Ð»Ð¸Ð½Ð°": 7442,
      "ĠÐ´Ð°Ð²Ð»ÐµÐ½Ð¸Ñı": 7443,
      "51": 7444,
      "Ð´Ð»Ñı": 7445,
      "ĠÐ¾Ð±Ð¾ÑģÐ½Ð¾Ð²": 7446,
      "ĠÐ¼ÐµÑģÑıÑĨ": 7447,
      "ĠÐ¼ÑıÐ³": 7448,
      "ĠÐ¾Ð¿ÑĢÐµÐ´ÐµÐ»ÐµÐ½Ð¸Ðµ": 7449,
      "ĠÐºÐ¾Ð½ÐµÑĨ": 7450,
      "Ð¼ÐµÑĢÑĤ": 7451,
      "Ð¾Ð·Ð´Ð½ÐµÐµ": 7452,
      "ĠÐ¼ÐµÑģÑıÑĨÐ°": 7453,
      "ĠÐļÑĢÑĭÐ¼": 7454,
      "ĠÐ¢Ð°Ð»": 7455,
      "ÑĤÐ°ÑĨÐ¸Ð¸": 7456,
      "ĠÑĥÑĩÐ¸ÑĤ": 7457,
      "ĠÑĢÐµÐ·ÑĥÐ»ÑĮÑĤÐ°ÑĤÑĭ": 7458,
      "ĠÐ°ÑĢÑħÐ¸ÑĤÐµÐºÑĤÐ¾ÑĢ": 7459,
      "ĠÐ²ÐµÑĢÑħÐ¾Ð²": 7460,
      "ĠÐ²Ð¸Ð·Ð°Ð½ÑĤÐ¸Ð¹": 7461,
      "ÐµÐ¼Ð¾Ðµ": 7462,
      "ĠÑģÐ²ÑıÐ·Ð°Ð½": 7463,
      "ĠÐĺÑģÑĤÐ¾ÑĢÐ¸": 7464,
      "ÏĦ": 7465,
      "âĢ¯": 7466,
      "ĠÑĢÐ°Ð²Ð½Ð¾": 7467,
      "ĠÐķÐ³Ð¸Ð¿ÑĤÐ°": 7468,
      "ĠÐľÐ¸ÑĤ": 7469,
      "ĠÐ¿Ð¾Ð»ÑĳÑĤÐ°": 7470,
      "ÐµÐ·Ð´Ñĭ": 7471,
      "ĠÑģÐ¾Ð¾Ð±ÑīÐµÐ½Ð¸Ñı": 7472,
      "ĠÐ¿ÑĢÐ¾ÑģÑĤÑĢÐ°Ð½ÑģÑĤÐ²Ðµ": 7473,
      "ĠÐ¦ÐµÑĢÐºÐ²Ð¸": 7474,
      "ĠÐ³Ð¸ÑĤ": 7475,
      "ĠÐ¡Ð¸Ð±Ð¸ÑĢ": 7476,
      "ÐµÐ´Ð¸ÑĨÐ¸Ð¸": 7477,
      "Ð¡Ð¾ÑİÐ·": 7478,
      "ĠÐĳÐµÐ»ÑĮ": 7479,
      "ĠÐ¿ÐµÑĢÐµÐ²Ð¾ÑĢ": 7480,
      "ĠÐ¾ÐºÐµÐ°Ð½Ð°": 7481,
      "ĠÐ½Ð¾Ð¼Ð¸Ð½": 7482,
      "ĠÐ½Ð°ÑĢÐº": 7483,
      "ĠÑģÐ´ÐµÐ»Ð°Ð»": 7484,
      "ĠÐŁÐ¾Ðº": 7485,
      "ĠÐ±ÑĥÐ´Ð´": 7486,
      "ĠÐ¸ÑģÐºÑĥÑģÑģÑĤÐ²Ð¾": 7487,
      "ĠÐ½Ð°Ð¹ÑĤÐ¸": 7488,
      "Ð¾Ð³ÐµÐ½": 7489,
      "ĠÐ½Ð°ÑģÑĤÑĢÐ¾": 7490,
      "ÑĤÐ¸ÐµÐ¼": 7491,
      "ĠÐ¿ÐµÑĢÑģÐ¾Ð½": 7492,
      "ÐµÑĢÐ±ÑĥÑĢÐ³Ð°": 7493,
      "ĠÐ°Ð´Ð¼Ð¸Ð½Ð¸ÑģÑĤÑĢÐ°ÑĤÐ¸Ð²Ð½Ð¾": 7494,
      "ĠÐ¤Ð¸Ð½Ð»ÑıÐ½Ð´Ð¸Ð¸": 7495,
      "Ð°Ð½ÑĨÐµÐ²": 7496,
      "Ð°Ð»ÑĮÐ½Ð¾ÑģÑĤÑĮ": 7497,
      "ĠÐ·Ð°Ð´Ð°Ñĩ": 7498,
      "ĠÐ½ÑĥÐ¶Ð½Ð¾": 7499,
      "Ð»ÑĭÑħ": 7500,
      "ĠÐ³Ð»Ð°Ð²Ð½Ð¾Ð³Ð¾": 7501,
      "ĠÑĦÐ»Ð°Ð³": 7502,
      "ÐµÐ·Ð°": 7503,
      "ĠÑĦÐ¸Ð·Ð¸": 7504,
      "ĠÐĳÐ°": 7505,
      "ĠÑĢÐ¾Ñģ": 7506,
      "ĠÐ½Ð°ÑĩÐ°Ð»Ð¾Ð¼": 7507,
      "Ð¼Ð¸Ð½Ð¸ÑģÑĤÑĢ": 7508,
      "ÑĢÐµÐ½Ð¸Ðµ": 7509,
      "ĠÑģÐ¾Ð´ÐµÑĢÐ¶Ð°Ñī": 7510,
      "ÑĢÐ¸ÐºÐ°Ð½": 7511,
      "ÑĥÐ±ÐµÐ¶": 7512,
      "ĠÐ¿ÐµÑĢÐµÐ¼ÐµÑī": 7513,
      "ÐºÐ¾Ð¼Ð°": 7514,
      "ĠÑĢÑıÐ´Ðµ": 7515,
      "ÑİÐ¹": 7516,
      "ĠÐ½ÐµÐ¾Ð¿": 7517,
      "ĠÐ¼Ð¸Ð½Ð¸ÑģÑĤÑĢ": 7518,
      "ÑĤÐ¸Ð¿": 7519,
      "ĠÑĢÑĥÐºÐ¸": 7520,
      "ĠÐ²Ð·ÑĢÑĭÐ²": 7521,
      "ĠÐĵÐµÑĢÐ¼Ð°Ð½Ð¸Ñı": 7522,
      "ÑħÐ¸Ð¼Ð¸": 7523,
      "Ð°ÑĤÐµÐ»ÑĮÐ½ÑĭÐ¼": 7524,
      "ĠÐ¾Ñī": 7525,
      "Ð»ÑıÑİÑĤÑģÑı": 7526,
      "ĠÐĺÐ¸Ñģ": 7527,
      "ĠÐ´Ð¾Ð³Ð¾Ð²Ð¾ÑĢÐ°": 7528,
      "ĠÐ³Ð»Ð°Ð·": 7529,
      "ĠÐ¿Ð¾Ð´Ð½Ñı": 7530,
      "ĠÑĪÐµÑģÑĤ": 7531,
      "ĠÐ³Ð¾ÑĢÐ¾Ð´ÑģÐºÐ¸Ñħ": 7532,
      "ÐĿÐ°Ð·": 7533,
      "ĠÐ¼Ð¾Ð½ÐµÑĤ": 7534,
      "ĠÐ´Ð¾ÑĢÐ¾Ð³Ð°": 7535,
      "ĠÑģÑĬÑĳÐ¼": 7536,
      "ĠÑģÐ½Ñı": 7537,
      "ĠSp": 7538,
      "ĠÐ³ÑĢÑĥÐ¿Ð¿Ñĥ": 7539,
      "ĠPro": 7540,
      "ĠÐºÐ°Ð½Ð°Ð´": 7541,
      "ĠÐłÐ¸Ð¼Ðµ": 7542,
      "ĠÑĥÐ¿Ð¾Ð¼Ð¸Ð½Ð°ÐµÑĤÑģÑı": 7543,
      "100": 7544,
      "Ð²ÐµÑĢÐ´": 7545,
      "ĠÑģÐ²ÑıÐ·Ð°Ð½Ð½ÑĭÐµ": 7546,
      "ĠÐ½Ð°ÑĢÐ¾Ð´Ð½ÑĭÑħ": 7547,
      "ĠÑĩÑĥÐ²ÑģÑĤÐ²": 7548,
      "ÐĴÑĭÐ¿ÑĥÑģÐºÐ½Ð¸ÐºÐ¸": 7549,
      "ĠÐļÐ°Ð»Ð¸": 7550,
      "Ð¾ÐºÐµ": 7551,
      "ĠÐĳÑĥÐ»": 7552,
      "ĠÑĢÐ°ÑģÑģÑĤÑĢÐ¾Ð¹": 7553,
      "ĠÐ´Ð¸Ð°Ð¿Ð°Ð·": 7554,
      "Ġ150": 7555,
      "ĠÐ³Ð»Ð°Ð²Ñĭ": 7556,
      "ĠÑĥÐ½Ð¸Ðº": 7557,
      "Ġ1910": 7558,
      "Ð¸ÑĤÐ¾Ð¼": 7559,
      "ĠÐµÐ´Ð¸": 7560,
      "ÑĳÐ½Ð½ÑĥÑİ": 7561,
      "ĠÐ³ÑĢÑĥÐ¿Ð¿Ðµ": 7562,
      "ĠÑĥÑģÑĤÑĢÐ¾Ð¹ÑģÑĤÐ²Ð¾": 7563,
      "ĠÐĵÐ¸Ð¿": 7564,
      "ĠÐ¿ÐµÑĢÐµÑĥÐ»": 7565,
      "int": 7566,
      "ÐµÑĨÐºÐ¸Ð¹": 7567,
      "ĠÐ¿ÑĢÐµÐ´ÑģÐµÐ´Ð°ÑĤÐµÐ»Ñı": 7568,
      "ÑĮÐµÑĢÐ°": 7569,
      "ĠÐĶÐµ": 7570,
      "ÑĥÑģÐ¾Ð²": 7571,
      "ĠÐ¶ÐµÐ½ÑīÐ¸Ð½Ñĭ": 7572,
      "ĠÐ²Ð¾ÑģÐ¿Ð¾Ð¼Ð¸Ð½": 7573,
      "ĠÐ°Ð³ÐµÐ½ÑĤ": 7574,
      "Ð»Ð¾ÐºÐ°": 7575,
      "ÐµÐºÑĤÐ¾Ð¼": 7576,
      "ĠÐ´Ð°Ð½Ð½ÑĭÐ¹": 7577,
      "ĠÑģÐ¾Ð³Ð»Ð°ÑĪÐµÐ½Ð¸Ðµ": 7578,
      "ĠÐ¿ÑĢÐ¸ÑĪÐ»Ð¾ÑģÑĮ": 7579,
      "ĠÐĳÐ¸": 7580,
      "ack": 7581,
      "ĠÑģÑĥÑīÐµÑģÑĤÐ²ÐµÐ½Ð½Ð¾": 7582,
      "ĠÑĤÑİÑĢÑĮ": 7583,
      "Ð¾Ð¹ÑĤÐ¸": 7584,
      "ÐļÑĢÐ¾Ð¼Ðµ": 7585,
      "Ð¤Ð¸Ð·": 7586,
      "ĠÐ´Ð²Ð°Ð¶Ð´Ñĭ": 7587,
      "ĠÐºÐ¸ÑģÐ»Ð¾ÑĤÑĭ": 7588,
      "ÐºÐ³": 7589,
      "Ġ120": 7590,
      "ÑĢÑĥÑĤ": 7591,
      "Ð¾ÑĩÐ½Ð¾": 7592,
      "ĠÑĥÑĩÐ°ÑģÑĤÐ²Ð¾Ð²Ð°Ð»": 7593,
      "ĠÐ¼Ð¾Ð½Ð°ÑģÑĤÑĭÑĢÑı": 7594,
      "ĠÐļÐ°Ð»Ð¸Ð½Ð¸Ð½": 7595,
      "ĠÐ´Ð¾Ð²": 7596,
      "ĠÑģÑĢÐµÐ´Ð½ÐµÐ¹": 7597,
      "Ð´Ð¾Ð½": 7598,
      "ĠÑĤÐµÑģ": 7599,
      "ÑĢÐ°Ð½Ñģ": 7600,
      "ĠÐ¤ÐµÐ¾Ð´": 7601,
      "ĠÑģÐ¾Ð·Ð´Ð°ÑĤÑĮ": 7602,
      "ĠÑĢÐ¸Ð¼ÑģÐºÐ¸Ð¹": 7603,
      "ĠÐ½Ð°ÑĪÐµÐ¹": 7604,
      "Ð¾ÑģÑħÐ¾Ð´": 7605,
      "ĠÐ·Ð°ÐºÐ¾Ð½Ð¾Ð¼": 7606,
      "Ð¶ÐµÐ²": 7607,
      "ĠÐ·Ð´Ð°Ð½Ð¸Ð¹": 7608,
      "ĠÐĳÐ¾Ð³Ð°": 7609,
      "ĠÐ¿Ð¾Ð´Ð³Ð¾ÑĤÐ¾Ð²ÐºÐ¸": 7610,
      "ĠÐ¡Ð¸Ð±Ð¸ÑĢÐ¸": 7611,
      "ÑıÐ·Ñĭ": 7612,
      "ĠÐ½Ð°ÑĤ": 7613,
      "ÑĦÐ°Ðº": 7614,
      "ond": 7615,
      "ĠÐ¾ÑĢÐ³Ð°Ð½Ñĭ": 7616,
      "ĠÐ²Ð·ÑĢÐ¾Ñģ": 7617,
      "ĠÑģÐ¾Ð²ÐµÑĢÑĪÐµÐ½Ð½Ð¾": 7618,
      "Ð¼Ð¾Ð¼": 7619,
      "ĠÐĵÐ¸ÑĤ": 7620,
      "ĠÑĩÑĳÑĤ": 7621,
      "Ġ1952": 7622,
      "ĠÐ¿ÑĢÐ¾Ð¼ÑĭÑĪÐ»ÐµÐ½Ð½Ð¾ÑģÑĤÑĮ": 7623,
      "ĠÑĥÐ´Ð¾Ð²Ð»ÐµÑĤ": 7624,
      "Ġi": 7625,
      "Ð´Ð°Ð¼": 7626,
      "ÑĦÐµÐ¹": 7627,
      "ÐµÐ´Ð»Ð¸Ð²": 7628,
      "Ð¸ÑģÐ»Ð°Ð²": 7629,
      "Ð¾Ð·Ð¾Ð²": 7630,
      "Ð°Ð½Ð¸ÑıÐ¼": 7631,
      "Ġ36": 7632,
      "ĠÐ¼Ð¸Ð½Ð¸ÑģÑĤÑĢÐ¾Ð²": 7633,
      "ÐºÐ°Ð»": 7634,
      "ĠÑĤÑĢÐ¾Ð¿": 7635,
      "ĠÐ¼Ð°Ð»ÐµÐ½ÑĮ": 7636,
      "ĠÐĴÐ¸Ð·Ð°Ð½": 7637,
      "ĠÐµÐ²ÑĢÐµÐµÐ²": 7638,
      "ĠÐ´Ð¾ÑĩÐµÑĢÐ¸": 7639,
      "Ð¿ÑıÑĤ": 7640,
      "Ð°Ð²ÑĪÐ¸Ð¼": 7641,
      "ÑĢÐ¸ÑĢÐ¾Ð²Ð°Ð½": 7642,
      "ĠÐŁÐ°ÑĢÐ°": 7643,
      "Ð¸Ð·ÐµÐ¼": 7644,
      "ĠÐ±Ð¾Ð»ÑĮÑĪÐ¾Ð³Ð¾": 7645,
      "ĠÑįÐºÑģÐ¿ÐµÐ´Ð¸ÑĨÐ¸Ð¸": 7646,
      "ĠÐ¼Ð°Ð½Ð¸": 7647,
      "ÑĢÐ¾Ð¿Ð¾Ð»": 7648,
      "ĠÐ¾Ð±ÑĬÐµÐ´Ð¸Ð½ÐµÐ½Ð¸Ñı": 7649,
      "ĠÐ¸Ð½ÑĦÑĢÐ°": 7650,
      "Ð°ÑĢÑģÐºÐ¾Ð³Ð¾": 7651,
      "ĠÑĦÐ°ÑĢ": 7652,
      "ĠÐ´Ð¾ÑģÑĤÐ¸Ð¶ÐµÐ½Ð¸Ñı": 7653,
      "ĠÐ²Ð»Ð¸ÑıÐ½Ð¸Ñı": 7654,
      "ĠÐºÐ¾ÑĪ": 7655,
      "ĠÐ½Ð°ÑĢÑıÐ´Ñĥ": 7656,
      "ĠÐ¼Ð¾ÑĢÐ°": 7657,
      "ĠÐºÑĢÐµÐ¿Ð¾ÑģÑĤÑĮ": 7658,
      "ĠÐ¸Ð·Ð²ÐµÑģÑĤÐ½ÑĭÐµ": 7659,
      "ĠÑģÐ¾ÑģÑĢÐµÐ´": 7660,
      "ĠÐ¿Ð¾Ð±ÐµÑĢÐµÐ¶ÑĮÐµ": 7661,
      "Ð¾ÑĢÑıÐ¶": 7662,
      "ÐµÑģÑģÐ°": 7663,
      "ĠÐ¿Ð¾ÑģÐ»ÐµÐ´Ð½Ð¸Ñħ": 7664,
      "ÐµÑĢÐ½ÐµÑĤ": 7665,
      "ÑĢÐ°Ð·Ð´Ð¾": 7666,
      "ĠÐ¼Ð°ÑĤÐµÐ¼Ð°ÑĤÐ¸Ðº": 7667,
      "ÑĢÐµÑģÐ¿": 7668,
      "ĠÑĨÐµÐ»Ð¸": 7669,
      "ĠÐĲÐ±Ð´": 7670,
      "ĠÐĿÐµÐ¿": 7671,
      "ĠÑĥÐ»Ð¸ÑĨ": 7672,
      "ĠÑĦÑĢÐ°Ð³Ð¼ÐµÐ½ÑĤ": 7673,
      "ĠÐĿÐ°ÑĥÐºÐ°": 7674,
      "ĠÐ¿ÑĢÐ¸Ð±Ð»Ð¸Ð·": 7675,
      "ĠÐ¼Ð½Ð¾Ð³Ð¾ÑĩÐ¸ÑģÐ»ÐµÐ½Ð½ÑĭÐµ": 7676,
      "ĠÐŀÐ¼": 7677,
      "ÑģÑĤÐ¸ÑĩÐµÑģÐºÐ¸Ðµ": 7678,
      "Ð¸ÑĨÑĥ": 7679,
      "ĠÐ¿ÑĢÐ¸Ð½ÑĨÐ¸": 7680,
      "ÑĭÐ²Ð°ÑİÑĤ": 7681,
      "ĠÐ½Ð°Ð³ÑĢÐ°Ð¶Ð´": 7682,
      "Ð¾Ð»Ð³Ð¾": 7683,
      "ĠÐ¿ÑĢÐ°Ð²Ð¸Ð»": 7684,
      "ĠÐ²Ð¾Ð¿": 7685,
      "Ð¾Ð»ÑĮÑģÐºÐ¸Ð¹": 7686,
      "ĠÐĳÐ¾Ð»ÐµÐµ": 7687,
      "ĠÑģÐ¾ÑģÑĤÐ¾ÑıÐ»Ð°ÑģÑĮ": 7688,
      "Ð»Ð¸ÑĪÐºÐ¾Ð¼": 7689,
      "ÑĨÐ²ÐµÑĤ": 7690,
      "ĠÐ·Ð¾Ð½": 7691,
      "ĠÑİÐ³": 7692,
      "ÑĥÑħÐ°": 7693,
      "ĠÐļÑĢÐ°ÑģÐ½Ð¾ÑıÑĢ": 7694,
      "Ġ1913": 7695,
      "ĠÐĶÐ¾Ð±": 7696,
      "ĠÐĿÐ°ÑĩÐ°Ð»Ð¾": 7697,
      "ĠÐ¾ÑģÐ½Ð¾Ð²Ñĥ": 7698,
      "ĠÐ°Ð½Ð°Ð»Ð¸Ð·Ð°": 7699,
      "ĠÐ¾ÑģÐ°Ð´ÐºÐ¾Ð²": 7700,
      "ĠÑģÐ¸Ð»Ð°Ð¼Ð¸": 7701,
      "ĠÐ°ÑĥÐ´": 7702,
      "ĠÑĤÐ¾ÑĩÐºÐ°": 7703,
      "ĠÑģÐµÐ²ÐµÑĢÐ½Ð¾Ð¹": 7704,
      "ĠÐ²Ð°Ð»ÑİÑĤ": 7705,
      "ĠQ": 7706,
      "ĠÐ½Ð°Ð»Ð¾Ð³": 7707,
      "ÑģÐ¸ÐµÐ¹": 7708,
      "ĠÐĳÑĢÐ°": 7709,
      "ÐµÐ½Ð°ÑĩÐ°Ð»ÑĮ": 7710,
      "ĠÑĢÐ°Ð·Ð²Ð¸ÑĤÐ¸Ð¸": 7711,
      "ĠÑĥÑģÑĤÑĢÐ¾": 7712,
      "ÐķÐ´Ð¸Ð½": 7713,
      "ĠÐ¿Ð¾Ð´ÑĢÐ¾Ð±": 7714,
      "ĠÐ¿Ð¾Ð±ÐµÐ´Ñĭ": 7715,
      "ĠÑĢÐ¾Ð¼Ð°Ð½Ð°": 7716,
      "ĠÑĪÑĤÐ°ÑĤ": 7717,
      "ĠÐ²ÑģÑĤÑĥÐ¿Ð¸Ð»": 7718,
      "%).": 7719,
      "ĠâĢ¦": 7720,
      "ĠÐ¿Ð¾ÑĢÐ¾Ð´": 7721,
      "ĠÑģÐ¸Ð³Ð½Ð°Ð»": 7722,
      "ĠÐ½Ð°Ð·Ð²Ð°Ð»": 7723,
      "ĠÐ»ÐµÑģÐ°": 7724,
      "ĠÐ¡Ñĭ": 7725,
      "ĠÑĢÐ°ÑģÑģÑĩÐ¸ÑĤ": 7726,
      "ĠÑģÑĤÐµÐ¿ÐµÐ½ÑĮ": 7727,
      "ÑĢÐ°Ð²Ð¾Ð¾ÑħÑĢÐ°Ð½": 7728,
      "ĠWindows": 7729,
      "Ð¾Ð¼Ð°": 7730,
      "ĠÐ½Ð¾Ð²ÑĥÑİ": 7731,
      "ĠÐ²Ð¸ÑĨÐµ": 7732,
      "ĠÐ¾Ð±ÑģÑĥ": 7733,
      "Ð¸Ð´Ðµ": 7734,
      "ĠÐŁÐ°ÑĤÑĢÐ¸": 7735,
      "ĠÐ½ÐµÑĢÐµÐ´": 7736,
      "Ð²Ð°ÑĢÐ¸": 7737,
      "Ð¼ÑĥÐ½Ð¸": 7738,
      "ĠÐ¿Ð¾ÑģÐ»ÐµÐ´Ð½ÐµÐ³Ð¾": 7739,
      "ĠÐ¿Ð¾ÑĩÑĤÐ¾Ð²": 7740,
      "ĠÑĪÐºÐ¾Ð»Ðµ": 7741,
      "ĠÑĢÐ°Ð²Ð½": 7742,
      "Ð²ÑģÐµ": 7743,
      "Ð¸ÑĢÑĥÑİÑĤ": 7744,
      "ĠÑĢÐ°Ð·ÑĢÐ°Ð±Ð¾ÑĤÐºÐ¸": 7745,
      "ÃĹ": 7746,
      "ĠÐ¾ÑĤÐºÑĢÑĭÑĤÐ¸Ñı": 7747,
      "Ð°Ð½Ð´Ð¸Ð½": 7748,
      "ĠÑĤÑĢÐ°Ð³": 7749,
      "ĠÐľÐ¸": 7750,
      "ÐĲÐ»ÑĮ": 7751,
      "Ã¡": 7752,
      "Ð¿ÑĤÐ¾Ð¼": 7753,
      "Ð°Ð²Ñĭ": 7754,
      "ĠÐ¼Ð¾Ð½Ð°ÑģÑĤÑĭÑĢÑĮ": 7755,
      "ĠÐ¼Ð»Ð½": 7756,
      "ĠÐ¿ÑĢÐ¸Ð³Ð»Ð°ÑĪ": 7757,
      "ÑģÐ¸Ñģ": 7758,
      "ÑĨÐµÐ»": 7759,
      "ÑģÐ¸Ð»Ð¸": 7760,
      "ÐµÑĢÐµÑı": 7761,
      "ĠÐ¶ÑĳÑģÑĤ": 7762,
      "ÑĤÐ¾ÑĢÐ¸Ð¸": 7763,
      "ork": 7764,
      "ĠÐ·Ð°Ð´Ð°ÑĩÐ¸": 7765,
      "ĠÐ´ÑĭÑħ": 7766,
      "ĠÐ±Ð¾ÑĢ": 7767,
      "Ð¼ÐµÑĩÐ°ÑĤÐµÐ»ÑĮ": 7768,
      "ĠÐ·Ð°Ð½ÑıÑĤ": 7769,
      "ĠÐĴÐ°ÑģÐ¸Ð»ÑĮÐµÐ²Ð¸Ñĩ": 7770,
      "ĠÐ¯ÐºÐ¾Ð²": 7771,
      "ÑģÐ²": 7772,
      "ĠÑĨÐ¸ÑĤ": 7773,
      "ĠÑģÐ¾Ð²Ð¾ÐºÑĥÐ¿": 7774,
      "ĠÐ²ÐµÑĢÐ½ÑĥÑĤÑĮ": 7775,
      "ĠÐ¸ÑģÑĤÐ¾ÑĢÐ¸ÑĩÐµÑģÐºÐ¸Ñħ": 7776,
      "ĠÐĺÐ½ÑĤÐµÑĢÐ½": 7777,
      "ĠÐ¡Ð²ÑıÑī": 7778,
      "ĠÐ¾ÑĤÐºÐ°Ð·Ð°Ð»ÑģÑı": 7779,
      "ĠÑĦÐ¾ÑĢÐ¼Ð¸ÑĢÐ¾Ð²Ð°Ð½Ð¸Ñı": 7780,
      "ÑĥÑĪÐºÐ°": 7781,
      "ÐŃÐ»ÐµÐºÑĤ": 7782,
      "ĠÐ²Ð¾Ð·Ð²ÑĭÑĪ": 7783,
      "ÐµÑĢÐºÑĥ": 7784,
      "ĠÐļÐ°Ð±": 7785,
      "ĠÑģÑĤÐ¾Ð»ÐºÐ½Ð¾Ð²": 7786,
      "ĠÐ¿Ð¾ÑħÐ¾ÑĢÐ¾Ð½": 7787,
      "ĠÐ¿ÑĢÐ¸ÑĩÐ¸Ð½Ð¾Ð¹": 7788,
      "ÐµÐ¼Ðµ": 7789,
      "ĠÐ¿ÑĢÐ¸Ð¼": 7790,
      "Ġ1915": 7791,
      "ĠÑĦÐ°Ð·": 7792,
      "ĠÑģÑĤÐ¾Ð»Ð¸ÑĨÑĭ": 7793,
      "ĠÐ¿ÑĢÐ°Ð²Ð¾ÑģÐ»Ð°Ð²Ð½Ð¾Ð¹": 7794,
      "ĠÐ¡ÐµÑĢÐ±": 7795,
      "Ð¸ÑĢÐ¾Ð²Ð°Ð»": 7796,
      "ĠÐłÐ¸Ð¼Ð°": 7797,
      "ĠÐ¼ÐµÑħÐ°Ð½Ð¸Ð·Ð¼": 7798,
      "ĠÐ¿ÑĢÐ¾ÑģÑĮ": 7799,
      "ÐļÐ»Ð¸Ð¼Ð°ÑĤ": 7800,
      "ÐŃÐ½": 7801,
      "ĠÐ°ÑĢÑĤ": 7802,
      "ÑĥÑħÐ¾Ð²": 7803,
      "ĠÐ¾Ð±ÑīÐµÑģÑĤÐ²ÐµÐ½Ð½ÑĭÐ¹": 7804,
      "ĠÐ¦ÐµÐ½ÑĤÑĢÐ°Ð»ÑĮÐ½Ð¾Ð¹": 7805,
      "ĠÐ¿Ð¾ÑħÐ¾Ð¶": 7806,
      "ĠÐŀÑĦÐ¸ÑĨÐ¸Ð°Ð»ÑĮÐ½ÑĭÐ¹": 7807,
      "ĠÐ±Ð¾Ð¹": 7808,
      "ÑĳÐ½Ð½Ð¾ÑģÑĤÐ¸": 7809,
      "ĠÑĥÑģÐ»ÑĥÐ³": 7810,
      "ĠÐ¾ÑħÐ¾ÑĤ": 7811,
      "ĠÑĥÑĩÐ¸Ð»Ð¸ÑīÐµ": 7812,
      "ĠÐ½ÑĢÐ°Ð²": 7813,
      "ĠÐ·Ð°ÐºÐ°Ð·": 7814,
      "ĠÐ°ÑĢÑħÐ¸ÑĤÐµÐºÑĤÑĥÑĢ": 7815,
      "ĠÐºÐ¾Ð¼Ð¸ÑĤÐµÑĤÐ°": 7816,
      "ĠÑģÐ»Ð¸ÑĪÐºÐ¾Ð¼": 7817,
      "ĠÐľÐĵ": 7818,
      "ĠÑĩÐµÑĪ": 7819,
      "ĠÐ·Ð²ÑĥÑĩ": 7820,
      "ĠÐ´Ð¾ÐºÑĤÐ¾ÑĢÐ°": 7821,
      "ĠÐŀÐ±ÑīÐµ": 7822,
      "ĠÑĢÐ°Ð·Ð´ÐµÐ»Ñı": 7823,
      "ĠÑĤÑı": 7824,
      "Ð°ÑĢÐ½Ð¾Ð¹": 7825,
      "ĠÐŁÑĢÐ¾Ðº": 7826,
      "ÐºÑĢÐ°Ñģ": 7827,
      "ĠÐ²ÑĭÑģÑĤÑĥÐ¿Ð¸Ð»": 7828,
      "ĠÑĤÑĢÑĥÐ±": 7829,
      "Ð°Ð½Ð³ÐµÐ»ÑĮ": 7830,
      "ĠÐľÑĥÑħÐ°Ð¼Ð¼": 7831,
      "ĠÑįÑĤÐ½": 7832,
      "ire": 7833,
      "ĠÐ·Ð²Ð°Ð½Ð¸Ñı": 7834,
      "ĠÐ°Ð»ÐºÐ¾Ð³": 7835,
      "ĠÐŀÐºÑĤÑıÐ±ÑĢÑĮ": 7836,
      "ÑĥÐ¼Ð¸": 7837,
      "ÑĥÑĤÐ¾": 7838,
      "ĠÐ¡ÑĤÐ°": 7839,
      "ĠÐ¿Ð¾Ð»Ð½Ð¾": 7840,
      "ĠÐĽÑİÐ±": 7841,
      "ĠÐ¿ÑĢÐ¾ÑĨÐµÑģÑģÐ¾Ð²": 7842,
      "ÑĢÐ¸Ð½Ð°": 7843,
      "ĠÐ¶Ð¸ÑĤÐµÐ»Ð¸": 7844,
      "ĠÐ³Ð»ÑĥÐ±Ð¾Ðº": 7845,
      "ĠÑĤÐµÐ»ÐµÐ²Ð¸Ð´ÐµÐ½Ð¸Ñı": 7846,
      "ĠÐ¿ÑĢÐµÑĤ": 7847,
      "ĠÐ¿Ð¾ÑĢÑıÐ´ÐºÐµ": 7848,
      "ĠÐĿÐµÐ²": 7849,
      "ĠÐ´Ð¾Ð¼Ð¾Ð²": 7850,
      "ĠÐ¤ÑĢÐ°Ð½ÑĨÐ¸Ñı": 7851,
      "ĠÐ¤ÑĢÐ°Ð½ÑĨÑĥÐ·": 7852,
      "ĠÐ½Ð°Ð·ÑĭÐ²Ð°Ð»Ð¸": 7853,
      "ĠÐĿÐ¾Ð²Ð¾ÑģÐ¸Ð±Ð¸ÑĢ": 7854,
      "ĠÐ½ÐµÐºÐ¾ÑĤÐ¾ÑĢÐ¾Ðµ": 7855,
      "ĠÐ·Ð°ÑģÐ»ÑĥÐ³Ð¸": 7856,
      "ĠÐ³ÑĢÐ°Ð²Ð¸ÑĤÐ°": 7857,
      "ĠÐºÑĢÐ¸Ð·Ð¸Ñģ": 7858,
      "ĠÐ¨Ð²ÐµÑĨÐ¸Ð¸": 7859,
      "Ð²Ð¸Ð´Ð°": 7860,
      "ĠÐ°Ð½Ð³Ð»": 7861,
      "ĠÐ¿ÑĢÐ°ÐºÑĤÐ¸ÐºÐµ": 7862,
      "ĠÐ½ÐµÐ¾Ð´Ð½Ð¾ÐºÑĢÐ°ÑĤÐ½Ð¾": 7863,
      "ĠÑģÐµÐ´": 7864,
      "ĠÑģÐµÐ»Ðµ": 7865,
      "ĠÐ¥ÑĢÐ¸ÑģÑĤ": 7866,
      "ĠÐ¡ÑĤÐ°Ð²": 7867,
      "ĠÑĥÐ³Ð¾Ð»Ð¾Ð²": 7868,
      "Ð°Ð»Ñı": 7869,
      "Ð¡Ð²": 7870,
      "ĠÑĪÑĤÑĥÑĢ": 7871,
      "ĠÑģÐ¾ÑģÑĤÐ°Ð²Ð¸Ð»Ð°": 7872,
      "ĠÐ·ÐµÐ¼Ð»Ðµ": 7873,
      "ĠÐ¼Ð¾ÑĢÑģÐºÐ¾Ð¹": 7874,
      "ĠÐ°ÑĤÐ¼Ð¾ÑģÑĦÐµÑĢ": 7875,
      "ĠÐŁÐ¾Ñĩ": 7876,
      "ĠÐļÐ¸": 7877,
      "ĠÐ²Ð¾Ð·Ð¾Ð±Ð½Ð¾Ð²": 7878,
      "ĠÐĴÐµÑģÑĤ": 7879,
      "ĠÐĳÐ°Ð³": 7880,
      "ĠÐ³ÑĢÐ°Ð¼Ð¾ÑĤ": 7881,
      "ĠÑĢÐ¾ÑģÑģÐ¸Ð¹ÑģÐºÐ¾Ð³Ð¾": 7882,
      "ĠÐ´Ð¾ÐºÑĤÐ¾ÑĢ": 7883,
      "ĠÐĽÑİÐ´": 7884,
      "ĠÐºÐ°Ð½Ð´Ð¸Ð´Ð°ÑĤ": 7885,
      "Ð¿Ð¾Ñģ": 7886,
      "Ð¾ÑĤÐ°Ð½Ð¸": 7887,
      "Ð¾Ð»ÑĮÐ·Ð¾Ð²": 7888,
      "ÐĹÐ°Ð¿Ð°Ð´": 7889,
      "Ð²Ð¸Ð·": 7890,
      "ĠÐ¥Ð°ÑĢÑĮ": 7891,
      "ĠÑģÐ¾Ð¾Ð±ÑīÐµÐ½Ð¸Ðµ": 7892,
      "sk": 7893,
      "ĠÐ²ÑĭÑħÐ¾Ð´Ð°": 7894,
      "ĠÐºÐ¾ÑĤÐ¾ÑĢÑĭÐ¼Ð¸": 7895,
      "ĠÐ´Ð¸ÑģÐ¿": 7896,
      "Ð¸ÑıÐ¼Ð¸": 7897,
      "ĠÐĲÑĦÑĢÐ¸ÐºÐ¸": 7898,
      "ĠÐ¾Ð±Ð¼ÐµÐ½": 7899,
      "ĠÑģÐ¾Ð²ÐµÑĤÑģÐºÐ¾Ð³Ð¾": 7900,
      "Ð¦ÐµÐ½ÑĤ": 7901,
      "ĠÑİÐ¶Ð½Ð¾Ð¹": 7902,
      "ĠÐ¸Ð·Ð³Ð½": 7903,
      "ĠÐ¾Ð±ÑĪÐ¸ÑĢ": 7904,
      "ĠÐ¾Ð±ÑģÑĤÐ¾ÑıÑĤÐµÐ»ÑĮ": 7905,
      "ÑĥÐ·Ð¾Ð²": 7906,
      "ast": 7907,
      "ĠÐºÐ¾ÑĢÐ¿ÑĥÑģÐ°": 7908,
      "ĠÐ¸Ð·Ð»Ð¾Ð¶": 7909,
      "ĠÑıÐº": 7910,
      "ĠÐ¾ÑģÐ²Ð¾Ð±Ð¾Ð¶Ð´": 7911,
      "ĠÐľÐ¸ÑħÐ°Ð¹Ð»Ð¾Ð²Ð¸Ñĩ": 7912,
      "ĠÐĺÐµÑĢÑĥÑģÐ°Ð»Ð¸Ð¼": 7913,
      "ÐĴÐ¾Ð»": 7914,
[...]
